<unk>	0
<s>	0
</s>	0
▁I	-0
re	-1
ou	-2
▁T	-3
▁t	-4
▁a	-5
▁i	-6
▁s	-7
om	-8
he	-9
▁w	-10
ed	-11
▁Tom	-12
in	-13
▁m	-14
ha	-15
▁W	-16
▁y	-17
▁you	-18
▁c	-19
on	-20
ve	-21
▁l	-22
▁d	-23
▁b	-24
ll	-25
▁f	-26
▁it	-27
▁n	-28
an	-29
ing	-30
▁g	-31
▁Y	-32
▁You	-33
▁is	-34
▁We	-35
as	-36
hat	-37
is	-38
▁H	-39
et	-40
▁D	-41
▁It	-42
▁me	-43
oo	-44
ke	-45
ow	-46
us	-47
▁S	-48
▁h	-49
ot	-50
at	-51
er	-52
▁A	-53
or	-54
▁ha	-55
▁the	-56
en	-57
ar	-58
id	-59
▁p	-60
le	-61
▁He	-62
▁he	-63
▁The	-64
▁was	-65
ay	-66
▁G	-67
▁C	-68
ry	-69
his	-70
it	-71
one	-72
ck	-73
▁to	-74
▁L	-75
▁They	-76
ad	-77
ee	-78
▁Are	-79
▁st	-80
ome	-81
▁u	-82
ri	-83
▁lo	-84
▁go	-85
es	-86
▁re	-87
▁li	-88
▁Don	-89
al	-90
▁in	-91
▁ne	-92
▁that	-93
im	-94
▁B	-95
▁not	-96
un	-97
▁be	-98
▁e	-99
▁do	-100
▁up	-101
ook	-102
ust	-103
gh	-104
▁Is	-105
▁o	-106
ake	-107
▁Do	-108
▁we	-109
▁That	-110
▁your	-111
ho	-112
▁k	-113
▁can	-114
▁this	-115
▁Let	-116
ur	-117
red	-118
▁sa	-119
▁ca	-120
ic	-121
ant	-122
op	-123
▁like	-124
ea	-125
st	-126
▁St	-127
▁have	-128
▁M	-129
▁my	-130
out	-131
ive	-132
▁need	-133
▁r	-134
ch	-135
ld	-136
se	-137
▁She	-138
ent	-139
▁Be	-140
▁on	-141
▁Who	-142
▁j	-143
▁here	-144
▁What	-145
▁Get	-146
ly	-147
ill	-148
▁This	-149
▁out	-150
▁love	-151
ra	-152
ght	-153
very	-154
▁all	-155
ir	-156
▁want	-157
ul	-158
lp	-159
▁N	-160
▁Can	-161
▁wor	-162
pp	-163
▁P	-164
▁him	-165
▁are	-166
▁us	-167
▁so	-168
ut	-169
▁an	-170
me	-171
▁Go	-172
el	-173
▁look	-174
▁kn	-175
▁see	-176
▁help	-177
▁E	-178
▁one	-179
ct	-180
▁al	-181
▁Did	-182
ro	-183
▁no	-184
▁How	-185
▁got	-186
ack	-187
ver	-188
▁work	-189
ain	-190
ful	-191
ss	-192
leas	-193
▁did	-194
fe	-195
ood	-196
ine	-197
▁K	-198
ous	-199
lease	-200
▁Take	-201
alk	-202
▁aw	-203
il	-204
nd	-205
▁No	-206
▁F	-207
own	-208
▁know	-209
▁saw	-210
▁too	-211
eep	-212
▁di	-213
▁for	-214
▁home	-215
▁at	-216
▁hat	-217
▁sh	-218
dy	-219
▁jo	-220
▁Come	-221
▁Keep	-222
all	-223
▁ag	-224
ble	-225
▁hur	-226
ce	-227
▁of	-228
ink	-229
qu	-230
ig	-231
▁O	-232
▁dr	-233
ved	-234
▁must	-235
ired	-236
▁back	-237
▁lost	-238
ave	-239
ick	-240
▁am	-241
eave	-242
▁R	-243
eel	-244
ep	-245
hed	-246
ter	-247
▁Give	-248
▁had	-249
▁Stop	-250
▁happ	-251
▁Please	-252
▁en	-253
▁care	-254
ind	-255
▁mo	-256
▁now	-257
▁read	-258
am	-259
▁qu	-260
▁fun	-261
▁feel	-262
ong	-263
▁bus	-264
▁get	-265
ice	-266
▁se	-267
▁sm	-268
▁tr	-269
ate	-270
uck	-271
▁mad	-272
▁down	-273
lo	-274
▁de	-275
▁come	-276
ait	-277
▁Stay	-278
▁will	-279
ide	-280
▁ri	-281
▁hurt	-282
▁very	-283
▁them	-284
▁fel	-285
▁Every	-286
art	-287
ime	-288
▁won	-289
▁felt	-290
bo	-291
▁there	-292
um	-293
ist	-294
▁un	-295
▁has	-296
▁alone	-297
▁bo	-298
ight	-299
▁good	-300
ish	-301
ough	-302
ue	-303
body	-304
ound	-305
▁Have	-306
▁away	-307
▁busy	-308
▁J	-309
ell	-310
▁la	-311
▁th	-312
▁hate	-313
zy	-314
▁again	-315
▁ar	-316
ie	-317
pt	-318
ast	-319
ool	-320
▁happy	-321
ned	-322
▁sw	-323
ould	-324
ried	-325
▁car	-326
ge	-327
▁na	-328
▁talk	-329
▁were	-330
iss	-331
old	-332
▁win	-333
▁sc	-334
▁su	-335
▁try	-336
▁ex	-337
atch	-338
hing	-339
▁stu	-340
han	-341
▁kid	-342
▁safe	-343
▁stop	-344
▁le	-345
ated	-346
▁her	-347
ft	-348
▁sp	-349
▁call	-350
▁mine	-351
▁time	-352
▁as	-353
▁bl	-354
less	-355
▁dog	-356
hy	-357
▁v	-358
▁che	-359
ug	-360
▁pl	-361
ny	-362
no	-363
ary	-364
end	-365
▁fa	-366
▁wr	-367
▁eat	-368
▁OK	-369
▁Just	-370
▁con	-371
▁Everyone	-372
▁bad	-373
▁pre	-374
▁went	-375
leep	-376
▁Whe	-377
▁isn	-378
▁luck	-379
▁nice	-380
▁right	-381
ap	-382
and	-383
▁cra	-384
▁over	-385
ak	-386
asy	-387
▁don	-388
▁job	-389
▁off	-390
▁well	-391
▁made	-392
uy	-393
ite	-394
roke	-395
▁Look	-396
▁going	-397
led	-398
▁My	-399
ring	-400
▁big	-401
▁seem	-402
▁ready	-403
▁tired	-404
▁trust	-405
lf	-406
ree	-407
▁Leave	-408
▁broke	-409
▁leave	-410
ag	-411
est	-412
her	-413
oor	-414
▁Am	-415
ious	-416
king	-417
ving	-418
▁done	-419
▁Try	-420
▁Mary	-421
▁Where	-422
ff	-423
▁ke	-424
ared	-425
▁res	-426
▁just	-427
arly	-428
▁run	-429
▁wit	-430
▁easy	-431
▁drink	-432
gry	-433
ding	-434
reat	-435
▁fin	-436
▁some	-437
▁stay	-438
▁wait	-439
ked	-440
▁Sh	-441
▁pr	-442
side	-443
▁dis	-444
▁har	-445
▁with	-446
▁sleep	-447
▁ad	-448
able	-449
▁com	-450
▁left	-451
▁looks	-452
ax	-453
ol	-454
our	-455
▁didn	-456
▁still	-457
▁take	-458
▁careful	-459
ud	-460
ber	-461
used	-462
▁May	-463
▁sad	-464
ard	-465
med	-466
pen	-467
▁Re	-468
▁bet	-469
▁let	-470
▁old	-471
▁tea	-472
▁hard	-473
▁late	-474
▁miss	-475
get	-476
▁crazy	-477
iz	-478
low	-479
ren	-480
▁ob	-481
self	-482
▁fat	-483
▁new	-484
▁Here	-485
▁died	-486
▁they	-487
▁Bring	-488
▁gr	-489
ream	-490
▁came	-491
▁door	-492
▁sing	-493
pe	-494
oke	-495
ted	-496
urn	-497
▁ro	-498
lose	-499
oney	-500
▁dri	-501
▁Wait	-502
▁walk	-503
▁kidding	-504
ang	-505
set	-506
▁fi	-507
▁fo	-508
▁rel	-509
▁str	-510
▁sur	-511
▁tra	-512
▁war	-513
▁Make	-514
▁early	-515
▁wrong	-516
▁enough	-517
eet	-518
▁im	-519
▁book	-520
▁sick	-521
▁upset	-522
ise	-523
ush	-524
▁cle	-525
▁may	-526
▁say	-527
▁more	-528
▁found	-529
bb	-530
ty	-531
day	-532
eak	-533
▁sn	-534
▁cat	-535
▁cry	-536
▁man	-537
▁lucky	-538
▁never	-539
ife	-540
ning	-541
▁bed	-542
▁lot	-543
iet	-544
ion	-545
unk	-546
cked	-547
llow	-548
ying	-549
▁fri	-550
▁chan	-551
▁cold	-552
▁fine	-553
▁swim	-554
▁money	-555
▁yours	-556
▁friend	-557
▁needed	-558
ess	-559
ged	-560
ied	-561
▁bot	-562
▁free	-563
ies	-564
ute	-565
▁As	-566
▁sk	-567
erri	-568
irst	-569
▁said	-570
▁sure	-571
▁wasn	-572
▁naive	-573
▁quiet	-574
▁called	-575
▁please	-576
oy	-577
ear	-578
ird	-579
mem	-580
ort	-581
▁gu	-582
▁id	-583
▁Was	-584
▁tou	-585
erful	-586
▁cook	-587
▁dead	-588
▁hear	-589
▁There	-590
▁Watch	-591
alm	-592
ank	-593
hank	-594
head	-595
ited	-596
▁Ask	-597
▁die	-598
▁our	-599
▁tri	-600
▁Call	-601
▁Does	-602
▁Help	-603
▁likes	-604
ci	-605
em	-606
▁U	-607
pid	-608
ump	-609
▁ch	-610
▁fl	-611
ched	-612
▁ahead	-613
▁stupid	-614
ew	-615
gg	-616
nt	-617
ame	-618
ers	-619
irl	-620
ope	-621
▁af	-622
▁po	-623
ered	-624
reak	-625
▁Che	-626
▁Now	-627
▁any	-628
▁son	-629
▁way	-630
▁cool	-631
▁smil	-632
▁funny	-633
▁remem	-634
res	-635
▁Dr	-636
▁ab	-637
▁Why	-638
▁bra	-639
▁exc	-640
▁sho	-641
ished	-642
▁Were	-643
▁cont	-644
▁fast	-645
▁lazy	-646
▁angry	-647
▁drunk	-648
▁Nobody	-649
▁yourself	-650
rab	-651
▁co	-652
▁tw	-653
pped	-654
ught	-655
▁buy	-656
▁his	-657
▁pay	-658
▁pro	-659
▁sha	-660
rench	-661
▁beer	-662
▁fool	-663
▁hand	-664
▁hope	-665
▁quit	-666
erious	-667
▁drive	-668
▁loves	-669
▁French	-670
▁Lo	-671
ctor	-672
▁day	-673
▁hun	-674
▁Open	-675
▁plan	-676
▁play	-677
▁slow	-678
ng	-679
row	-680
ull	-681
uts	-682
▁cl	-683
ater	-684
▁Run	-685
▁bit	-686
▁fix	-687
▁hor	-688
▁sit	-689
▁knew	-690
▁mean	-691
▁move	-692
▁true	-693
▁sweet	-694
▁inside	-695
▁scared	-696
▁working	-697
▁remember	-698
mo	-699
joy	-700
mer	-701
ure	-702
▁cr	-703
▁fr	-704
ient	-705
mell	-706
orry	-707
rect	-708
▁For	-709
▁dan	-710
▁hot	-711
▁sec	-712
isten	-713
▁Hold	-714
▁calm	-715
▁find	-716
▁rest	-717
▁every	-718
▁looked	-719
air	-720
ign	-721
▁pat	-722
▁girl	-723
▁live	-724
▁lose	-725
▁shot	-726
▁wine	-727
▁Check	-728
▁could	-729
▁fired	-730
▁touch	-731
▁doctor	-732
▁happen	-733
▁joking	-734
sy	-735
ote	-736
▁pa	-737
▁Any	-738
▁dec	-739
▁gun	-740
▁imp	-741
▁inv	-742
▁key	-743
▁conf	-744
▁fish	-745
▁prep	-746
▁tall	-747
▁Thank	-748
▁about	-749
▁first	-750
▁smell	-751
▁should	-752
▁finished	-753
by	-754
ner	-755
ond	-756
yes	-757
▁att	-758
▁cou	-759
▁ner	-760
ented	-761
▁eyes	-762
▁joke	-763
▁break	-764
▁knows	-765
▁sorry	-766
▁nothing	-767
▁prepared	-768
az	-769
ass	-770
oot	-771
▁En	-772
▁Th	-773
nore	-774
ssed	-775
▁des	-776
▁ref	-777
▁why	-778
▁Good	-779
▁Lock	-780
▁both	-781
▁nuts	-782
▁dream	-783
▁fight	-784
▁seems	-785
▁start	-786
▁today	-787
▁better	-788
▁caught	-789
▁forget	-790
▁outside	-791
▁Everybody	-792
ile	-793
ins	-794
ude	-795
▁mu	-796
ever	-797
ured	-798
urry	-799
▁and	-800
▁boy	-801
▁cha	-802
▁met	-803
▁ret	-804
▁she	-805
▁shy	-806
errif	-807
▁Grab	-808
▁best	-809
▁boss	-810
▁fair	-811
▁took	-812
arried	-813
▁Hurry	-814
▁hurry	-815
▁hurts	-816
▁relax	-817
▁think	-818
▁coming	-819
ash	-820
ert	-821
ike	-822
ize	-823
▁Ex	-824
▁by	-825
ible	-826
pect	-827
▁ask	-828
▁ate	-829
▁fam	-830
▁ins	-831
▁law	-832
▁use	-833
esome	-834
ought	-835
thing	-836
urned	-837
▁Shut	-838
▁fell	-839
▁much	-840
▁room	-841
▁weak	-842
▁Close	-843
▁close	-844
▁loved	-845
▁sound	-846
▁tough	-847
▁tried	-848
▁weird	-849
▁hungry	-850
▁serious	-851
cer	-852
ord	-853
use	-854
ally	-855
hose	-856
ling	-857
▁Sit	-858
▁beg	-859
onely	-860
▁Beat	-861
▁does	-862
▁food	-863
▁kept	-864
▁kill	-865
▁real	-866
▁star	-867
▁tell	-868
▁great	-869
▁liked	-870
▁quick	-871
▁follow	-872
▁lonely	-873
ey	-874
ced	-875
esc	-876
orn	-877
▁Tr	-878
oned	-879
vous	-880
▁See	-881
▁bel	-882
▁far	-883
▁mer	-884
▁sat	-885
▁Read	-886
▁Tell	-887
▁Turn	-888
▁cute	-889
▁forg	-890
▁idea	-891
▁lied	-892
▁rich	-893
▁Stand	-894
▁hired	-895
▁small	-896
▁works	-897
▁young	-898
▁helped	-899
▁strong	-900
▁wanted	-901
▁warned	-902
▁cheated	-903
▁nervous	-904
sw	-905
int	-906
sit	-907
▁ru	-908
cent	-909
rite	-910
▁All	-911
▁end	-912
▁esc	-913
▁kids	-914
▁kiss	-915
▁once	-916
▁sign	-917
▁told	-918
▁awful	-919
▁bored	-920
▁brave	-921
▁count	-922
▁lying	-923
▁smart	-924
▁study	-925
▁watch	-926
▁trapped	-927
ip	-928
pl	-929
eal	-930
ect	-931
ian	-932
tty	-933
▁Un	-934
▁ba	-935
▁ra	-936
airs	-937
ised	-938
▁Eat	-939
▁bar	-940
▁guy	-941
▁ill	-942
▁los	-943
▁mom	-944
ating	-945
gnore	-946
▁Show	-947
▁gave	-948
▁give	-949
▁hero	-950
▁name	-951
▁only	-952
▁seat	-953
orrect	-954
▁Start	-955
▁Write	-956
▁clean	-957
▁escap	-958
▁girls	-959
▁needs	-960
▁these	-961
errific	-962
▁Thanks	-963
▁around	-964
▁pretty	-965
▁scream	-966
▁trying	-967
▁awesome	-968
▁winning	-969
lc	-970
eas	-971
orm	-972
umb	-973
▁Sp	-974
ject	-975
lept	-976
raid	-977
▁Isn	-978
▁Sha	-979
▁app	-980
▁bor	-981
▁bri	-982
▁int	-983
▁lea	-984
▁lie	-985
▁pun	-986
chool	-987
▁Hang	-988
▁Life	-989
▁Will	-990
▁anno	-991
▁make	-992
▁mind	-993
▁norm	-994
▁open	-995
▁paid	-996
▁yell	-997
stairs	-998
▁after	-999
▁belie	-1000
▁Forget	-1001
▁correct	-1002
▁leaving	-1003
▁relaxed	-1004
▁smiling	-1005
▁talking	-1006
dd	-1007
up	-1008
alt	-1009
ire	-1010
ore	-1011
ped	-1012
ray	-1013
ual	-1014
uit	-1015
uth	-1016
vor	-1017
▁gl	-1018
▁hi	-1019
▁ph	-1020
reed	-1021
▁Say	-1022
▁cop	-1023
▁fit	-1024
▁hug	-1025
▁min	-1026
▁mis	-1027
▁per	-1028
▁pow	-1029
▁red	-1030
▁unl	-1031
gging	-1032
umped	-1033
▁Drop	-1034
▁Time	-1035
▁aren	-1036
▁char	-1037
▁gone	-1038
▁inno	-1039
▁last	-1040
▁pain	-1041
▁surv	-1042
▁what	-1043
ressed	-1044
▁Trust	-1045
▁cried	-1046
▁tight	-1047
▁water	-1048
▁sleepy	-1049
▁excited	-1050
▁friends	-1051
▁reading	-1052
▁Terrific	-1053
▁innocent	-1054
les	-1055
ons	-1056
ult	-1057
uty	-1058
▁Fo	-1059
▁ap	-1060
▁br	-1061
ange	-1062
fect	-1063
fied	-1064
icky	-1065
ming	-1066
ucky	-1067
unch	-1068
▁bag	-1069
▁den	-1070
▁gen	-1071
▁hit	-1072
▁mat	-1073
▁sil	-1074
inner	-1075
usted	-1076
vious	-1077
▁amaz	-1078
▁danc	-1079
▁obey	-1080
▁show	-1081
▁teac	-1082
▁wife	-1083
sitive	-1084
▁Drink	-1085
▁agree	-1086
▁drank	-1087
▁enjoy	-1088
▁horri	-1089
▁merci	-1090
▁might	-1091
▁saved	-1092
▁wants	-1093
▁Follow	-1094
▁afraid	-1095
▁famous	-1096
▁normal	-1097
▁silent	-1098
▁smiled	-1099
▁married	-1100
▁trusted	-1101
▁unlucky	-1102
aw	-1103
gu	-1104
age	-1105
eci	-1106
ild	-1107
iot	-1108
ove	-1109
ppy	-1110
ret	-1111
ugh	-1112
▁Bo	-1113
▁ac	-1114
▁si	-1115
blem	-1116
ffee	-1117
iled	-1118
inue	-1119
ting	-1120
▁age	-1121
▁foc	-1122
▁sen	-1123
▁ski	-1124
ident	-1125
onest	-1126
plain	-1127
rayed	-1128
▁Aren	-1129
▁Your	-1130
▁been	-1131
▁comm	-1132
▁soon	-1133
▁trip	-1134
▁Never	-1135
▁Think	-1136
▁alive	-1137
▁blind	-1138
▁creat	-1139
▁guess	-1140
▁idiot	-1141
▁laugh	-1142
▁naked	-1143
▁Listen	-1144
▁anyone	-1145
▁change	-1146
▁crying	-1147
▁moving	-1148
▁myself	-1149
▁really	-1150
▁seated	-1151
▁changed	-1152
▁escaped	-1153
▁invited	-1154
▁problem	-1155
▁quickly	-1156
▁worried	-1157
▁betrayed	-1158
▁creative	-1159
▁merciful	-1160
cel	-1161
isk	-1162
ken	-1163
oof	-1164
per	-1165
rew	-1166
ugg	-1167
unt	-1168
ven	-1169
▁Ch	-1170
▁wh	-1171
ceed	-1172
elax	-1173
illy	-1174
most	-1175
reet	-1176
swer	-1177
▁God	-1178
▁Tie	-1179
▁dou	-1180
▁leg	-1181
▁ran	-1182
▁rat	-1183
▁som	-1184
althy	-1185
ashed	-1186
iting	-1187
ughed	-1188
▁date	-1189
▁deal	-1190
▁dogs	-1191
▁join	-1192
▁near	-1193
▁ours	-1194
▁part	-1195
▁prom	-1196
▁push	-1197
▁risk	-1198
▁rude	-1199
▁seen	-1200
▁snow	-1201
▁teas	-1202
▁Relax	-1203
▁armed	-1204
▁awake	-1205
▁child	-1206
▁doing	-1207
▁short	-1208
▁silly	-1209
▁slept	-1210
▁smoke	-1211
▁surre	-1212
▁terri	-1213
▁almost	-1214
▁honest	-1215
▁listen	-1216
▁minute	-1217
▁object	-1218
▁amazing	-1219
▁dancing	-1220
▁laughed	-1221
▁patient	-1222
▁teacher	-1223
▁positive	-1224
▁terrible	-1225
ane	-1226
are	-1227
fer	-1228
gly	-1229
log	-1230
los	-1231
mpt	-1232
ont	-1233
oud	-1234
ten	-1235
tle	-1236
bbed	-1237
irty	-1238
olog	-1239
over	-1240
rove	-1241
▁Cut	-1242
▁Use	-1243
▁bal	-1244
▁hum	-1245
▁odd	-1246
▁pen	-1247
▁sim	-1248
▁two	-1249
ardon	-1250
armed	-1251
ctual	-1252
▁Some	-1253
▁exha	-1254
▁fake	-1255
▁grow	-1256
▁life	-1257
▁sell	-1258
▁sent	-1259
▁ugly	-1260
▁vote	-1261
▁woke	-1262
▁Enjoy	-1263
▁Speak	-1264
▁camer	-1265
▁doors	-1266
▁heard	-1267
▁inter	-1268
▁somet	-1269
▁speci	-1270
▁Ignore	-1271
▁Pardon	-1272
▁boring	-1273
▁coffee	-1274
▁kissed	-1275
▁slowly	-1276
▁talked	-1277
▁walked	-1278
▁Anybody	-1279
▁driving	-1280
▁perfect	-1281
▁running	-1282
▁strange	-1283
▁surrend	-1284
▁confused	-1285
▁punctual	-1286
bt	-1287
ace	-1288
ail	-1289
ans	-1290
bel	-1291
eaf	-1292
het	-1293
lex	-1294
oos	-1295
uel	-1296
▁gi	-1297
cted	-1298
inny	-1299
ston	-1300
▁Buy	-1301
▁His	-1302
▁adm	-1303
▁lit	-1304
▁ord	-1305
▁own	-1306
▁rid	-1307
▁set	-1308
▁tax	-1309
▁vol	-1310
erous	-1311
hetic	-1312
icked	-1313
lcome	-1314
oosen	-1315
rived	-1316
▁Hand	-1317
▁Send	-1318
▁Talk	-1319
▁Wash	-1320
▁fain	-1321
▁fear	-1322
▁game	-1323
▁kind	-1324
▁lawy	-1325
▁loud	-1326
▁supp	-1327
▁town	-1328
▁wake	-1329
▁wind	-1330
▁wond	-1331
inched	-1332
▁blame	-1333
▁cruel	-1334
▁doubt	-1335
▁dying	-1336
▁hates	-1337
▁heart	-1338
▁often	-1339
▁spoke	-1340
▁stand	-1341
▁stink	-1342
▁stuck	-1343
▁Loosen	-1344
▁Should	-1345
▁asleep	-1346
▁broken	-1347
▁camera	-1348
▁cancel	-1349
▁decide	-1350
▁eating	-1351
▁missed	-1352
▁skinny	-1353
▁stayed	-1354
▁volunt	-1355
▁worked	-1356
▁arrived	-1357
▁focused	-1358
▁foolish	-1359
▁retired	-1360
▁tricked	-1361
▁useless	-1362
▁followed	-1363
▁powerful	-1364
▁upstairs	-1365
▁something	-1366
▁everything	-1367
ef	-1368
ese	-1369
ief	-1370
iev	-1371
raw	-1372
uri	-1373
▁bu	-1374
▁ow	-1375
▁sl	-1376
hind	-1377
ical	-1378
ouse	-1379
usic	-1380
▁Man	-1381
▁Put	-1382
▁amb	-1383
▁egg	-1384
▁imm	-1385
▁psy	-1386
▁rec	-1387
▁tom	-1388
▁wet	-1389
bborn	-1390
erved	-1391
iring	-1392
irsty	-1393
olved	-1394
▁Nice	-1395
▁Pick	-1396
▁Step	-1397
▁Well	-1398
▁deaf	-1399
▁disg	-1400
▁drop	-1401
▁from	-1402
▁gear	-1403
▁liar	-1404
▁stud	-1405
▁stun	-1406
▁turn	-1407
▁warm	-1408
believ	-1409
urious	-1410
▁Could	-1411
▁annoy	-1412
▁catch	-1413
▁check	-1414
▁fined	-1415
▁horse	-1416
▁later	-1417
▁meant	-1418
▁music	-1419
▁speak	-1420
▁survi	-1421
▁those	-1422
▁worry	-1423
▁apolog	-1424
▁attack	-1425
▁behind	-1426
▁clever	-1427
▁dumped	-1428
▁hugged	-1429
▁killed	-1430
▁losing	-1431
▁moment	-1432
▁nearby	-1433
▁second	-1434
▁trusts	-1435
▁waited	-1436
▁finicky	-1437
▁special	-1438
▁thirsty	-1439
▁yelling	-1440
▁Unbeliev	-1441
▁continue	-1442
▁involved	-1443
▁pathetic	-1444
▁stubborn	-1445
▁studying	-1446
▁surrendered	-1447
▁Unbelievable	-1448
be	-1449
xt	-1450
ffe	-1451
fty	-1452
ich	-1453
ilk	-1454
its	-1455
llo	-1456
rol	-1457
way	-1458
yal	-1459
zzy	-1460
▁Pl	-1461
▁ev	-1462
▁or	-1463
▁pu	-1464
aded	-1465
apan	-1466
came	-1467
emor	-1468
ence	-1469
ilty	-1470
ions	-1471
ized	-1472
lock	-1473
main	-1474
oose	-1475
rive	-1476
▁art	-1477
▁ear	-1478
▁fan	-1479
▁fly	-1480
▁gam	-1481
▁map	-1482
▁und	-1483
▁yes	-1484
creet	-1485
eered	-1486
hamed	-1487
other	-1488
▁Find	-1489
▁Many	-1490
▁Move	-1491
▁Tast	-1492
▁Wake	-1493
▁bald	-1494
▁bike	-1495
▁blue	-1496
▁boat	-1497
▁cash	-1498
▁cats	-1499
▁cert	-1500
▁cops	-1501
▁duty	-1502
▁enem	-1503
▁fire	-1504
▁hide	-1505
▁jeal	-1506
▁long	-1507
▁next	-1508
▁prud	-1509
▁sang	-1510
▁shoe	-1511
▁stri	-1512
▁unha	-1513
▁word	-1514
▁Catch	-1515
▁Drive	-1516
▁Japan	-1517
▁Memor	-1518
▁Throw	-1519
▁along	-1520
▁comes	-1521
▁dance	-1522
▁dizzy	-1523
▁hated	-1524
▁lunch	-1525
▁night	-1526
▁quite	-1527
▁saint	-1528
▁shoot	-1529
alented	-1530
▁Boston	-1531
▁School	-1532
▁became	-1533
▁bother	-1534
▁crafty	-1535
▁dinner	-1536
▁direct	-1537
▁failed	-1538
▁forgot	-1539
▁guilty	-1540
▁insane	-1541
▁lawyer	-1542
▁resist	-1543
▁secret	-1544
▁smells	-1545
▁strugg	-1546
▁turned	-1547
▁ashamed	-1548
▁certain	-1549
▁envious	-1550
▁excused	-1551
▁jealous	-1552
▁respect	-1553
▁shocked	-1554
▁singing	-1555
▁started	-1556
▁stunned	-1557
▁Memorize	-1558
▁believed	-1559
▁cheerful	-1560
▁discreet	-1561
▁dreaming	-1562
▁horrible	-1563
▁promised	-1564
▁confident	-1565
▁exhausted	-1566
hm	-1567
pr	-1568
zz	-1569
ark	-1570
ats	-1571
ces	-1572
gar	-1573
ily	-1574
ity	-1575
oup	-1576
ple	-1577
▁bi	-1578
▁ty	-1579
cise	-1580
eaky	-1581
empt	-1582
erst	-1583
lean	-1584
mpty	-1585
omed	-1586
rank	-1587
ters	-1588
▁Stu	-1589
▁add	-1590
▁bea	-1591
▁cre	-1592
▁cut	-1593
▁dem	-1594
▁dep	-1595
▁ham	-1596
▁inj	-1597
▁men	-1598
▁owe	-1599
▁pan	-1600
▁suc	-1601
▁tie	-1602
▁unf	-1603
▁wom	-1604
icted	-1605
igned	-1606
orrow	-1607
▁Cont	-1608
▁Pull	-1609
▁Walk	-1610
▁When	-1611
▁Wond	-1612
▁ball	-1613
▁cake	-1614
▁dang	-1615
▁dope	-1616
▁dumb	-1617
▁eggs	-1618
▁fact	-1619
▁full	-1620
▁keep	-1621
▁milk	-1622
▁news	-1623
▁rush	-1624
▁ruth	-1625
▁song	-1626
▁whis	-1627
▁Clean	-1628
▁bless	-1629
▁brief	-1630
▁disag	-1631
▁doesn	-1632
▁drown	-1633
▁fault	-1634
▁fever	-1635
▁helps	-1636
▁house	-1637
▁smile	-1638
▁tempt	-1639
▁thank	-1640
▁Enough	-1641
▁Remain	-1642
▁burned	-1643
▁phoned	-1644
▁seemed	-1645
▁sneaky	-1646
▁stoned	-1647
▁window	-1648
eriously	-1649
▁anybody	-1650
▁closely	-1651
▁forgive	-1652
▁injured	-1653
▁prudent	-1654
▁stopped	-1655
▁touched	-1656
▁demented	-1657
▁fighting	-1658
▁friendly	-1659
▁laughing	-1660
▁ruthless	-1661
▁tomorrow	-1662
▁watching	-1663
▁Seriously	-1664
▁Wonderful	-1665
▁volunteered	-1666
cu	-1667
gs	-1668
ia	-1669
my	-1670
te	-1671
ach	-1672
ady	-1673
ath	-1674
cky	-1675
cle	-1676
elf	-1677
ger	-1678
iff	-1679
ipe	-1680
rog	-1681
und	-1682
wor	-1683
▁Sw	-1684
▁Wh	-1685
▁ho	-1686
ares	-1687
ased	-1688
cess	-1689
cued	-1690
cuse	-1691
edic	-1692
full	-1693
iced	-1694
ince	-1695
ined	-1696
outh	-1697
ussy	-1698
▁Fin	-1699
▁Lie	-1700
▁cab	-1701
▁cho	-1702
▁cup	-1703
▁dad	-1704
▁eng	-1705
▁fas	-1706
▁fed	-1707
▁mor	-1708
▁pol	-1709
▁six	-1710
▁squ	-1711
▁sue	-1712
▁tim	-1713
▁vis	-1714
▁vot	-1715
▁who	-1716
adian	-1717
eared	-1718
fully	-1719
guing	-1720
ushed	-1721
▁Back	-1722
▁Kill	-1723
▁Sing	-1724
▁beat	-1725
▁bell	-1726
▁clos	-1727
▁clue	-1728
▁deny	-1729
▁exer	-1730
▁fall	-1731
▁feet	-1732
▁foot	-1733
▁fres	-1734
▁gift	-1735
▁glad	-1736
▁guys	-1737
▁hair	-1738
▁hers	-1739
▁list	-1740
▁mess	-1741
▁mist	-1742
▁poor	-1743
▁rice	-1744
▁self	-1745
▁shar	-1746
▁soup	-1747
▁taxi	-1748
▁thin	-1749
▁thor	-1750
▁wish	-1751
lected	-1752
rogant	-1753
▁Cover	-1754
▁Hello	-1755
▁Study	-1756
▁Which	-1757
▁asked	-1758
▁cheap	-1759
▁clear	-1760
▁dirty	-1761
▁fussy	-1762
▁loser	-1763
▁outra	-1764
▁proof	-1765
▁stall	-1766
▁stood	-1767
▁table	-1768
▁teach	-1769
▁write	-1770
married	-1771
▁Choose	-1772
▁Excuse	-1773
▁Finish	-1774
▁amused	-1775
▁answer	-1776
▁cancer	-1777
▁denied	-1778
▁doubts	-1779
▁loaded	-1780
▁manage	-1781
▁messed	-1782
▁rather	-1783
▁scares	-1784
▁school	-1785
▁shaken	-1786
▁skiing	-1787
▁strict	-1788
▁Someone	-1789
▁arguing	-1790
▁believe	-1791
▁curious	-1792
▁dressed	-1793
▁mistake	-1794
▁outrank	-1795
▁rescued	-1796
▁selfish	-1797
▁smaller	-1798
▁someone	-1799
▁starved	-1800
▁staying	-1801
▁student	-1802
▁succeed	-1803
▁wealthy	-1804
▁writing	-1805
▁Canadian	-1806
▁Japanese	-1807
▁arrogant	-1808
▁canceled	-1809
▁charming	-1810
▁flinched	-1811
▁forgiven	-1812
▁generous	-1813
▁starving	-1814
▁thorough	-1815
▁carefully	-1816
▁screaming	-1817
▁struggled	-1818
ps	-1819
ru	-1820
th	-1821
za	-1822
ade	-1823
app	-1824
arn	-1825
bye	-1826
eed	-1827
gue	-1828
igg	-1829
ilt	-1830
rat	-1831
▁At	-1832
▁Hi	-1833
▁On	-1834
▁el	-1835
aged	-1836
ason	-1837
easy	-1838
ffer	-1839
give	-1840
host	-1841
ided	-1842
ills	-1843
irds	-1844
izza	-1845
lish	-1846
ores	-1847
ouch	-1848
ress	-1849
rest	-1850
rill	-1851
ross	-1852
sive	-1853
ulat	-1854
ways	-1855
▁Boy	-1856
▁Hug	-1857
▁Men	-1858
▁Mon	-1859
▁Rep	-1860
▁Set	-1861
▁ass	-1862
▁ble	-1863
▁box	-1864
▁glo	-1865
▁how	-1866
▁obs	-1867
▁pig	-1868
▁pop	-1869
▁sis	-1870
▁swe	-1871
▁thr	-1872
▁tow	-1873
antic	-1874
hings	-1875
itted	-1876
umber	-1877
▁Bite	-1878
▁Cong	-1879
▁Dogs	-1880
▁Head	-1881
▁Save	-1882
▁Slow	-1883
▁ador	-1884
▁diet	-1885
▁doll	-1886
▁flex	-1887
▁gigg	-1888
▁golf	-1889
▁grab	-1890
▁lame	-1891
▁leak	-1892
▁pack	-1893
▁pant	-1894
▁puzz	-1895
▁rain	-1896
▁spea	-1897
▁team	-1898
▁test	-1899
ateful	-1900
incere	-1901
ortant	-1902
ounded	-1903
reathe	-1904
ushing	-1905
vorced	-1906
▁Shall	-1907
▁Taste	-1908
▁alike	-1909
▁argue	-1910
▁began	-1911
▁black	-1912
▁built	-1913
▁cheat	-1914
▁ended	-1915
▁faint	-1916
▁favor	-1917
▁fruit	-1918
▁hands	-1919
▁moved	-1920
▁order	-1921
▁pizza	-1922
▁plans	-1923
▁plays	-1924
▁pleas	-1925
▁point	-1926
▁raise	-1927
▁scold	-1928
▁sharp	-1929
▁shoes	-1930
▁surpr	-1931
▁talks	-1932
▁thief	-1933
▁twins	-1934
▁would	-1935
▁wrote	-1936
ratulat	-1937
▁Anyone	-1938
▁Monday	-1939
▁Things	-1940
▁admire	-1941
▁adores	-1942
▁always	-1943
▁attend	-1944
▁bright	-1945
▁charge	-1946
▁expect	-1947
▁misled	-1948
▁nearly	-1949
▁prefer	-1950
▁refuse	-1951
▁rested	-1952
▁ruined	-1953
▁simple	-1954
▁sounds	-1955
▁stinks	-1956
▁thanks	-1957
▁thrill	-1958
▁Forgive	-1959
▁Welcome	-1960
▁alarmed	-1961
▁cooking	-1962
▁crashed	-1963
▁decided	-1964
▁digging	-1965
▁noticed	-1966
▁sincere	-1967
▁smashed	-1968
▁teasing	-1969
▁tempted	-1970
▁through	-1971
▁underst	-1972
▁unhappy	-1973
▁adorable	-1974
▁annoying	-1975
▁divorced	-1976
▁fearless	-1977
▁flexible	-1978
▁grateful	-1979
▁mistaken	-1980
▁speaking	-1981
▁standing	-1982
▁talented	-1983
▁everybody	-1984
▁important	-1985
▁objective	-1986
ratulations	-1987
▁Congratulations	-1988
ab	-1989
gn	-1990
go	-1991
vo	-1992
vy	-1993
ze	-1994
eop	-1995
epy	-1996
hes	-1997
hma	-1998
ics	-1999
kay	-2000
lit	-2001
lve	-2002
ory	-2003
oti	-2004
ows	-2005
roy	-2006
sed	-2007
ses	-2008
vel	-2009
vin	-2010
▁An	-2011
▁Ha	-2012
▁To	-2013
▁ir	-2014
▁vi	-2015
ccer	-2016
chic	-2017
ense	-2018
erve	-2019
ilar	-2020
ings	-2021
ison	-2022
rent	-2023
rigu	-2024
tery	-2025
ummy	-2026
umpy	-2027
vant	-2028
void	-2029
ward	-2030
▁Act	-2031
▁Got	-2032
▁Has	-2033
▁act	-2034
▁arm	-2035
▁ast	-2036
▁ban	-2037
▁del	-2038
▁dry	-2039
▁exp	-2040
▁gar	-2041
▁gas	-2042
▁hon	-2043
▁inc	-2044
▁jit	-2045
▁lar	-2046
▁mov	-2047
▁pea	-2048
▁rac	-2049
▁rad	-2050
▁sta	-2051
▁van	-2052
▁vul	-2053
▁yaw	-2054
▁yet	-2055
apped	-2056
ature	-2057
eople	-2058
ffled	-2059
gnant	-2060
going	-2061
iable	-2062
icken	-2063
issue	-2064
istic	-2065
loyal	-2066
ongue	-2067
otest	-2068
reedy	-2069
ummer	-2070
▁Calm	-2071
▁Cats	-2072
▁Fear	-2073
▁Fold	-2074
▁Love	-2075
▁Play	-2076
▁Sign	-2077
▁answ	-2078
▁baby	-2079
▁bite	-2080
▁dark	-2081
▁draw	-2082
▁flow	-2083
▁grew	-2084
▁high	-2085
▁meat	-2086
▁okay	-2087
▁pale	-2088
▁pass	-2089
▁rang	-2090
▁save	-2091
▁scam	-2092
▁shut	-2093
▁tast	-2094
▁twin	-2095
▁warn	-2096
▁welc	-2097
▁wise	-2098
estroy	-2099
ighten	-2100
itious	-2101
uckled	-2102
ulsive	-2103
vinced	-2104
▁Empty	-2105
▁Happy	-2106
▁Shame	-2107
▁Whose	-2108
▁aside	-2109
▁begin	-2110
▁books	-2111
▁cares	-2112
▁chose	-2113
▁class	-2114
▁crack	-2115
▁drove	-2116
▁feels	-2117
▁ghost	-2118
▁knife	-2119
▁ought	-2120
▁party	-2121
▁pills	-2122
▁prude	-2123
▁share	-2124
▁shout	-2125
▁snore	-2126
▁split	-2127
▁stuff	-2128
▁treat	-2129
▁truth	-2130
▁twice	-2131
▁while	-2132
▁whist	-2133
▁woman	-2134
▁Answer	-2135
▁Unlock	-2136
▁agreed	-2137
▁asthma	-2138
▁chance	-2139
▁creepy	-2140
▁drinks	-2141
▁drives	-2142
▁family	-2143
▁faster	-2144
▁father	-2145
▁fooled	-2146
▁fought	-2147
▁greedy	-2148
▁grumpy	-2149
▁ignore	-2150
▁locked	-2151
▁lovely	-2152
▁obeyed	-2153
▁soccer	-2154
▁tissue	-2155
▁tongue	-2156
▁unfair	-2157
▁vulgar	-2158
▁baffled	-2159
▁content	-2160
▁dieting	-2161
▁enemies	-2162
▁healthy	-2163
▁helping	-2164
▁hideous	-2165
▁hurried	-2166
▁intrigu	-2167
▁jittery	-2168
▁obvious	-2169
▁panting	-2170
▁precise	-2171
▁proceed	-2172
▁protest	-2173
▁psychic	-2174
▁quietly	-2175
▁scolded	-2176
▁similar	-2177
▁stabbed	-2178
▁support	-2179
▁survive	-2180
▁unarmed	-2181
▁addicted	-2182
▁children	-2183
▁chuckled	-2184
▁deserved	-2185
▁disloyal	-2186
▁drowning	-2187
▁exciting	-2188
▁outraged	-2189
▁pregnant	-2190
▁reliable	-2191
▁sleeping	-2192
▁stalling	-2193
▁survived	-2194
▁welcomed	-2195
▁depressed	-2196
▁disgusted	-2197
▁horrified	-2198
▁wonderful	-2199
▁Everything	-2200
▁apologized	-2201
▁downstairs	-2202
ah	-2203
bi	-2204
do	-2205
if	-2206
io	-2207
so	-2208
ali	-2209
als	-2210
azz	-2211
bby	-2212
but	-2213
con	-2214
cup	-2215
del	-2216
gno	-2217
iar	-2218
imb	-2219
lly	-2220
nap	-2221
ole	-2222
oms	-2223
onk	-2224
ony	-2225
ose	-2226
uff	-2227
uge	-2228
uke	-2229
une	-2230
urt	-2231
uti	-2232
zed	-2233
▁Bl	-2234
▁Bu	-2235
▁Fl	-2236
▁Of	-2237
▁Oh	-2238
▁Sk	-2239
▁ve	-2240
abet	-2241
aith	-2242
ance	-2243
apon	-2244
arry	-2245
hale	-2246
icke	-2247
iddy	-2248
irls	-2249
itch	-2250
lead	-2251
like	-2252
lves	-2253
move	-2254
ored	-2255
otiv	-2256
reen	-2257
rees	-2258
rime	-2259
rupt	-2260
time	-2261
udge	-2262
ular	-2263
umor	-2264
zing	-2265
▁Aim	-2266
▁App	-2267
▁Att	-2268
▁Our	-2269
▁Rea	-2270
▁abo	-2271
▁abs	-2272
▁cow	-2273
▁det	-2274
▁dev	-2275
▁fad	-2276
▁fox	-2277
▁ice	-2278
▁low	-2279
▁mug	-2280
▁pic	-2281
▁rep	-2282
▁rom	-2283
▁ton	-2284
▁typ	-2285
astic	-2286
buted	-2287
dated	-2288
ended	-2289
erest	-2290
ieved	-2291
isted	-2292
ntion	-2293
ourse	-2294
pping	-2295
ready	-2296
roved	-2297
sible	-2298
ution	-2299
▁Burn	-2300
▁Cows	-2301
▁Draw	-2302
▁Hide	-2303
▁Jump	-2304
▁Push	-2305
▁Snap	-2306
▁Stir	-2307
▁also	-2308
▁bath	-2309
▁card	-2310
▁coat	-2311
▁cous	-2312
▁dece	-2313
▁desk	-2314
▁desp	-2315
▁ears	-2316
▁envy	-2317
▁face	-2318
▁fail	-2319
▁gets	-2320
▁goal	-2321
▁guns	-2322
▁hang	-2323
▁harm	-2324
▁head	-2325
▁huge	-2326
▁hung	-2327
▁icky	-2328
▁igno	-2329
▁jump	-2330
▁keys	-2331
▁kite	-2332
▁mail	-2333
▁merc	-2334
▁nose	-2335
▁pick	-2336
▁poet	-2337
▁runs	-2338
▁same	-2339
▁says	-2340
▁slos	-2341
▁tied	-2342
▁trap	-2343
▁trou	-2344
▁used	-2345
▁viol	-2346
▁writ	-2347
cerned	-2348
gether	-2349
ighted	-2350
ilient	-2351
isfied	-2352
locked	-2353
overed	-2354
perate	-2355
selves	-2356
utiful	-2357
▁Fight	-2358
▁Girls	-2359
▁Maybe	-2360
▁Those	-2361
▁apart	-2362
▁banan	-2363
▁blood	-2364
▁cover	-2365
▁diffe	-2366
▁dummy	-2367
▁exerc	-2368
▁faith	-2369
▁fixed	-2370
▁flies	-2371
▁freak	-2372
▁fresh	-2373
▁giddy	-2374
▁glass	-2375
▁learn	-2376
▁legal	-2377
▁light	-2378
▁manag	-2379
▁match	-2380
▁motiv	-2381
▁mouth	-2382
▁notes	-2383
▁peace	-2384
▁power	-2385
▁prove	-2386
▁rules	-2387
▁scary	-2388
▁sense	-2389
▁shame	-2390
▁suits	-2391
▁train	-2392
▁voted	-2393
▁waste	-2394
reshing	-2395
ributed	-2396
▁Really	-2397
▁Recess	-2398
▁Remove	-2399
▁ambush	-2400
▁attent	-2401
▁biased	-2402
▁borrow	-2403
▁bought	-2404
▁closer	-2405
▁course	-2406
▁danger	-2407
▁diabet	-2408
▁differ	-2409
▁disapp	-2410
▁driven	-2411
▁farmer	-2412
▁finish	-2413
▁handle	-2414
▁harder	-2415
▁hiking	-2416
▁little	-2417
▁matter	-2418
▁mature	-2419
▁overdo	-2420
▁racist	-2421
▁reason	-2422
▁robbed	-2423
▁shower	-2424
▁single	-2425
▁snowed	-2426
▁teased	-2427
▁terrif	-2428
▁thirty	-2429
▁timing	-2430
▁trains	-2431
▁travel	-2432
▁weapon	-2433
▁wonder	-2434
▁yelled	-2435
▁Explain	-2436
▁Goodbye	-2437
▁already	-2438
▁cheered	-2439
▁clearly	-2440
▁command	-2441
▁comment	-2442
▁control	-2443
▁cookies	-2444
▁cousins	-2445
▁deserve	-2446
▁dislike	-2447
▁doctors	-2448
▁engaged	-2449
▁explain	-2450
▁fainted	-2451
▁giggled	-2452
▁handled	-2453
▁ignored	-2454
▁mention	-2455
▁popular	-2456
▁refused	-2457
▁sloshed	-2458
▁tonight	-2459
▁welcome	-2460
▁approved	-2461
▁bragging	-2462
▁complain	-2463
▁everyone	-2464
▁faithful	-2465
▁grounded	-2466
▁happened	-2467
▁hopeless	-2468
▁interest	-2469
▁offended	-2470
▁outgoing	-2471
▁relieved	-2472
▁reserved	-2473
▁resigned	-2474
▁romantic	-2475
▁sensible	-2476
▁thrilled	-2477
▁together	-2478
▁watchful	-2479
▁apologize	-2480
▁beautiful	-2481
▁concerned	-2482
▁different	-2483
▁intrigued	-2484
▁listening	-2485
▁motivated	-2486
▁recovered	-2487
▁remarried	-2488
▁resilient	-2489
▁satisfied	-2490
▁succeeded	-2491
▁surprised	-2492
▁refreshing	-2493
▁respectful	-2494
▁understand	-2495
▁yourselves	-2496
▁contributed	-2497
▁disappeared	-2498
br	-2499
co	-2500
ds	-2501
ex	-2502
gw	-2503
ix	-2504
mb	-2505
ys	-2506
act	-2507
ase	-2508
att	-2509
cil	-2510
cke	-2511
eat	-2512
eek	-2513
ees	-2514
erk	-2515
fle	-2516
gel	-2517
ier	-2518
ify	-2519
ius	-2520
ler	-2521
lic	-2522
lim	-2523
mia	-2524
olf	-2525
ots	-2526
urd	-2527
▁Af	-2528
▁Aw	-2529
▁Br	-2530
▁CD	-2531
▁Jo	-2532
▁Le	-2533
▁Se	-2534
▁Sm	-2535
▁sy	-2536
▁wa	-2537
aked	-2538
akes	-2539
aned	-2540
ansl	-2541
azed	-2542
ball	-2543
cept	-2544
fort	-2545
gain	-2546
ghed	-2547
iday	-2548
ilet	-2549
lace	-2550
made	-2551
omen	-2552
race	-2553
ssip	-2554
ubby	-2555
uine	-2556
uled	-2557
well	-2558
work	-2559
▁Bot	-2560
▁Eng	-2561
▁Fix	-2562
▁Hit	-2563
▁Mus	-2564
▁War	-2565
▁adv	-2566
▁aff	-2567
▁air	-2568
▁bug	-2569
▁coo	-2570
▁fut	-2571
▁gro	-2572
▁loo	-2573
▁mag	-2574
▁par	-2575
▁pri	-2576
▁pur	-2577
▁smo	-2578
▁sun	-2579
▁ten	-2580
▁tex	-2581
▁tru	-2582
▁unt	-2583
▁whe	-2584
aking	-2585
ately	-2586
bbits	-2587
bered	-2588
essed	-2589
gwash	-2590
inted	-2591
ional	-2592
ision	-2593
izure	-2594
moved	-2595
oofed	-2596
rover	-2597
slept	-2598
ugged	-2599
ughty	-2600
vened	-2601
▁Bury	-2602
▁Cons	-2603
▁Cook	-2604
▁Duck	-2605
▁Feed	-2606
▁Feel	-2607
▁Hire	-2608
▁Only	-2609
▁Seal	-2610
▁Wipe	-2611
▁Wish	-2612
▁Year	-2613
▁bill	-2614
▁bird	-2615
▁blew	-2616
▁burn	-2617
▁cars	-2618
▁cast	-2619
▁deep	-2620
▁dess	-2621
▁even	-2622
▁evid	-2623
▁fret	-2624
▁gamb	-2625
▁inse	-2626
▁into	-2627
▁iron	-2628
▁jerk	-2629
▁jobs	-2630
▁line	-2631
▁meet	-2632
▁nons	-2633
▁oven	-2634
▁pipe	-2635
▁pity	-2636
▁pray	-2637
▁sink	-2638
▁skit	-2639
▁stut	-2640
▁sued	-2641
▁swam	-2642
▁till	-2643
▁week	-2644
▁wide	-2645
▁wins	-2646
▁wolf	-2647
atient	-2648
ervant	-2649
imbing	-2650
ringed	-2651
ssible	-2652
uffing	-2653
ukemia	-2654
undant	-2655
▁After	-2656
▁Apply	-2657
▁Avoid	-2658
▁Birds	-2659
▁Flush	-2660
▁Seize	-2661
▁Shake	-2662
▁Sweep	-2663
▁These	-2664
▁Today	-2665
▁Touch	-2666
▁Yours	-2667
▁alert	-2668
▁angel	-2669
▁apple	-2670
▁badly	-2671
▁beans	-2672
▁bigot	-2673
▁bores	-2674
▁bossy	-2675
▁breat	-2676
▁bunch	-2677
▁chair	-2678
▁chess	-2679
▁clock	-2680
▁dedic	-2681
▁donut	-2682
▁dozed	-2683
▁enemy	-2684
▁facts	-2685
▁floor	-2686
▁frank	-2687
▁grumb	-2688
▁guest	-2689
▁guide	-2690
▁hesit	-2691
▁impro	-2692
▁jokes	-2693
▁loyal	-2694
▁mayor	-2695
▁means	-2696
▁medic	-2697
▁mercy	-2698
▁meter	-2699
▁model	-2700
▁noise	-2701
▁paint	-2702
▁picky	-2703
▁pitch	-2704
▁radio	-2705
▁rifle	-2706
▁risks	-2707
▁sells	-2708
▁sniff	-2709
▁stole	-2710
▁store	-2711
▁story	-2712
▁takes	-2713
▁towel	-2714
▁tries	-2715
▁unins	-2716
anslate	-2717
redible	-2718
▁Attack	-2719
▁Cheers	-2720
▁Dinner	-2721
▁Exhale	-2722
▁Expect	-2723
▁Muslim	-2724
▁People	-2725
▁Spring	-2726
▁aboard	-2727
▁absurd	-2728
▁afford	-2729
▁artist	-2730
▁beauty	-2731
▁biting	-2732
▁buying	-2733
▁choice	-2734
▁chubby	-2735
▁cooked	-2736
▁expert	-2737
▁gamble	-2738
▁genius	-2739
▁goofed	-2740
▁gossip	-2741
▁hiring	-2742
▁humble	-2743
▁immune	-2744
▁jumped	-2745
▁kicked	-2746
▁larger	-2747
▁movies	-2748
▁number	-2749
▁paying	-2750
▁pencil	-2751
▁police	-2752
▁prison	-2753
▁relief	-2754
▁singer	-2755
▁sipped	-2756
▁sister	-2757
▁taller	-2758
▁things	-2759
▁toilet	-2760
▁uneasy	-2761
▁unwell	-2762
▁wasted	-2763
▁wicked	-2764
▁winced	-2765
▁winter	-2766
▁wouldn	-2767
antastic	-2768
cheduled	-2769
roverted	-2770
▁Awesome	-2771
▁Breathe	-2772
▁Control	-2773
▁Destroy	-2774
▁English	-2775
▁Lighten	-2776
▁Replace	-2777
▁another	-2778
▁bargain	-2779
▁barking	-2780
▁blessed	-2781
▁blushed	-2782
▁brother	-2783
▁chicken	-2784
▁coughed	-2785
▁cringed	-2786
▁dessert	-2787
▁disgust	-2788
▁elected	-2789
▁fishing	-2790
▁flowers	-2791
▁freaked	-2792
▁genuine	-2793
▁getting	-2794
▁guessed	-2795
▁happens	-2796
▁hogwash	-2797
▁honored	-2798
▁looking	-2799
▁missing	-2800
▁naughty	-2801
▁packing	-2802
▁pinched	-2803
▁promise	-2804
▁pushing	-2805
▁rabbits	-2806
▁seizure	-2807
▁slapped	-2808
▁smoking	-2809
▁stuffed	-2810
▁trouble	-2811
▁unmoved	-2812
▁Continue	-2813
▁Somebody	-2814
▁attacked	-2815
▁bluffing	-2816
▁careless	-2817
▁cheating	-2818
▁climbing	-2819
▁counting	-2820
▁decision	-2821
▁diabetic	-2822
▁disagree	-2823
▁evidence	-2824
▁expected	-2825
▁freezing	-2826
▁handsome	-2827
▁helpless	-2828
▁homeless	-2829
▁homework	-2830
▁leukemia	-2831
▁outdated	-2832
▁panicked	-2833
▁rational	-2834
▁retiring	-2835
▁screamed	-2836
▁selected	-2837
▁squinted	-2838
▁students	-2839
▁sweating	-2840
▁teachers	-2841
▁truthful	-2842
▁unlocked	-2843
▁Translate	-2844
▁ambitious	-2845
▁attentive	-2846
▁committed	-2847
▁confessed	-2848
▁contented	-2849
▁convinced	-2850
▁dangerous	-2851
▁dedicated	-2852
▁disagreed	-2853
▁forgetful	-2854
▁impatient	-2855
▁interrupt	-2856
▁mentioned	-2857
▁observant	-2858
▁overslept	-2859
▁powerless	-2860
▁redundant	-2861
▁terrified	-2862
▁uninsured	-2863
▁whistling	-2864
▁intervened	-2865
▁remembered	-2866
▁supportive	-2867
▁rescheduled	-2868
PR	-2869
ec	-2870
eg	-2871
ky	-2872
ls	-2873
mp	-2874
rm	-2875
aah	-2876
aid	-2877
ama	-2878
amp	-2879
apt	-2880
ars	-2881
bar	-2882
bot	-2883
cha	-2884
cho	-2885
com	-2886
cur	-2887
een	-2888
ele	-2889
gan	-2890
ggy	-2891
gic	-2892
gus	-2893
ial	-2894
ids	-2895
ior	-2896
man	-2897
mas	-2898
nes	-2899
oic	-2900
omb	-2901
omy	-2902
oon	-2903
sty	-2904
urb	-2905
▁Cl	-2906
▁Gu	-2907
▁In	-2908
▁Sc	-2909
▁So	-2910
▁Sy	-2911
▁if	-2912
▁ur	-2913
anky	-2914
arre	-2915
ates	-2916
atho	-2917
atur	-2918
bage	-2919
corn	-2920
cure	-2921
eady	-2922
ecul	-2923
egal	-2924
esus	-2925
hman	-2926
iano	-2927
ideo	-2928
ider	-2929
idow	-2930
iing	-2931
imes	-2932
iral	-2933
ived	-2934
lder	-2935
mber	-2936
mind	-2937
miss	-2938
nics	-2939
nock	-2940
olor	-2941
oral	-2942
ords	-2943
orge	-2944
oudy	-2945
ount	-2946
read	-2947
ries	-2948
rist	-2949
rmed	-2950
sent	-2951
sick	-2952
ster	-2953
tern	-2954
tish	-2955
uded	-2956
urse	-2957
vail	-2958
▁Ain	-2959
▁Air	-2960
▁Arm	-2961
▁CPR	-2962
▁Dig	-2963
▁Mom	-2964
▁New	-2965
▁Per	-2966
▁Pri	-2967
▁Tea	-2968
▁Wow	-2969
▁Yes	-2970
▁ali	-2971
▁aut	-2972
▁awk	-2973
▁bow	-2974
▁cir	-2975
▁dra	-2976
▁dys	-2977
▁flu	-2978
▁hic	-2979
▁hid	-2980
▁hol	-2981
▁its	-2982
▁jam	-2983
▁lad	-2984
▁lay	-2985
▁nod	-2986
▁opp	-2987
▁opt	-2988
▁pag	-2989
▁pil	-2990
▁poo	-2991
▁rea	-2992
▁reb	-2993
▁rev	-2994
▁rub	-2995
▁rug	-2996
▁sex	-2997
▁sli	-2998
▁sno	-2999
▁sol	-3000
▁tan	-3001
▁toy	-3002
▁uns	-3003
▁wat	-3004
▁wig	-3005
adequ	-3006
agger	-3007
arden	-3008
aught	-3009
baric	-3010
bbing	-3011
bbish	-3012
chaic	-3013
eding	-3014
elebr	-3015
elter	-3016
hange	-3017
ighed	-3018
imals	-3019
inach	-3020
inned	-3021
lexic	-3022
olute	-3023
ormed	-3024
orney	-3025
rewed	-3026
right	-3027
ugees	-3028
ulous	-3029
ulted	-3030
usual	-3031
▁Cash	-3032
▁Cool	-3033
▁Face	-3034
▁Fire	-3035
▁Join	-3036
▁Kiss	-3037
▁Live	-3038
▁Peel	-3039
▁Rest	-3040
▁ache	-3041
▁alar	-3042
▁bark	-3043
▁bear	-3044
▁body	-3045
▁bomb	-3046
▁bore	-3047
▁bull	-3048
▁caps	-3049
▁capt	-3050
▁clap	-3051
▁comp	-3052
▁cost	-3053
▁dice	-3054
▁dist	-3055
▁else	-3056
▁fate	-3057
▁file	-3058
▁flaw	-3059
▁fuse	-3060
▁gate	-3061
▁glum	-3062
▁guts	-3063
▁jazz	-3064
▁lies	-3065
▁lion	-3066
▁mice	-3067
▁monk	-3068
▁nosy	-3069
▁numb	-3070
▁obed	-3071
▁omen	-3072
▁park	-3073
▁pigs	-3074
▁pros	-3075
▁rent	-3076
▁road	-3077
▁rock	-3078
▁roll	-3079
▁rose	-3080
▁sale	-3081
▁sand	-3082
▁snor	-3083
▁soft	-3084
▁sold	-3085
▁sons	-3086
▁step	-3087
▁suic	-3088
▁tact	-3089
▁tick	-3090
▁type	-3091
▁unbi	-3092
▁unre	-3093
▁vary	-3094
▁west	-3095
▁wore	-3096
bbling	-3097
curate	-3098
erable	-3099
member	-3100
missed	-3101
mptoms	-3102
useous	-3103
▁Black	-3104
▁Break	-3105
▁Brush	-3106
▁Catho	-3107
▁Count	-3108
▁Cross	-3109
▁Enter	-3110
▁Guess	-3111
▁Jesus	-3112
▁Knock	-3113
▁Money	-3114
▁Prove	-3115
▁Smile	-3116
▁Sorry	-3117
▁Times	-3118
▁Words	-3119
▁Would	-3120
▁actor	-3121
▁adapt	-3122
▁adore	-3123
▁adult	-3124
▁allow	-3125
▁bagel	-3126
▁being	-3127
▁birds	-3128
▁blast	-3129
▁blink	-3130
▁blown	-3131
▁brain	-3132
▁brand	-3133
▁bread	-3134
▁color	-3135
▁comed	-3136
▁cooks	-3137
▁cough	-3138
▁crime	-3139
▁cured	-3140
▁delic	-3141
▁eaten	-3142
▁empty	-3143
▁fatal	-3144
▁focus	-3145
▁funds	-3146
▁gloat	-3147
▁gorge	-3148
▁green	-3149
▁haven	-3150
▁honey	-3151
▁judge	-3152
▁magic	-3153
▁makes	-3154
▁nerve	-3155
▁older	-3156
▁panic	-3157
▁pecul	-3158
▁phone	-3159
▁phony	-3160
▁piano	-3161
▁plast	-3162
▁quali	-3163
▁robot	-3164
▁roses	-3165
▁rumor	-3166
▁scare	-3167
▁shock	-3168
▁siren	-3169
▁snack	-3170
▁sober	-3171
▁south	-3172
▁steal	-3173
▁stiff	-3174
▁taxes	-3175
▁third	-3176
▁timid	-3177
▁video	-3178
▁viral	-3179
▁visit	-3180
▁walks	-3181
▁wheel	-3182
▁white	-3183
▁widow	-3184
▁women	-3185
▁worth	-3186
estions	-3187
ristmas	-3188
▁Change	-3189
▁Drinks	-3190
▁Prices	-3191
▁Repeat	-3192
▁Skiing	-3193
▁Steady	-3194
▁Summer	-3195
▁Tastes	-3196
▁accept	-3197
▁advice	-3198
▁agrees	-3199
▁anyway	-3200
▁assist	-3201
▁beaten	-3202
▁belong	-3203
▁biking	-3204
▁bottle	-3205
▁braces	-3206
▁caused	-3207
▁celebr	-3208
▁circle	-3209
▁closed	-3210
▁cloudy	-3211
▁cranky	-3212
▁doomed	-3213
▁dreams	-3214
▁earned	-3215
▁engine	-3216
▁gloomy	-3217
▁hammer	-3218
▁heroes	-3219
▁hiccup	-3220
▁hiding	-3221
▁idiots	-3222
▁improv	-3223
▁leaves	-3224
▁member	-3225
▁morons	-3226
▁nailed	-3227
▁newcom	-3228
▁pickle	-3229
▁played	-3230
▁polite	-3231
▁pooped	-3232
▁queasy	-3233
▁senior	-3234
▁spring	-3235
▁sweets	-3236
▁texted	-3237
▁touchy	-3238
▁tragic	-3239
▁tricky	-3240
▁voting	-3241
▁washed	-3242
▁winner	-3243
▁writer	-3244
▁yawned	-3245
adequate	-3246
eltering	-3247
▁Perfect	-3248
▁Release	-3249
▁admired	-3250
▁alright	-3251
▁animals	-3252
▁answers	-3253
▁approve	-3254
▁archaic	-3255
▁awkward	-3256
▁balding	-3257
▁bananas	-3258
▁breathe	-3259
▁brought	-3260
▁calling	-3261
▁callous	-3262
▁caution	-3263
▁checked	-3264
▁despise	-3265
▁disturb	-3266
▁evident	-3267
▁exagger	-3268
▁exhaled	-3269
▁fasting	-3270
▁feeling	-3271
▁furious	-3272
▁garbage	-3273
▁grinned	-3274
▁growing	-3275
▁holiday	-3276
▁humming	-3277
▁illegal	-3278
▁immoral	-3279
▁manager	-3280
▁matters	-3281
▁mislead	-3282
▁morning	-3283
▁nodding	-3284
▁ordered	-3285
▁partner	-3286
▁picnics	-3287
▁playing	-3288
▁pleased	-3289
▁plumber	-3290
▁present	-3291
▁psyched	-3292
▁puzzled	-3293
▁quitter	-3294
▁reacted	-3295
▁realize	-3296
▁recover	-3297
▁rubbish	-3298
▁screwed	-3299
▁secrets	-3300
▁sinking	-3301
▁sisters	-3302
▁smelled	-3303
▁snowing	-3304
▁sobbing	-3305
▁sounded	-3306
▁spinach	-3307
▁sweated	-3308
▁testify	-3309
▁thought	-3310
▁unusual	-3311
▁violent	-3312
▁volunte	-3313
▁waiting	-3314
▁walking	-3315
▁watched	-3316
▁without	-3317
▁Anything	-3318
▁Catholic	-3319
▁Consider	-3320
▁Remember	-3321
▁Symptoms	-3322
▁accurate	-3323
▁answered	-3324
▁attorney	-3325
▁barbaric	-3326
▁bleeding	-3327
▁blushing	-3328
▁brothers	-3329
▁capsized	-3330
▁deceived	-3331
▁drinking	-3332
▁dyslexic	-3333
▁exercise	-3334
▁freshman	-3335
▁gorgeous	-3336
▁homesick	-3337
▁immature	-3338
▁insecure	-3339
▁insisted	-3340
▁listened	-3341
▁nauseous	-3342
▁nonsense	-3343
▁obedient	-3344
▁peculiar	-3345
▁possible	-3346
▁reformed	-3347
▁refugees	-3348
▁relented	-3349
▁resolute	-3350
▁restless	-3351
▁returned	-3352
▁shooting	-3353
▁skittish	-3354
▁slipping	-3355
▁stutters	-3356
▁survivor	-3357
▁swimming	-3358
▁tactless	-3359
▁ticklish	-3360
▁unbiased	-3361
▁unharmed	-3362
▁Christmas	-3363
▁Fantastic	-3364
▁cooperate	-3365
▁delighted	-3366
▁dismissed	-3367
▁exercised	-3368
▁expecting	-3369
▁hesitated	-3370
▁impressed	-3371
▁impulsive	-3372
▁miserable	-3373
▁plastered	-3374
▁protested	-3375
▁qualified	-3376
▁realistic	-3377
▁remembers	-3378
▁repulsive	-3379
▁unmarried	-3380
▁complained	-3381
▁inadequate	-3382
▁incredible	-3383
▁reasonable	-3384
▁sweltering	-3385
▁untalented	-3386
FO	-3387
ac	-3388
af	-3389
cc	-3390
dj	-3391
dr	-3392
gy	-3393
lm	-3394
nc	-3395
ne	-3396
ob	-3397
oc	-3398
og	-3399
ib	-3400
sc	-3401
wr	-3402
yp	-3403
▁z	-3404
add	-3405
ahj	-3406
amb	-3407
ato	-3408
aur	-3409
bed	-3410
bid	-3411
cen	-3412
che	-3413
cin	-3414
cut	-3415
eef	-3416
ege	-3417
eit	-3418
ete	-3419
fic	-3420
ges	-3421
gin	-3422
iac	-3423
ict	-3424
idy	-3425
ieu	-3426
iew	-3427
ift	-3428
igh	-3429
ili	-3430
ilm	-3431
ils	-3432
ini	-3433
ips	-3434
ira	-3435
jud	-3436
ker	-3437
lat	-3438
lla	-3439
lob	-3440
lor	-3441
not	-3442
ock	-3443
ork	-3444
ors	-3445
pes	-3446
pir	-3447
psy	-3448
ral	-3449
ref	-3450
rep	-3451
rie	-3452
say	-3453
udd	-3454
ues	-3455
umn	-3456
utc	-3457
vil	-3458
xic	-3459
▁Ab	-3460
▁Co	-3461
▁DJ	-3462
▁Me	-3463
▁Ra	-3464
▁ep	-3465
▁ju	-3466
▁oc	-3467
agge	-3468
ague	-3469
ails	-3470
aker	-3471
alls	-3472
ants	-3473
arch	-3474
asco	-3475
beat	-3476
beci	-3477
cene	-3478
cker	-3479
ckey	-3480
cord	-3481
dded	-3482
eech	-3483
eeth	-3484
enty	-3485
epar	-3486
eric	-3487
erry	-3488
etch	-3489
eyed	-3490
fere	-3491
ffic	-3492
fold	-3493
fore	-3494
gent	-3495
geon	-3496
have	-3497
hurt	-3498
ibly	-3499
hydr	-3500
idal	-3501
ipsy	-3502
irte	-3503
ises	-3504
ives	-3505
kept	-3506
lier	-3507
line	-3508
mbre	-3509
medi	-3510
ners	-3511
noon	-3512
ntur	-3513
oker	-3514
onal	-3515
onds	-3516
pack	-3517
peed	-3518
pera	-3519
perb	-3520
poke	-3521
pond	-3522
ptop	-3523
ract	-3524
rate	-3525
reci	-3526
rele	-3527
roze	-3528
toms	-3529
ture	-3530
uiet	-3531
uise	-3532
urpr	-3533
ushi	-3534
viar	-3535
ware	-3536
wing	-3537
wort	-3538
xing	-3539
ycle	-3540
▁Acc	-3541
▁Add	-3542
▁Adj	-3543
▁Com	-3544
▁Con	-3545
▁Dad	-3546
▁Def	-3547
▁Dry	-3548
▁Gem	-3549
▁Her	-3550
▁Hey	-3551
▁Hop	-3552
▁Lad	-3553
▁Lem	-3554
▁Leo	-3555
▁Not	-3556
▁Red	-3557
▁Ret	-3558
▁Sci	-3559
▁Sil	-3560
▁Smo	-3561
▁UFO	-3562
▁Wax	-3563
▁Wed	-3564
▁Win	-3565
▁Won	-3566
▁bes	-3567
▁bid	-3568
▁biz	-3569
▁cal	-3570
▁cro	-3571
▁emb	-3572
▁enl	-3573
▁ent	-3574
▁ext	-3575
▁fab	-3576
▁fle	-3577
▁fra	-3578
▁gag	-3579
▁gaw	-3580
▁gon	-3581
▁hig	-3582
▁ink	-3583
▁jig	-3584
▁jog	-3585
▁lip	-3586
▁log	-3587
▁mas	-3588
▁mel	-3589
▁mud	-3590
▁nap	-3591
▁oar	-3592
▁pet	-3593
▁qui	-3594
▁ram	-3595
▁rip	-3596
▁sea	-3597
▁shr	-3598
▁sir	-3599
▁spy	-3600
▁tap	-3601
▁tot	-3602
▁wed	-3603
▁wim	-3604
▁wiz	-3605
ained	-3606
amine	-3607
aming	-3608
anded	-3609
arter	-3610
aster	-3611
atics	-3612
atoes	-3613
aurus	-3614
ceful	-3615
dings	-3616
elled	-3617
ggies	-3618
haled	-3619
iders	-3620
iling	-3621
iness	-3622
ining	-3623
ition	-3624
latan	-3625
lated	-3626
llege	-3627
luded	-3628
mered	-3629
oices	-3630
olite	-3631
opted	-3632
ories	-3633
pirin	-3634
plant	-3635
rying	-3636
screw	-3637
uggle	-3638
untan	-3639
urity	-3640
using	-3641
usive	-3642
uthor	-3643
utral	-3644
venge	-3645
vered	-3646
verse	-3647
voids	-3648
wrote	-3649
▁Bach	-3650
▁Beef	-3651
▁Beer	-3652
▁Boil	-3653
▁Both	-3654
▁Boys	-3655
▁Easy	-3656
▁Even	-3657
▁Evil	-3658
▁Film	-3659
▁Fish	-3660
▁Ford	-3661
▁Gold	-3662
▁Grow	-3663
▁Honk	-3664
▁Kick	-3665
▁Kids	-3666
▁Lead	-3667
▁Mama	-3668
▁Meet	-3669
▁Must	-3670
▁Need	-3671
▁Neit	-3672
▁Once	-3673
▁Pack	-3674
▁Part	-3675
▁Pass	-3676
▁Pour	-3677
▁Pray	-3678
▁Prep	-3679
▁Ring	-3680
▁Skip	-3681
▁Stra	-3682
▁Warn	-3683
▁Work	-3684
▁able	-3685
▁acqu	-3686
▁acts	-3687
▁adve	-3688
▁bank	-3689
▁base	-3690
▁bled	-3691
▁blow	-3692
▁born	-3693
▁bowl	-3694
▁boys	-3695
▁bugg	-3696
▁cane	-3697
▁carp	-3698
▁chip	-3699
▁conv	-3700
▁copy	-3701
▁cult	-3702
▁cure	-3703
▁dare	-3704
▁dazz	-3705
▁deer	-3706
▁dies	-3707
▁drag	-3708
▁east	-3709
▁evil	-3710
▁exit	-3711
▁fart	-3712
▁flat	-3713
▁fork	-3714
▁goes	-3715
▁gold	-3716
▁gray	-3717
▁half	-3718
▁heal	-3719
▁heat	-3720
▁held	-3721
▁hint	-3722
▁hist	-3723
▁hold	-3724
▁hole	-3725
▁hoot	-3726
▁horn	-3727
▁hour	-3728
▁hunk	-3729
▁hust	-3730
▁isol	-3731
▁jell	-3732
▁kidn	-3733
▁load	-3734
▁loan	-3735
▁mahj	-3736
▁maid	-3737
▁meal	-3738
▁mira	-3739
▁moon	-3740
▁myth	-3741
▁neat	-3742
▁nerd	-3743
▁note	-3744
▁outw	-3745
▁page	-3746
▁pard	-3747
▁past	-3748
▁peas	-3749
▁pers	-3750
▁phot	-3751
▁pool	-3752
▁pout	-3753
▁ride	-3754
▁ring	-3755
▁roof	-3756
▁rope	-3757
▁rule	-3758
▁sass	-3759
▁sees	-3760
▁send	-3761
▁sexy	-3762
▁sips	-3763
▁skip	-3764
▁slob	-3765
▁snag	-3766
▁snee	-3767
▁snob	-3768
▁sour	-3769
▁spir	-3770
▁spit	-3771
▁spot	-3772
▁such	-3773
▁sunk	-3774
▁surf	-3775
▁symp	-3776
▁sync	-3777
▁tidy	-3778
▁tour	-3779
▁turt	-3780
▁unaf	-3781
▁visa	-3782
▁wary	-3783
▁wept	-3784
▁wire	-3785
agious	-3786
amaged	-3787
aneous	-3788
apping	-3789
becile	-3790
chelor	-3791
cupied	-3792
erican	-3793
fering	-3794
ffered	-3795
idents	-3796
ilepsy	-3797
irteen	-3798
issant	-3799
jected	-3800
lderly	-3801
lerant	-3802
loaded	-3803
nerved	-3804
nesday	-3805
obeyed	-3806
ocking	-3807
orated	-3808
packed	-3809
reeted	-3810
refoot	-3811
rested	-3812
rieked	-3813
vering	-3814
worked	-3815
worthy	-3816
▁Allow	-3817
▁Asian	-3818
▁Bears	-3819
▁Begin	-3820
▁Blind	-3821
▁Brace	-3822
▁Cheer	-3823
▁Chill	-3824
▁Crime	-3825
▁Dance	-3826
▁Dress	-3827
▁Green	-3828
▁Hands	-3829
▁Humor	-3830
▁Lunch	-3831
▁Marry	-3832
▁Merry	-3833
▁Might	-3834
▁Press	-3835
▁Raise	-3836
▁Satur	-3837
▁Scoot	-3838
▁Sleep	-3839
▁Smell	-3840
▁Sound	-3841
▁Speed	-3842
▁Stick	-3843
▁Surpr	-3844
▁Sweet	-3845
▁Swiss	-3846
▁Teach	-3847
▁Water	-3848
▁adieu	-3849
▁admit	-3850
▁alarm	-3851
▁alibi	-3852
▁aston	-3853
▁avail	-3854
▁aware	-3855
▁bacon	-3856
▁baked	-3857
▁baker	-3858
▁beard	-3859
▁below	-3860
▁bites	-3861
▁bogus	-3862
▁boxes	-3863
▁bring	-3864
▁budge	-3865
▁clich	-3866
▁crash	-3867
▁crept	-3868
▁crook	-3869
▁crude	-3870
▁curse	-3871
▁death	-3872
▁devil	-3873
▁diary	-3874
▁eight	-3875
▁flatt	-3876
▁flour	-3877
▁flunk	-3878
▁foggy	-3879
▁fools	-3880
▁front	-3881
▁frown	-3882
▁froze	-3883
▁futon	-3884
▁games	-3885
▁grass	-3886
▁hasty	-3887
▁hatch	-3888
▁hello	-3889
▁juice	-3890
▁large	-3891
▁lives	-3892
▁marry	-3893
▁moron	-3894
▁mouse	-3895
▁movie	-3896
▁obese	-3897
▁offer	-3898
▁opera	-3899
▁place	-3900
▁plead	-3901
▁pract	-3902
▁puppy	-3903
▁reply	-3904
▁risky	-3905
▁river	-3906
▁rugby	-3907
▁safer	-3908
▁separ	-3909
▁seven	-3910
▁sheep	-3911
▁shift	-3912
▁shive	-3913
▁skate	-3914
▁skept	-3915
▁spell	-3916
▁spies	-3917
▁spont	-3918
▁spoon	-3919
▁stake	-3920
▁stare	-3921
▁stops	-3922
▁sugar	-3923
▁sushi	-3924
▁swore	-3925
▁taste	-3926
▁tease	-3927
▁teeth	-3928
▁tense	-3929
▁their	-3930
▁tipsy	-3931
▁tower	-3932
▁truck	-3933
▁truly	-3934
▁umbre	-3935
▁unamb	-3936
▁uncon	-3937
▁vague	-3938
▁vegan	-3939
▁waved	-3940
▁windy	-3941
▁wings	-3942
▁worse	-3943
aggered	-3944
aliated	-3945
arching	-3946
astated	-3947
aughter	-3948
cessary	-3949
cinated	-3950
endable	-3951
erstood	-3952
ickened	-3953
ickered	-3954
jection	-3955
nturous	-3956
ologist	-3957
reciate	-3958
ressing	-3959
sighted	-3960
working	-3961
▁Adjust	-3962
▁Beware	-3963
▁Boxing	-3964
▁Cancel	-3965
▁Coffee	-3966
▁Defend	-3967
▁Gemini	-3968
▁Ladies	-3969
▁Lemons	-3970
▁Nature	-3971
▁Plants	-3972
▁Record	-3973
▁Return	-3974
▁Settle	-3975
▁Taurus	-3976
▁Winter	-3977
▁across	-3978
▁addict	-3979
▁amazed	-3980
▁annoys	-3981
▁apples	-3982
▁author	-3983
▁avoids	-3984
▁baking	-3985
▁banana	-3986
▁barber	-3987
▁barked	-3988
▁before	-3989
▁beside	-3990
▁bitter	-3991
▁blinds	-3992
▁brakes	-3993
▁breath	-3994
▁bribed	-3995
▁bruise	-3996
▁bullet	-3997
▁bummer	-3998
▁buried	-3999
▁calmed	-4000
▁calmly	-4001
▁camels	-4002
▁caviar	-4003
▁chased	-4004
▁choked	-4005
▁cookie	-4006
▁couldn	-4007
▁coward	-4008
▁dancer	-4009
▁dances	-4010
▁dehydr	-4011
▁dishes	-4012
▁doable	-4013
▁double	-4014
▁drawer	-4015
▁escape	-4016
▁feared	-4017
▁fiasco	-4018
▁firing	-4019
▁fluent	-4020
▁forbid	-4021
▁futile	-4022
▁garden	-4023
▁gasped	-4024
▁ghosts	-4025
▁giving	-4026
▁golfer	-4027
▁goners	-4028
▁hardly	-4029
▁heroic	-4030
▁higher	-4031
▁humans	-4032
▁humili	-4033
▁immedi	-4034
▁insist	-4035
▁ironic	-4036
▁irrele	-4037
▁joined	-4038
▁juggle	-4039
▁laptop	-4040
▁likely	-4041
▁maniac	-4042
▁menace	-4043
▁misund	-4044
▁moaned	-4045
▁mother	-4046
▁nobody	-4047
▁nodded	-4048
▁office	-4049
▁oldest	-4050
▁opened	-4051
▁oppose	-4052
▁option	-4053
▁orange	-4054
▁orders	-4055
▁paging	-4056
▁passed	-4057
▁people	-4058
▁pilots	-4059
▁plenty	-4060
▁poetry	-4061
▁poison	-4062
▁prayed	-4063
▁psycho	-4064
▁punish	-4065
▁puzzle	-4066
▁ramble	-4067
▁reborn	-4068
▁refund	-4069
▁remind	-4070
▁rental	-4071
▁resent	-4072
▁resour	-4073
▁return	-4074
▁review	-4075
▁rights	-4076
▁runner	-4077
▁rushed	-4078
▁safely	-4079
▁seeing	-4080
▁sewing	-4081
▁sighed	-4082
▁signed	-4083
▁slouch	-4084
▁slowed	-4085
▁soaked	-4086
▁speech	-4087
▁squeak	-4088
▁street	-4089
▁strike	-4090
▁stroke	-4091
▁suffer	-4092
▁suntan	-4093
▁superb	-4094
▁supper	-4095
▁supply	-4096
▁surfer	-4097
▁tanned	-4098
▁tasted	-4099
▁tastes	-4100
▁thinks	-4101
▁typist	-4102
▁unhurt	-4103
▁unsure	-4104
▁upbeat	-4105
▁urgent	-4106
▁voices	-4107
▁warmer	-4108
▁wimped	-4109
▁winded	-4110
▁wizard	-4111
▁writes	-4112
centrate	-4113
fficient	-4114
fortable	-4115
▁Bottoms	-4116
▁Comfort	-4117
▁Examine	-4118
▁Neither	-4119
▁Nothing	-4120
▁Parties	-4121
▁Prepare	-4122
▁Science	-4123
▁Silence	-4124
▁Smoking	-4125
▁Unscrew	-4126
▁adopted	-4127
▁amusing	-4128
▁annoyed	-4129
▁aspirin	-4130
▁bedtime	-4131
▁begging	-4132
▁bizarre	-4133
▁blaming	-4134
▁blinked	-4135
▁bugging	-4136
▁chances	-4137
▁changes	-4138
▁choking	-4139
▁cleaned	-4140
▁college	-4141
▁complex	-4142
▁covered	-4143
▁cracked	-4144
▁dazzled	-4145
▁deceive	-4146
▁despair	-4147
▁destroy	-4148
▁details	-4149
▁drowned	-4150
▁drugged	-4151
▁earlier	-4152
▁elderly	-4153
▁elusive	-4154
▁falling	-4155
▁finally	-4156
▁forgave	-4157
▁forward	-4158
▁frankly	-4159
▁frantic	-4160
▁gambler	-4161
▁glasses	-4162
▁goodbye	-4163
▁greeted	-4164
▁groaned	-4165
▁hamster	-4166
▁hearsay	-4167
▁helpful	-4168
▁history	-4169
▁hunting	-4170
▁inhaled	-4171
▁insured	-4172
▁jogging	-4173
▁justice	-4174
▁lawyers	-4175
▁legibly	-4176
▁logical	-4177
▁mahjong	-4178
▁matured	-4179
▁message	-4180
▁miracle	-4181
▁neutral	-4182
▁obscene	-4183
▁outrage	-4184
▁painful	-4185
▁painter	-4186
▁parties	-4187
▁picture	-4188
▁popcorn	-4189
▁pouting	-4190
▁prosper	-4191
▁puzzles	-4192
▁raining	-4193
▁recycle	-4194
▁respond	-4195
▁revenge	-4196
▁rewrote	-4197
▁scammed	-4198
▁skating	-4199
▁smarter	-4200
▁snoring	-4201
▁soundly	-4202
▁spiders	-4203
▁stalled	-4204
▁staring	-4205
▁stories	-4206
▁studied	-4207
▁stumped	-4208
▁suppose	-4209
▁surgeon	-4210
▁teaches	-4211
▁totally	-4212
▁tourist	-4213
▁tripped	-4214
▁trucker	-4215
▁turtles	-4216
▁typical	-4217
▁unfazed	-4218
▁veggies	-4219
▁visited	-4220
▁wasting	-4221
▁whining	-4222
▁whistle	-4223
▁worries	-4224
▁wounded	-4225
▁yawning	-4226
▁American	-4227
▁Saturday	-4228
▁Surprise	-4229
▁ambition	-4230
▁anything	-4231
▁arrested	-4232
▁autistic	-4233
▁bachelor	-4234
▁barefoot	-4235
▁baseball	-4236
▁beginner	-4237
▁borrowed	-4238
▁captured	-4239
▁catching	-4240
▁clapping	-4241
▁clueless	-4242
▁comedian	-4243
▁cultured	-4244
▁daughter	-4245
▁dejected	-4246
▁designed	-4247
▁detained	-4248
▁disaster	-4249
▁dislikes	-4250
▁doubtful	-4251
▁eggplant	-4252
▁enlisted	-4253
▁epilepsy	-4254
▁escaping	-4255
▁expelled	-4256
▁fabulous	-4257
▁fanatics	-4258
▁feverish	-4259
▁football	-4260
▁gambling	-4261
▁giggling	-4262
▁grumbled	-4263
▁hammered	-4264
▁handmade	-4265
▁harmless	-4266
▁homemade	-4267
▁hungover	-4268
▁hustling	-4269
▁imbecile	-4270
▁impolite	-4271
▁included	-4272
▁insulted	-4273
▁isolated	-4274
▁knocking	-4275
▁managing	-4276
▁musician	-4277
▁normally	-4278
▁objected	-4279
▁occupied	-4280
▁pardoned	-4281
▁personal	-4282
▁perverse	-4283
▁pleasant	-4284
▁practice	-4285
▁quitting	-4286
▁security	-4287
▁shopping	-4288
▁shouting	-4289
▁showered	-4290
▁shrieked	-4291
▁shrugged	-4292
▁slowpoke	-4293
▁solution	-4294
▁somebody	-4295
▁specific	-4296
▁spirited	-4297
▁spitting	-4298
▁startled	-4299
▁stealing	-4300
▁struggle	-4301
▁suffered	-4302
▁suicidal	-4303
▁surprise	-4304
▁teaching	-4305
▁terrific	-4306
▁thinking	-4307
▁thirteen	-4308
▁tolerant	-4309
▁tomatoes	-4310
▁training	-4311
▁umbrella	-4312
▁unafraid	-4313
▁unnerved	-4314
▁unpacked	-4315
▁vanished	-4316
▁weddings	-4317
▁whistled	-4318
▁worrying	-4319
▁Accidents	-4320
▁Blindfold	-4321
▁Canadians	-4322
▁Rejection	-4323
▁Wednesday	-4324
▁adaptable	-4325
▁afternoon	-4326
▁available	-4327
▁charlatan	-4328
▁chickened	-4329
▁convicted	-4330
▁corrected	-4331
▁croissant	-4332
▁decorated	-4333
▁desperate	-4334
▁disobeyed	-4335
▁flattered	-4336
▁grumbling	-4337
▁happening	-4338
▁improvise	-4339
▁interfere	-4340
▁kidnapped	-4341
▁necessary	-4342
▁newcomers	-4343
▁outwitted	-4344
▁prisoners	-4345
▁questions	-4346
▁quibbling	-4347
▁searching	-4348
▁sensitive	-4349
▁separated	-4350
▁skeptical	-4351
▁snickered	-4352
▁sniffling	-4353
▁staggered	-4354
▁surrender	-4355
▁surviving	-4356
▁survivors	-4357
▁thrilling	-4358
▁unrelated	-4359
▁volunteer	-4360
▁wondering	-4361
▁Straighten	-4362
▁appreciate	-4363
▁astonished	-4364
▁contagious	-4365
▁dehydrated	-4366
▁delicately	-4367
▁dependable	-4368
▁devastated	-4369
▁dinnertime	-4370
▁downloaded	-4371
▁fascinated	-4372
▁interested	-4373
▁irrelevant	-4374
▁misleading	-4375
▁overworked	-4376
▁retaliated	-4377
▁speechless	-4378
▁understood	-4379
▁undressing	-4380
▁Concentrate	-4381
▁adventurous	-4382
▁celebrating	-4383
▁comfortable	-4384
▁extroverted	-4385
▁hardworking	-4386
▁humiliating	-4387
▁immediately	-4388
▁interesting	-4389
▁interfering	-4390
▁introverted	-4391
▁resourceful	-4392
▁spontaneous	-4393
▁trustworthy	-4394
▁unambitious	-4395
▁unconvinced	-4396
▁misunderstood	-4397
AP	-4398
PA	-4399
SD	-4400
TM	-4401
bl	-4402
bs	-4403
da	-4404
de	-4405
ek	-4406
ev	-4407
fo	-4408
fu	-4409
hl	-4410
ks	-4411
la	-4412
li	-4413
na	-4414
ns	-4415
os	-4416
to	-4417
ub	-4418
uc	-4419
we	-4420
ye	-4421
yn	-4422
Pad	-4423
TSD	-4424
adu	-4425
afe	-4426
aks	-4427
aln	-4428
aly	-4429
anc	-4430
ara	-4431
arf	-4432
arr	-4433
ata	-4434
awn	-4435
bit	-4436
bow	-4437
bra	-4438
cto	-4439
cts	-4440
cue	-4441
den	-4442
dow	-4443
eds	-4444
ems	-4445
eth	-4446
fly	-4447
fox	-4448
hap	-4449
hod	-4450
hor	-4451
idn	-4452
ien	-4453
igs	-4454
imi	-4455
imp	-4456
irt	-4457
isc	-4458
ism	-4459
isy	-4460
ldy	-4461
lem	-4462
loy	-4463
lyw	-4464
nce	-4465
nis	-4466
now	-4467
npe	-4468
oal	-4469
oda	-4470
ody	-4471
oga	-4472
oll	-4473
omm	-4474
omp	-4475
opy	-4476
orp	-4477
ota	-4478
que	-4479
rer	-4480
rim	-4481
rks	-4482
ron	-4483
rot	-4484
rue	-4485
sia	-4486
tie	-4487
tom	-4488
uce	-4489
uet	-4490
ume	-4491
usb	-4492
uys	-4493
vid	-4494
yst	-4495
▁AS	-4496
▁Fr	-4497
▁Ho	-4498
▁ID	-4499
emp	-4500
law	-4501
lip	-4502
mob	-4503
paw	-4504
▁Id	-4505
▁If	-4506
▁Ow	-4507
▁Ph	-4508
▁ax	-4509
▁dw	-4510
▁ed	-4511
▁ge	-4512
▁je	-4513
▁vo	-4514
▁ze	-4515
Look	-4516
aboo	-4517
acat	-4518
agna	-4519
alad	-4520
alse	-4521
alth	-4522
aman	-4523
anny	-4524
aper	-4525
apri	-4526
arce	-4527
ards	-4528
arge	-4529
aris	-4530
arto	-4531
asic	-4532
asty	-4533
atic	-4534
bern	-4535
bies	-4536
bled	-4537
bors	-4538
coon	-4539
ctic	-4540
days	-4541
dest	-4542
door	-4543
down	-4544
duty	-4545
earn	-4546
eced	-4547
edit	-4548
ened	-4549
enic	-4550
etic	-4551
evit	-4552
fess	-4553
gedy	-4554
gery	-4555
gled	-4556
goti	-4557
gret	-4558
gypt	-4559
hand	-4560
hant	-4561
hers	-4562
hist	-4563
idge	-4564
iece	-4565
iles	-4566
inch	-4567
inct	-4568
ines	-4569
ingy	-4570
inst	-4571
ints	-4572
itam	-4573
itar	-4574
iter	-4575
ites	-4576
kind	-4577
lant	-4578
ldom	-4579
loom	-4580
loqu	-4581
mers	-4582
nead	-4583
ness	-4584
nted	-4585
ntie	-4586
olen	-4587
onus	-4588
oody	-4589
ooed	-4590
orth	-4591
oted	-4592
otes	-4593
ousy	-4594
owsy	-4595
phan	-4596
plom	-4597
quel	-4598
rabs	-4599
mps	-4600
acht	-4601
ches	-4602
irth	-4603
osed	-4604
reas	-4605
ribe	-4606
room	-4607
rows	-4608
ruff	-4609
sets	-4610
ssle	-4611
sues	-4612
town	-4613
uffe	-4614
ugar	-4615
uild	-4616
ulin	-4617
umbs	-4618
umed	-4619
uned	-4620
unes	-4621
ungs	-4622
urch	-4623
urps	-4624
urvy	-4625
uses	-4626
vate	-4627
wife	-4628
yond	-4629
zard	-4630
▁ATM	-4631
▁Aut	-4632
▁Bus	-4633
▁CDs	-4634
▁Fam	-4635
▁Flo	-4636
▁GPA	-4637
▁Hor	-4638
▁Hun	-4639
▁Hyp	-4640
▁Ice	-4641
▁Mot	-4642
▁Mum	-4643
▁One	-4644
▁Out	-4645
▁Pay	-4646
▁Rus	-4647
▁Sat	-4648
▁Sun	-4649
▁Too	-4650
▁Toy	-4651
▁Way	-4652
▁ago	-4653
▁ain	-4654
▁alm	-4655
▁anx	-4656
▁arr	-4657
▁bat	-4658
▁bou	-4659
▁bro	-4660
▁bul	-4661
▁cit	-4662
▁cur	-4663
▁cus	-4664
▁cyn	-4665
▁def	-4666
▁der	-4667
▁dit	-4668
▁dug	-4669
▁dye	-4670
▁eas	-4671
▁elk	-4672
▁eth	-4673
▁eve	-4674
▁few	-4675
▁fil	-4676
▁fla	-4677
▁fum	-4678
▁gra	-4679
▁hip	-4680
▁hyp	-4681
▁jaw	-4682
▁jes	-4683
▁las	-4684
▁lid	-4685
▁lob	-4686
▁nar	-4687
▁net	-4688
▁nut	-4689
▁owl	-4690
▁pie	-4691
▁pon	-4692
▁pou	-4693
▁pud	-4694
▁put	-4695
▁rap	-4696
▁raw	-4697
▁rut	-4698
▁sky	-4699
kyo	-4700
atto	-4701
chos	-4702
ific	-4703
oulm	-4704
pose	-4705
rots	-4706
▁snu	-4707
▁spo	-4708
▁sus	-4709
▁tal	-4710
▁tig	-4711
▁top	-4712
▁tub	-4713
▁upd	-4714
▁usu	-4715
▁wes	-4716
▁yen	-4717
▁zoo	-4718
acket	-4719
addle	-4720
ailor	-4721
allow	-4722
almon	-4723
andon	-4724
anged	-4725
anges	-4726
aning	-4727
anish	-4728
anket	-4729
antee	-4730
arian	-4731
arned	-4732
ashly	-4733
asick	-4734
asive	-4735
assed	-4736
asten	-4737
ather	-4738
attoo	-4739
bable	-4740
broke	-4741
cakes	-4742
chids	-4743
coons	-4744
cture	-4745
dance	-4746
dream	-4747
eable	-4748
ender	-4749
enter	-4750
erals	-4751
ffins	-4752
ffles	-4753
ffoon	-4754
guard	-4755
hosts	-4756
icing	-4757
ience	-4758
ified	-4759
igner	-4760
ikely	-4761
imper	-4762
ising	-4763
ister	-4764
itics	-4765
itish	-4766
kempt	-4767
lared	-4768
loyed	-4769
model	-4770
nesia	-4771
oalas	-4772
olent	-4773
olete	-4774
ondes	-4775
opane	-4776
orean	-4777
orpio	-4778
ortal	-4779
ortun	-4780
ppies	-4781
raced	-4782
raffe	-4783
raved	-4784
reams	-4785
reeze	-4786
rents	-4787
rowds	-4788
state	-4789
terns	-4790
unity	-4791
unted	-4792
usage	-4793
vesty	-4794
▁Bees	-4795
▁Blow	-4796
▁Buzz	-4797
▁Clip	-4798
▁Cuff	-4799
lium	-4800
lmet	-4801
plac	-4802
becue	-4803
blind	-4804
doors	-4805
lemen	-4806
moker	-4807
terer	-4808
▁ASAP	-4809
▁Copy	-4810
▁Danc	-4811
▁Deal	-4812
▁Desc	-4813
▁Dial	-4814
▁Dude	-4815
▁Duty	-4816
▁Fill	-4817
▁Flip	-4818
▁Flow	-4819
▁Food	-4820
▁Form	-4821
▁Guys	-4822
▁Iron	-4823
▁Jobs	-4824
▁Know	-4825
▁Lend	-4826
▁Luck	-4827
▁Meat	-4828
▁More	-4829
▁Mull	-4830
▁Octo	-4831
▁Over	-4832
▁PTSD	-4833
▁Pair	-4834
▁Pigs	-4835
▁Plan	-4836
▁Plug	-4837
▁Rake	-4838
▁Roll	-4839
▁Silk	-4840
▁Slip	-4841
▁Suit	-4842
▁Tear	-4843
▁Then	-4844
▁Want	-4845
▁Wind	-4846
▁acne	-4847
▁ages	-4848
▁agit	-4849
▁airs	-4850
▁ammo	-4851
▁area	-4852
▁army	-4853
▁assa	-4854
▁athl	-4855
▁bisc	-4856
▁budd	-4857
▁bugs	-4858
▁bury	-4859
▁butc	-4860
▁cage	-4861
▁camp	-4862
▁caut	-4863
▁chat	-4864
▁chef	-4865
▁city	-4866
▁coin	-4867
▁coke	-4868
▁coma	-4869
▁comb	-4870
▁coup	-4871
▁cows	-4872
▁crew	-4873
▁curt	-4874
▁damp	-4875
▁dand	-4876
▁data	-4877
▁dawn	-4878
▁deck	-4879
▁dent	-4880
▁diam	-4881
▁dirt	-4882
▁dish	-4883
▁dren	-4884
▁drew	-4885
▁dude	-4886
▁duet	-4887
▁dump	-4888
▁each	-4889
▁ease	-4890
▁eats	-4891
▁educ	-4892
▁feas	-4893
▁flag	-4894
▁fled	-4895
▁flew	-4896
▁fore	-4897
▁frat	-4898
▁gawk	-4899
▁gent	-4900
▁glue	-4901
▁grim	-4902
▁guar	-4903
▁guid	-4904
▁gull	-4905
▁heap	-4906
▁heel	-4907
▁hell	-4908
▁hick	-4909
▁hoax	-4910
▁hunt	-4911
▁husb	-4912
▁iPad	-4913
▁imag	-4914
▁impo	-4915
▁inde	-4916
▁insp	-4917
▁inst	-4918
▁itch	-4919
▁jail	-4920
▁kara	-4921
▁knit	-4922
▁lack	-4923
▁lake	-4924
▁lamp	-4925
▁land	-4926
▁legs	-4927
▁lent	-4928
▁less	-4929
▁lift	-4930
▁lips	-4931
▁loss	-4932
▁mama	-4933
▁many	-4934
▁maps	-4935
▁mask	-4936
▁math	-4937
▁meek	-4938
▁memo	-4939
▁midn	-4940
▁mock	-4941
▁mole	-4942
▁mush	-4943
▁nail	-4944
▁nigh	-4945
▁noon	-4946
▁nutc	-4947
▁onto	-4948
▁owes	-4949
▁owns	-4950
▁oyst	-4951
▁padd	-4952
▁pear	-4953
▁pimp	-4954
▁plug	-4955
▁pois	-4956
▁pomp	-4957
▁pony	-4958
▁pred	-4959
▁purr	-4960
▁puts	-4961
▁rare	-4962
▁rear	-4963
▁reck	-4964
▁rept	-4965
▁salt	-4966
▁sash	-4967
▁scow	-4968
▁seaf	-4969
▁ship	-4970
▁side	-4971
▁slim	-4972
▁soap	-4973
▁sock	-4974
▁sore	-4975
▁spam	-4976
▁squa	-4977
▁stra	-4978
▁sugg	-4979
▁suit	-4980
▁sunb	-4981
▁tape	-4982
▁than	-4983
▁thud	-4984
▁tire	-4985
▁toes	-4986
▁tofu	-4987
▁tore	-4988
▁toys	-4989
▁tree	-4990
▁tune	-4991
▁unst	-4992
▁urge	-4993
▁vain	-4994
▁vibr	-4995
▁waln	-4996
▁wasp	-4997
▁wear	-4998
▁when	-4999
▁worn	-5000
▁yawn	-5001
▁year	-5002
▁yoga	-5003
▁zeal	-5004
alyzed	-5005
artial	-5006
athize	-5007
atives	-5008
atural	-5009
broken	-5010
ective	-5011
entify	-5012
ention	-5013
ertive	-5014
fessor	-5015
ffeine	-5016
garian	-5017
handed	-5018
ickens	-5019
icking	-5020
ienced	-5021
igning	-5022
indled	-5023
isible	-5024
judged	-5025
lantis	-5026
lauded	-5027
lesman	-5028
lyweds	-5029
minded	-5030
mobile	-5031
notism	-5032
ochist	-5033
ocrite	-5034
ogenic	-5035
olting	-5036
ommend	-5037
orexic	-5038
ownies	-5039
reedom	-5040
rified	-5041
ruding	-5042
ternet	-5043
uffeur	-5044
umbled	-5045
weight	-5046
zzling	-5047
▁About	-5048
▁Arabs	-5049
▁Balls	-5050
▁Bless	-5051
▁Boats	-5052
▁Capri	-5053
▁Carry	-5054
▁Class	-5055
▁Climb	-5056
▁Crows	-5057
▁Daddy	-5058
▁Egypt	-5059
▁Fetch	-5060
▁Great	-5061
▁Hoist	-5062
▁Knead	-5063
▁Large	-5064
▁Learn	-5065
▁Natto	-5066
▁Paper	-5067
▁Paris	-5068
▁Phone	-5069
▁Pitch	-5070
▁Sheep	-5071
▁Shoot	-5072
▁Smoke	-5073
▁Stuff	-5074
▁Sugar	-5075
▁Their	-5076
▁Tokyo	-5077
▁Untie	-5078
▁Walls	-5079
▁Women	-5080
▁Years	-5081
▁abhor	-5082
▁above	-5083
▁ached	-5084
▁aches	-5085
▁acted	-5086
▁added	-5087
▁agent	-5088
▁agony	-5089
▁alien	-5090
▁aloud	-5091
▁amuse	-5092
▁basic	-5093
▁beaks	-5094
▁begun	-5095
▁bills	-5096
▁birth	-5097
▁bloom	-5098
▁bonus	-5099
▁bulky	-5100
▁burns	-5101
▁burnt	-5102
▁burps	-5103
▁calls	-5104
▁candy	-5105
▁cared	-5106
▁carry	-5107
▁carto	-5108
▁chill	-5109
▁cinch	-5110
▁clues	-5111
▁coach	-5112
▁costs	-5113
▁cream	-5114
▁cries	-5115
▁cross	-5116
▁cutie	-5117
▁dazed	-5118
▁dealt	-5119
▁dived	-5120
▁dough	-5121
▁draft	-5122
▁draws	-5123
▁dried	-5124
▁dwarf	-5125
▁elbow	-5126
▁eloqu	-5127
▁enter	-5128
▁exist	-5129
▁expen	-5130
▁exper	-5131
▁faces	-5132
▁falls	-5133
▁false	-5134
▁farce	-5135
▁farts	-5136
▁felon	-5137
▁fetch	-5138
▁fluke	-5139
▁force	-5140
▁fraud	-5141
▁gasps	-5142
▁gazed	-5143
▁gears	-5144
▁giant	-5145
▁gifts	-5146
▁gives	-5147
▁goats	-5148
▁grace	-5149
▁gradu	-5150
▁gross	-5151
▁group	-5152
▁habit	-5153
▁henpe	-5154
▁hives	-5155
▁honor	-5156
▁human	-5157
▁humid	-5158
▁ideas	-5159
▁jeans	-5160
▁jello	-5161
▁jelly	-5162
▁keeps	-5163
▁kites	-5164
▁knits	-5165
▁lance	-5166
▁lasts	-5167
▁leaks	-5168
▁lefty	-5169
▁liars	-5170
▁limps	-5171
▁lines	-5172
▁lived	-5173
▁livid	-5174
▁lousy	-5175
▁lungs	-5176
▁mason	-5177
▁maybe	-5178
▁meals	-5179
▁medit	-5180
▁messy	-5181
▁minus	-5182
▁moldy	-5183
▁mommy	-5184
▁moody	-5185
▁mooed	-5186
▁moose	-5187
▁muddy	-5188
▁mustn	-5189
▁nails	-5190
▁nanny	-5191
▁nasty	-5192
▁needy	-5193
▁neigh	-5194
▁niece	-5195
▁noisy	-5196
▁north	-5197
▁nurse	-5198
▁obeys	-5199
▁optim	-5200
▁organ	-5201
▁owner	-5202
▁pants	-5203
▁pasta	-5204
▁peach	-5205
▁perse	-5206
▁pilot	-5207
▁plane	-5208
▁plant	-5209
▁poems	-5210
▁poker	-5211
▁price	-5212
▁prize	-5213
▁pudgy	-5214
▁queen	-5215
▁rains	-5216
▁reads	-5217
▁rebel	-5218
▁ridic	-5219
▁rocks	-5220
▁round	-5221
▁sails	-5222
▁salad	-5223
▁sauce	-5224
▁serve	-5225
▁setup	-5226
▁shall	-5227
▁shark	-5228
▁shave	-5229
▁shudd	-5230
▁sicke	-5231
▁sings	-5232
▁solid	-5233
▁solve	-5234
▁songs	-5235
▁soulm	-5236
▁space	-5237
▁speed	-5238
▁stamp	-5239
▁stank	-5240
▁stoic	-5241
▁stung	-5242
▁swims	-5243
▁sword	-5244
▁taboo	-5245
▁taken	-5246
▁tapes	-5247
▁threw	-5248
▁throw	-5249
▁thump	-5250
▁tools	-5251
▁tooth	-5252
▁trash	-5253
▁treas	-5254
▁trees	-5255
▁trips	-5256
▁trunk	-5257
▁tummy	-5258
▁tuned	-5259
▁types	-5260
▁uncle	-5261
▁unemp	-5262
▁vacat	-5263
▁veget	-5264
▁vitam	-5265
▁voice	-5266
▁wears	-5267
▁whiff	-5268
▁whirl	-5269
▁witch	-5270
▁yacht	-5271
▁zebra	-5272
althily	-5273
arreled	-5274
athetic	-5275
bernate	-5276
ceptive	-5277
cessful	-5278
gotiate	-5279
hodical	-5280
ificial	-5281
iterate	-5282
judiced	-5283
otesque	-5284
ressive	-5285
xicated	-5286
zardous	-5287
▁Apples	-5288
▁Autumn	-5289
▁Behave	-5290
▁Cancer	-5291
▁Cookie	-5292
▁Crying	-5293
▁Dreams	-5294
▁Family	-5295
▁Fasten	-5296
▁Friday	-5297
▁Garden	-5298
▁Ghosts	-5299
▁Hallow	-5300
▁Helium	-5301
▁Horses	-5302
▁Inhale	-5303
▁Koalas	-5304
▁Korean	-5305
▁Motion	-5306
▁Russia	-5307
▁Saddle	-5308
▁Saturn	-5309
▁Sharks	-5310
▁Toyota	-5311
▁absent	-5312
▁action	-5313
▁active	-5314
▁actors	-5315
▁adults	-5316
▁assume	-5317
▁autumn	-5318
▁babies	-5319
▁backup	-5320
▁banker	-5321
▁behave	-5322
▁beyond	-5323
▁biling	-5324
▁booked	-5325
▁bottom	-5326
▁bounce	-5327
▁brains	-5328
▁braked	-5329
▁breeze	-5330
▁bridge	-5331
▁canned	-5332
▁cannot	-5333
▁carded	-5334
▁castle	-5335
▁cattle	-5336
▁causes	-5337
▁cheats	-5338
▁cheese	-5339
▁choose	-5340
▁church	-5341
▁cities	-5342
▁client	-5343
▁clocks	-5344
▁common	-5345
▁cooper	-5346
▁counts	-5347
▁couple	-5348
▁crepes	-5349
▁crowds	-5350
▁cursed	-5351
▁cusses	-5352
▁danced	-5353
▁dating	-5354
▁deeply	-5355
▁diplom	-5356
▁dollar	-5357
▁drowsy	-5358
▁easily	-5359
▁embarr	-5360
▁ending	-5361
▁escort	-5362
▁faking	-5363
▁farted	-5364
▁fixing	-5365
▁flabby	-5366
▁flight	-5367
▁flying	-5368
▁framed	-5369
▁frying	-5370
▁fuming	-5371
▁fungus	-5372
▁garage	-5373
▁garlic	-5374
▁grapes	-5375
▁groans	-5376
▁groggy	-5377
▁grouch	-5378
▁guests	-5379
▁guitar	-5380
▁hailed	-5381
▁hassle	-5382
▁having	-5383
▁hectic	-5384
▁helmet	-5385
▁hockey	-5386
▁honked	-5387
▁horses	-5388
▁hottie	-5389
▁howled	-5390
▁inevit	-5391
▁insult	-5392
▁issues	-5393
▁itches	-5394
▁jesuit	-5395
▁jockey	-5396
▁joints	-5397
▁killer	-5398
▁landed	-5399
▁learns	-5400
▁letter	-5401
▁litter	-5402
▁looker	-5403
▁louder	-5404
▁madman	-5405
▁making	-5406
▁melons	-5407
▁melted	-5408
▁minors	-5409
▁mishap	-5410
▁mocked	-5411
▁modest	-5412
▁mortal	-5413
▁mugged	-5414
▁narrow	-5415
▁nature	-5416
▁nights	-5417
▁notice	-5418
▁online	-5419
▁orphan	-5420
▁outlaw	-5421
▁pagoda	-5422
▁parody	-5423
▁parole	-5424
▁parrot	-5425
▁patrol	-5426
▁photos	-5427
▁player	-5428
▁poking	-5429
▁poorly	-5430
▁poured	-5431
▁priest	-5432
▁prince	-5433
▁prunes	-5434
▁purist	-5435
▁purple	-5436
▁pushed	-5437
▁racket	-5438
▁rashly	-5439
▁regret	-5440
▁reinst	-5441
▁relied	-5442
▁remain	-5443
▁rented	-5444
▁replac	-5445
▁resign	-5446
▁reward	-5447
▁salmon	-5448
▁saying	-5449
▁scarce	-5450
▁scored	-5451
▁scurvy	-5452
▁season	-5453
▁secure	-5454
▁seldom	-5455
▁sequel	-5456
▁sexist	-5457
▁shadow	-5458
▁shared	-5459
▁shouts	-5460
▁shovel	-5461
▁shrank	-5462
▁sirens	-5463
▁sleeps	-5464
▁smoker	-5465
▁snakes	-5466
▁sneeze	-5467
▁snores	-5468
▁sobbed	-5469
▁somber	-5470
▁squash	-5471
▁stable	-5472
▁stairs	-5473
▁stared	-5474
▁starve	-5475
▁sticky	-5476
▁stingy	-5477
▁stolen	-5478
▁summer	-5479
▁tailor	-5480
▁talent	-5481
▁tattoo	-5482
▁taught	-5483
▁tennis	-5484
▁tensed	-5485
▁tenure	-5486
▁theirs	-5487
▁thumbs	-5488
▁tigers	-5489
▁tycoon	-5490
▁unkind	-5491
▁unreal	-5492
▁unsafe	-5493
▁untrue	-5494
▁useful	-5495
▁violin	-5496
▁vision	-5497
▁warmly	-5498
▁welder	-5499
▁whisky	-5500
▁yellow	-5501
dreaming	-5502
enseless	-5503
impering	-5504
modeling	-5505
ortunate	-5506
▁Abandon	-5507
▁British	-5508
▁Chicken	-5509
▁Consult	-5510
▁Contact	-5511
▁Dancing	-5512
▁Firefox	-5513
▁Fishing	-5514
▁Flowers	-5515
▁Mondays	-5516
▁October	-5517
▁Scorpio	-5518
▁Spanish	-5519
▁Sundays	-5520
▁advises	-5521
▁against	-5522
▁allowed	-5523
▁almonds	-5524
▁amnesia	-5525
▁anxious	-5526
▁anytime	-5527
▁arrange	-5528
▁assumed	-5529
▁biscuit	-5530
▁blanket	-5531
▁blocked	-5532
▁blondes	-5533
▁bowling	-5534
▁buddies	-5535
▁buffoon	-5536
▁bullied	-5537
▁captain	-5538
▁carrots	-5539
▁castles	-5540
▁classes	-5541
▁classic	-5542
▁compete	-5543
▁country	-5544
▁crushed	-5545
▁cynical	-5546
▁damaged	-5547
▁decline	-5548
▁dentist	-5549
▁devoted	-5550
▁ditched	-5551
▁dreamer	-5552
▁dropped	-5553
▁enjoyed	-5554
▁ethical	-5555
▁evasive	-5556
▁evening	-5557
▁experts	-5558
▁farmers	-5559
▁filming	-5560
▁firefly	-5561
▁fleeced	-5562
▁freedom	-5563
▁frowned	-5564
▁gambles	-5565
▁gargled	-5566
▁gawking	-5567
▁giraffe	-5568
▁gloated	-5569
▁gossips	-5570
▁growled	-5571
▁grunted	-5572
▁haircut	-5573
▁hanging	-5574
▁happier	-5575
▁hiccups	-5576
▁husband	-5577
▁improve	-5578
▁insects	-5579
▁insulin	-5580
▁interns	-5581
▁ironing	-5582
▁karaoke	-5583
▁lasagna	-5584
▁learned	-5585
▁leather	-5586
▁lecture	-5587
▁letdown	-5588
▁listens	-5589
▁lobster	-5590
▁magical	-5591
▁moaning	-5592
▁muffins	-5593
▁nagging	-5594
▁natural	-5595
▁nutcase	-5596
▁opposed	-5597
▁oranges	-5598
▁orchids	-5599
▁oysters	-5600
▁painted	-5601
▁parents	-5602
▁pattern	-5603
▁pimples	-5604
▁planned	-5605
▁plastic	-5606
▁pleases	-5607
▁pompous	-5608
▁ponchos	-5609
▁prepaid	-5610
▁prevail	-5611
▁private	-5612
▁propane	-5613
▁prudish	-5614
▁punched	-5615
▁puppies	-5616
▁purpose	-5617
▁radical	-5618
▁reality	-5619
▁rebuild	-5620
▁redhead	-5621
▁related	-5622
▁retreat	-5623
▁sailing	-5624
▁sashimi	-5625
▁sausage	-5626
▁screams	-5627
▁seafood	-5628
▁seasick	-5629
▁shaving	-5630
▁shifted	-5631
▁shouted	-5632
▁sickens	-5633
▁sitting	-5634
▁slender	-5635
▁sneered	-5636
▁sniffed	-5637
▁snorted	-5638
▁snowman	-5639
▁snubbed	-5640
▁soaking	-5641
▁soldier	-5642
▁spoiled	-5643
▁suicide	-5644
▁sunsets	-5645
▁surfing	-5646
▁surgery	-5647
▁surreal	-5648
▁suspect	-5649
▁texting	-5650
▁towards	-5651
▁tragedy	-5652
▁trainee	-5653
▁unkempt	-5654
▁updated	-5655
▁updates	-5656
▁upstate	-5657
▁usually	-5658
▁waffles	-5659
▁walnuts	-5660
▁weighed	-5661
▁widower	-5662
▁winners	-5663
▁witness	-5664
▁wonders	-5665
▁zealots	-5666
▁Atlantis	-5667
▁Business	-5668
▁Describe	-5669
▁Floating	-5670
▁Identify	-5671
▁Internet	-5672
▁Planning	-5673
▁acquired	-5674
▁adapting	-5675
▁agitated	-5676
▁alarming	-5677
▁anorexic	-5678
▁appeared	-5679
▁approves	-5680
▁athletic	-5681
▁bankrupt	-5682
▁barbecue	-5683
▁believes	-5684
▁birthday	-5685
▁blessing	-5686
▁breather	-5687
▁brownies	-5688
▁business	-5689
▁butchers	-5690
▁caffeine	-5691
▁cartoons	-5692
▁cautious	-5693
▁childish	-5694
▁cleaning	-5695
▁comedies	-5696
▁cracking	-5697
▁credible	-5698
▁dandruff	-5699
▁declared	-5700
▁depraved	-5701
▁deranged	-5702
▁diabetes	-5703
▁diamonds	-5704
▁disgrace	-5705
▁disgusts	-5706
▁downtown	-5707
▁drenched	-5708
▁educated	-5709
▁eighteen	-5710
▁eloquent	-5711
▁embraced	-5712
▁engineer	-5713
▁enticing	-5714
▁famished	-5715
▁feasible	-5716
▁frowning	-5717
▁funerals	-5718
▁gardener	-5719
▁graceful	-5720
▁guidance	-5721
▁gullible	-5722
▁hesitant	-5723
▁holidays	-5724
▁imagined	-5725
▁immobile	-5726
▁immunity	-5727
▁indecent	-5728
▁insolent	-5729
▁instinct	-5730
▁likeable	-5731
▁merchant	-5732
▁midnight	-5733
▁minister	-5734
▁mushroom	-5735
▁newcomer	-5736
▁obsolete	-5737
▁outdoors	-5738
▁paddling	-5739
▁pancakes	-5740
▁partners	-5741
▁patience	-5742
▁pleasure	-5743
▁poisoned	-5744
▁politics	-5745
▁prospect	-5746
▁punished	-5747
▁raccoons	-5748
▁reckless	-5749
▁reptiles	-5750
▁respects	-5751
▁riddance	-5752
▁salesman	-5753
▁scowling	-5754
▁shivered	-5755
▁shortcut	-5756
▁sneezing	-5757
▁sniffled	-5758
▁sometime	-5759
▁southpaw	-5760
▁straight	-5761
▁stranded	-5762
▁stronger	-5763
▁studious	-5764
▁stumbled	-5765
▁swindled	-5766
▁tireless	-5767
▁travesty	-5768
▁treasure	-5769
▁troubled	-5770
▁unlikely	-5771
▁unstable	-5772
▁vacation	-5773
▁violence	-5774
▁vitamins	-5775
▁wavering	-5776
▁weakling	-5777
▁westerns	-5778
▁Attention	-5779
▁Capricorn	-5780
▁Gardening	-5781
▁Halloween	-5782
▁Hungarian	-5783
▁Hypnotism	-5784
▁acquitted	-5785
▁applauded	-5786
▁assaulted	-5787
▁assertive	-5788
▁attention	-5789
▁attorneys	-5790
▁bilingual	-5791
▁biologist	-5792
▁breathing	-5793
▁cameraman	-5794
▁carpenter	-5795
▁celebrate	-5796
▁chauffeur	-5797
▁comedians	-5798
▁delicious	-5799
▁detective	-5800
▁disagrees	-5801
▁dishonest	-5802
▁drizzling	-5803
▁easygoing	-5804
▁efficient	-5805
▁exercises	-5806
▁expensive	-5807
▁fantastic	-5808
▁forbidden	-5809
▁foreigner	-5810
▁forgotten	-5811
▁gardeners	-5812
▁gentlemen	-5813
▁geologist	-5814
▁gossiping	-5815
▁graduated	-5816
▁grotesque	-5817
▁guarantee	-5818
▁hazardous	-5819
▁healthily	-5820
▁henpecked	-5821
▁hibernate	-5822
▁housewife	-5823
▁hypocrite	-5824
▁impartial	-5825
▁incorrect	-5826
▁inspiring	-5827
▁intrigues	-5828
▁intruding	-5829
▁invisible	-5830
▁lifeguard	-5831
▁masochist	-5832
▁merciless	-5833
▁misjudged	-5834
▁negotiate	-5835
▁neighbors	-5836
▁newlyweds	-5837
▁nonsmoker	-5838
▁organized	-5839
▁overdosed	-5840
▁panicking	-5841
▁paralyzed	-5842
▁petrified	-5843
▁pointless	-5844
▁poisonous	-5845
▁predicted	-5846
▁professor	-5847
▁quarreled	-5848
▁recommend	-5849
▁relatives	-5850
▁resentful	-5851
▁resigning	-5852
▁resisting	-5853
▁respected	-5854
▁responded	-5855
▁revolting	-5856
▁shivering	-5857
▁shuddered	-5858
▁sickening	-5859
▁soulmates	-5860
▁stiffened	-5861
▁stutterer	-5862
▁sunburned	-5863
▁testified	-5864
▁undamaged	-5865
▁vibrating	-5866
▁worthless	-5867
▁acceptable	-5868
▁artificial	-5869
▁diplomatic	-5870
▁disgusting	-5871
▁disturbing	-5872
▁exaggerate	-5873
▁exercising	-5874
▁farsighted	-5875
▁illiterate	-5876
▁impossible	-5877
▁impressive	-5878
▁improbable	-5879
▁improvised	-5880
▁inevitable	-5881
▁meditating	-5882
▁methodical	-5883
▁optimistic	-5884
▁overweight	-5885
▁perceptive	-5886
▁photogenic	-5887
▁prejudiced	-5888
▁recovering	-5889
▁reinstated	-5890
▁remodeling	-5891
▁ridiculous	-5892
▁squabbling	-5893
▁successful	-5894
▁sufficient	-5895
▁sympathize	-5896
▁terrifying	-5897
▁unemployed	-5898
▁vegetarian	-5899
▁volunteers	-5900
▁whimpering	-5901
▁cooperating	-5902
▁daydreaming	-5903
▁defenseless	-5904
▁embarrassed	-5905
▁exaggerated	-5906
▁exaggerates	-5907
▁experienced	-5908
▁heartbroken	-5909
▁intoxicated	-5910
▁nearsighted	-5911
▁persevering	-5912
▁replaceable	-5913
▁suggestions	-5914
▁sympathetic	-5915
▁understands	-5916
▁unfortunate	-5917
Ac	-5918
Af	-5919
Ai	-5920
Al	-5921
Am	-5922
An	-5923
Ap	-5924
Ar	-5925
As	-5926
At	-5927
Au	-5928
Av	-5929
Aw	-5930
Ba	-5931
Be	-5932
Bi	-5933
Bl	-5934
Bo	-5935
Br	-5936
Bu	-5937
CD	-5938
CP	-5939
Ca	-5940
Ch	-5941
Cl	-5942
Co	-5943
Cr	-5944
Cu	-5945
DJ	-5946
Da	-5947
De	-5948
Di	-5949
Do	-5950
Dr	-5951
Ds	-5952
Du	-5953
Ea	-5954
Em	-5955
En	-5956
Ev	-5957
Ex	-5958
Fa	-5959
Fe	-5960
Fi	-5961
Fl	-5962
Fo	-5963
Fr	-5964
GP	-5965
Ge	-5966
Gi	-5967
Go	-5968
Gr	-5969
Gu	-5970
Ha	-5971
He	-5972
Hi	-5973
Ho	-5974
Hu	-5975
Hy	-5976
Id	-5977
Ig	-5978
Ir	-5979
Is	-5980
It	-5981
Ja	-5982
Je	-5983
Jo	-5984
Ju	-5985
Ke	-5986
Ki	-5987
Le	-5988
Li	-5989
Lo	-5990
Lu	-5991
Ma	-5992
Me	-5993
Mi	-5994
Mo	-5995
Mu	-5996
My	-5997
Na	-5998
Ne	-5999
Ad	-6000
Kn	-6001
La	-6002
Ni	-6003
No	-6004
OK	-6005
Of	-6006
Oh	-6007
On	-6008
Op	-6009
Ou	-6010
Ow	-6011
PT	-6012
Pa	-6013
Pe	-6014
Ph	-6015
Pi	-6016
Pl	-6017
Po	-6018
Pr	-6019
Pu	-6020
Ra	-6021
Re	-6022
Ri	-6023
Ru	-6024
Sa	-6025
Sc	-6026
Se	-6027
Sh	-6028
Si	-6029
Sk	-6030
Sl	-6031
Sm	-6032
Sn	-6033
So	-6034
Sp	-6035
St	-6036
Su	-6037
Sw	-6038
Sy	-6039
Ta	-6040
Te	-6041
Th	-6042
Ti	-6043
To	-6044
Tr	-6045
Tu	-6046
Un	-6047
Us	-6048
Wa	-6049
We	-6050
Wh	-6051
Wi	-6052
Wo	-6053
Wr	-6054
Ye	-6055
Yo	-6056
aa	-6057
ai	-6058
au	-6059
av	-6060
ba	-6061
bh	-6062
bj	-6063
bu	-6064
bv	-6065
ca	-6066
cl	-6067
cn	-6068
cq	-6069
cr	-6070
cs	-6071
cy	-6072
db	-6073
df	-6074
dg	-6075
di	-6076
dl	-6077
dm	-6078
dn	-6079
dt	-6080
du	-6081
dv	-6082
eb	-6083
eh	-6084
ei	-6085
ej	-6086
eo	-6087
eq	-6088
eu	-6089
ez	-6090
fa	-6091
fi	-6092
fl	-6093
fr	-6094
fy	-6095
ga	-6096
gb	-6097
gi	-6098
gl	-6099
AS	-6100
AT	-6101
Ab	-6102
Eg	-6103
Ga	-6104
Gh	-6105
ID	-6106
Ic	-6107
If	-6108
In	-6109
Ko	-6110
Oc	-6111
Ov	-6112
Ro	-6113
SA	-6114
TS	-6115
UF	-6116
ao	-6117
dh	-6118
dw	-6119
gp	-6120
gr	-6121
hb	-6122
hd	-6123
hf	-6124
hi	-6125
hj	-6126
hp	-6127
hr	-6128
ht	-6129
hu	-6130
iP	-6131
ii	-6132
ik	-6133
iu	-6134
iv	-6135
ja	-6136
je	-6137
ji	-6138
jo	-6139
ju	-6140
ka	-6141
ki	-6142
kl	-6143
kn	-6144
kr	-6145
ku	-6146
kw	-6147
lb	-6148
lg	-6149
lk	-6150
lr	-6151
lt	-6152
lu	-6153
lv	-6154
lw	-6155
ma	-6156
mf	-6157
mi	-6158
ml	-6159
mm	-6160
mn	-6161
ms	-6162
mu	-6163
nb	-6164
nf	-6165
nh	-6166
ni	-6167
nj	-6168
nk	-6169
nl	-6170
nm	-6171
nn	-6172
np	-6173
nr	-6174
nu	-6175
nv	-6176
nw	-6177
nx	-6178
oa	-6179
od	-6180
oe	-6181
of	-6182
oi	-6183
ok	-6184
oq	-6185
ov	-6186
ox	-6187
oz	-6188
pa	-6189
pb	-6190
pc	-6191
pd	-6192
pf	-6193
ph	-6194
pi	-6195
pn	-6196
po	-6197
pu	-6198
py	-6199
ln	-6200
rb	-6201
rc	-6202
rd	-6203
rf	-6204
rg	-6205
rk	-6206
rl	-6207
rn	-6208
rp	-6209
rr	-6210
rs	-6211
rt	-6212
rv	-6213
rw	-6214
sa	-6215
sb	-6216
sd	-6217
sf	-6218
sg	-6219
sh	-6220
si	-6221
sj	-6222
sk	-6223
sl	-6224
sm	-6225
sn	-6226
sp	-6227
sq	-6228
su	-6229
ta	-6230
tb	-6231
tc	-6232
td	-6233
tf	-6234
tg	-6235
ti	-6236
tl	-6237
tm	-6238
tn	-6239
tr	-6240
ts	-6241
tt	-6242
tu	-6243
tw	-6244
ua	-6245
uf	-6246
ui	-6247
uk	-6248
uz	-6249
va	-6250
vi	-6251
vu	-6252
wa	-6253
wc	-6254
wd	-6255
wf	-6256
wh	-6257
wi	-6258
wk	-6259
wl	-6260
wm	-6261
wn	-6262
wo	-6263
wp	-6264
ws	-6265
wy	-6266
xa	-6267
xc	-6268
xe	-6269
xh	-6270
xi	-6271
xp	-6272
xy	-6273
ya	-6274
yb	-6275
yc	-6276
yd	-6277
yg	-6278
yi	-6279
ym	-6280
yo	-6281
yt	-6282
yw	-6283
yz	-6284
zi	-6285
zl	-6286
zo	-6287
zu	-6288
▁q	-6289
All	-6290
Are	-6291
Bre	-6292
Car	-6293
Cha	-6294
Cle	-6295
Con	-6296
Cou	-6297
Din	-6298
Dre	-6299
Com	-6300
Coo	-6301
Eas	-6302
Eat	-6303
Fan	-6304
Fas	-6305
Fin	-6306
Foo	-6307
Fre	-6308
Gre	-6309
Han	-6310
Has	-6311
Jes	-6312
Jus	-6313
Kee	-6314
Lar	-6315
Len	-6316
Let	-6317
Loo	-6318
Man	-6319
Mar	-6320
May	-6321
Men	-6322
Mom	-6323
Mon	-6324
Mus	-6325
Nat	-6326
Not	-6327
Now	-6328
Oct	-6329
Out	-6330
Pay	-6331
Pou	-6332
Pre	-6333
Rea	-6334
Res	-6335
Ret	-6336
Rin	-6337
Sha	-6338
She	-6339
Som	-6340
Sou	-6341
Tou	-6342
Use	-6343
Wed	-6344
Wha	-6345
Whe	-6346
Wom	-6347
Wou	-6348
You	-6349
ads	-6350
agi	-6351
ale	-6352
arb	-6353
arc	-6354
ari	-6355
arp	-6356
asn	-6357
aso	-6358
atc	-6359
ati	-6360
aus	-6361
aut	-6362
ayd	-6363
bom	-6364
bon	-6365
boo	-6366
bor	-6367
bou	-6368
bre	-6369
bus	-6370
cal	-6371
can	-6372
cas	-6373
cku	-6374
cou	-6375
cre	-6376
cro	-6377
cus	-6378
der	-6379
dhe	-6380
din	-6381
dom	-6382
dor	-6383
dou	-6384
dre	-6385
dul	-6386
ean	-6387
ece	-6388
edi	-6389
edn	-6390
edt	-6391
edu	-6392
edy	-6393
eld	-6394
enc	-6395
enl	-6396
eon	-6397
eou	-6398
erc	-6399
Ain	-6400
Che	-6401
Don	-6402
Gar	-6403
Pus	-6404
Red	-6405
Sin	-6406
Win	-6407
aul	-6408
bin	-6409
car	-6410
cea	-6411
ded	-6412
edd	-6413
ede	-6414
ein	-6415
env	-6416
ere	-6417
err	-6418
erv	-6419
esn	-6420
eta	-6421
etd	-6422
etf	-6423
eti	-6424
ett	-6425
fed	-6426
fen	-6427
fid	-6428
fin	-6429
foo	-6430
for	-6431
fou	-6432
fre	-6433
fun	-6434
ggp	-6435
ghe	-6436
gis	-6437
gon	-6438
gra	-6439
gre	-6440
hab	-6441
hak	-6442
hal	-6443
hau	-6444
hav	-6445
haz	-6446
hea	-6447
hec	-6448
hee	-6449
hef	-6450
hei	-6451
hel	-6452
hem	-6453
hen	-6454
hey	-6455
him	-6456
hin	-6457
hir	-6458
hok	-6459
hom	-6460
hos	-6461
hou	-6462
hre	-6463
iat	-6464
ibb	-6465
icu	-6466
idi	-6467
iin	-6468
ina	-6469
inc	-6470
inf	-6471
inn	-6472
ino	-6473
inu	-6474
iol	-6475
iou	-6476
isa	-6477
isf	-6478
iso	-6479
ith	-6480
iti	-6481
jer	-6482
jus	-6483
kar	-6484
key	-6485
kin	-6486
kis	-6487
let	-6488
lie	-6489
lin	-6490
lom	-6491
lou	-6492
lpf	-6493
lre	-6494
lut	-6495
mar	-6496
mel	-6497
min	-6498
mis	-6499
Ble	-6500
Eve	-6501
Hon	-6502
Ove	-6503
Pas	-6504
ann	-6505
bul	-6506
dic	-6507
dis	-6508
don	-6509
dve	-6510
eha	-6511
erd	-6512
eve	-6513
had	-6514
hai	-6515
ham	-6516
har	-6517
has	-6518
hon	-6519
ias	-6520
idg	-6521
itn	-6522
jon	-6523
kem	-6524
ket	-6525
kle	-6526
lec	-6527
lon	-6528
mal	-6529
mle	-6530
mly	-6531
mom	-6532
mon	-6533
mor	-6534
mou	-6535
mus	-6536
nag	-6537
nam	-6538
nan	-6539
nar	-6540
nat	-6541
nee	-6542
net	-6543
nge	-6544
nha	-6545
nim	-6546
nin	-6547
nke	-6548
nlo	-6549
non	-6550
nou	-6551
nre	-6552
nts	-6553
nus	-6554
nut	-6555
oad	-6556
oar	-6557
oat	-6558
oed	-6559
oin	-6560
oma	-6561
omf	-6562
omi	-6563
omo	-6564
ona	-6565
onc	-6566
onf	-6567
oni	-6568
onl	-6569
ono	-6570
onu	-6571
onv	-6572
oom	-6573
opc	-6574
opt	-6575
ora	-6576
orb	-6577
orc	-6578
ori	-6579
oss	-6580
oth	-6581
oto	-6582
ott	-6583
oub	-6584
ouc	-6585
oug	-6586
oul	-6587
oun	-6588
owa	-6589
owl	-6590
oys	-6591
par	-6592
pas	-6593
pet	-6594
pha	-6595
pin	-6596
ply	-6597
pol	-6598
pom	-6599
Can	-6600
Dan	-6601
ana	-6602
ani	-6603
ano	-6604
any	-6605
ban	-6606
bet	-6607
dan	-6608
dle	-6609
eav	-6610
etu	-6611
gen	-6612
hid	-6613
lan	-6614
lev	-6615
lid	-6616
lle	-6617
lli	-6618
lls	-6619
lug	-6620
oan	-6621
ois	-6622
pan	-6623
pon	-6624
poo	-6625
pot	-6626
pou	-6627
ppo	-6628
pre	-6629
pty	-6630
pus	-6631
qui	-6632
rad	-6633
rag	-6634
rai	-6635
ran	-6636
rap	-6637
raz	-6638
rea	-6639
reb	-6640
rec	-6641
reg	-6642
rei	-6643
rej	-6644
rel	-6645
rem	-6646
rev	-6647
rex	-6648
rig	-6649
rin	-6650
rip	-6651
rly	-6652
roc	-6653
rom	-6654
ros	-6655
rou	-6656
roz	-6657
rre	-6658
rri	-6659
rve	-6660
san	-6661
sar	-6662
sha	-6663
she	-6664
sin	-6665
som	-6666
son	-6667
sor	-6668
sou	-6669
spe	-6670
sta	-6671
sts	-6672
sur	-6673
sus	-6674
tan	-6675
tay	-6676
tes	-6677
the	-6678
tin	-6679
ton	-6680
tou	-6681
tre	-6682
tur	-6683
uar	-6684
uat	-6685
uch	-6686
udy	-6687
ued	-6688
uen	-6689
ugb	-6690
uin	-6691
ulg	-6692
uli	-6693
ulk	-6694
unc	-6695
unn	-6696
uns	-6697
ups	-6698
usi	-6699
Bus	-6700
Cas	-6701
For	-6702
Goo	-6703
His	-6704
Lis	-6705
ais	-6706
asa	-6707
asc	-6708
asi	-6709
ask	-6710
asp	-6711
asu	-6712
ays	-6713
cid	-6714
cis	-6715
eps	-6716
era	-6717
erb	-6718
ets	-6719
fis	-6720
giz	-6721
gun	-6722
isg	-6723
isl	-6724
izz	-6725
kes	-6726
las	-6727
lis	-6728
lse	-6729
nea	-6730
nit	-6731
ras	-6732
sas	-6733
sis	-6734
sle	-6735
tas	-6736
tee	-6737
tun	-6738
uas	-6739
ury	-6740
usp	-6741
utt	-6742
van	-6743
vas	-6744
vat	-6745
veg	-6746
ves	-6747
vou	-6748
was	-6749
wed	-6750
wer	-6751
whe	-6752
wim	-6753
win	-6754
wis	-6755
wom	-6756
wou	-6757
xed	-6758
xha	-6759
xin	-6760
yed	-6761
yin	-6762
yon	-6763
yor	-6764
yot	-6765
you	-6766
ypt	-6767
zin	-6768
▁AT	-6769
▁Ad	-6770
▁Ai	-6771
▁Ap	-6772
▁Ar	-6773
▁Au	-6774
▁Av	-6775
▁Ca	-6776
▁Da	-6777
▁De	-6778
▁Du	-6779
▁Em	-6780
▁Ev	-6781
▁Fe	-6782
▁GP	-6783
▁Hy	-6784
▁Ic	-6785
▁Ig	-6786
▁Ir	-6787
▁Ja	-6788
▁Ki	-6789
▁Kn	-6790
▁Mi	-6791
▁Mu	-6792
▁Op	-6793
▁PT	-6794
▁Pa	-6795
▁Pi	-6796
▁Sn	-6797
▁Ta	-6798
▁Te	-6799
Cow	-6800
Fet	-6801
Fis	-6802
Get	-6803
Kis	-6804
Set	-6805
bis	-6806
dat	-6807
etc	-6808
etl	-6809
etr	-6810
hoe	-6811
hoo	-6812
isi	-6813
isj	-6814
isu	-6815
kep	-6816
kit	-6817
met	-6818
oet	-6819
pis	-6820
poc	-6821
ris	-6822
tat	-6823
thy	-6824
tis	-6825
uis	-6826
vis	-6827
wee	-6828
xis	-6829
▁CP	-6830
▁Di	-6831
▁Hu	-6832
▁Ti	-6833
▁Tu	-6834
▁Wa	-6835
▁Wi	-6836
▁Wo	-6837
▁Wr	-6838
▁Ye	-6839
▁ah	-6840
▁ai	-6841
▁au	-6842
▁av	-6843
▁ce	-6844
▁ci	-6845
▁cu	-6846
▁cy	-6847
▁da	-6848
▁du	-6849
▁dy	-6850
▁eg	-6851
▁ei	-6852
▁et	-6853
▁fe	-6854
▁fu	-6855
▁ga	-6856
▁gh	-6857
▁iP	-6858
▁ic	-6859
▁ig	-6860
▁il	-6861
▁ji	-6862
▁lu	-6863
▁ly	-6864
▁ma	-6865
▁mi	-6866
▁ni	-6867
▁nu	-6868
▁od	-6869
▁ol	-6870
▁om	-6871
▁ou	-6872
▁pe	-6873
▁pi	-6874
▁ps	-6875
▁sq	-6876
▁ta	-6877
▁te	-6878
▁ti	-6879
▁tu	-6880
▁ug	-6881
▁wi	-6882
▁wo	-6883
▁ya	-6884
▁ye	-6885
▁yo	-6886
Make	-6887
Mone	-6888
Must	-6889
Rake	-6890
Ring	-6891
Sing	-6892
acku	-6893
agel	-6894
agic	-6895
ainf	-6896
aise	-6897
aive	-6898
alen	-6899
Mot	-6900
Rus	-6901
ami	-6902
coo	-6903
cow	-6904
doo	-6905
eac	-6906
fus	-6907
how	-6908
hus	-6909
imm	-6910
ita	-6911
kea	-6912
kee	-6913
kel	-6914
lee	-6915
loo	-6916
lud	-6917
lus	-6918
oop	-6919
owd	-6920
owe	-6921
owm	-6922
owp	-6923
pow	-6924
riv	-6925
roo	-6926
rus	-6927
tal	-6928
too	-6929
tow	-6930
usa	-6931
usl	-6932
uss	-6933
usu	-6934
usy	-6935
zoo	-6936
▁Sa	-6937
▁Si	-6938
▁Sl	-6939
▁Su	-6940
▁hu	-6941
alis	-6942
alit	-6943
amed	-6944
anad	-6945
anan	-6946
anas	-6947
anat	-6948
ands	-6949
anic	-6950
anin	-6951
anis	-6952
anke	-6953
aral	-6954
aran	-6955
aren	-6956
aric	-6957
arri	-6958
artb	-6959
arve	-6960
asan	-6961
ashe	-6962
asyg	-6963
atal	-6964
aten	-6965
auty	-6966
aved	-6967
aver	-6968
ayed	-6969
ayer	-6970
bbor	-6971
bers	-6972
bidd	-6973
bing	-6974
born	-6975
bush	-6976
chan	-6977
cher	-6978
chid	-6979
chis	-6980
chle	-6981
choo	-6982
cial	-6983
cile	-6984
cing	-6985
ckly	-6986
cold	-6987
come	-6988
coot	-6989
dant	-6990
dent	-6991
ders	-6992
dies	-6993
eace	-6994
ecif	-6995
eded	-6996
edin	-6997
edom	-6998
educ	-6999
Bot	-7000
Cat	-7001
Got	-7002
Mer	-7003
Per	-7004
atr	-7005
atu	-7006
bes	-7007
cat	-7008
chy	-7009
cor	-7010
ead	-7011
eer	-7012
enu	-7013
erf	-7014
eri	-7015
erl	-7016
ern	-7017
ery	-7018
esu	-7019
got	-7020
hot	-7021
hyd	-7022
itt	-7023
kat	-7024
lea	-7025
lot	-7026
mat	-7027
men	-7028
org	-7029
orr	-7030
pat	-7031
por	-7032
rav	-7033
rci	-7034
sec	-7035
ser	-7036
sly	-7037
tor	-7038
var	-7039
vie	-7040
vot	-7041
xer	-7042
yer	-7043
zar	-7044
▁Ac	-7045
▁Cu	-7046
▁hy	-7047
artn	-7048
atan	-7049
athe	-7050
atis	-7051
cove	-7052
ease	-7053
eers	-7054
eeze	-7055
eing	-7056
eled	-7057
elic	-7058
ener	-7059
enou	-7060
entf	-7061
enti	-7062
entr	-7063
ents	-7064
eous	-7065
eram	-7066
eran	-7067
erat	-7068
erce	-7069
erfe	-7070
erle	-7071
erly	-7072
erou	-7073
erse	-7074
erts	-7075
esid	-7076
etar	-7077
eted	-7078
eter	-7079
ethe	-7080
etho	-7081
etly	-7082
fegu	-7083
ffed	-7084
ffin	-7085
fing	-7086
food	-7087
fted	-7088
gave	-7089
ghte	-7090
ghts	-7091
ghty	-7092
ging	-7093
gist	-7094
gust	-7095
haic	-7096
hake	-7097
hall	-7098
hanc	-7099
Kid	-7100
Par	-7101
Ple	-7102
arg	-7103
arl	-7104
arm	-7105
aro	-7106
arv	-7107
cep	-7108
ene	-7109
eng	-7110
eni	-7111
enj	-7112
enn	-7113
ens	-7114
eny	-7115
epe	-7116
hle	-7117
hur	-7118
ida	-7119
idd	-7120
kid	-7121
lar	-7122
len	-7123
lep	-7124
lps	-7125
lum	-7126
mid	-7127
mst	-7128
nor	-7129
oid	-7130
orw	-7131
ptu	-7132
rid	-7133
sen	-7134
sid	-7135
tar	-7136
uid	-7137
war	-7138
amer	-7139
arat	-7140
eall	-7141
eize	-7142
epre	-7143
gree	-7144
hare	-7145
hatc	-7146
hate	-7147
haus	-7148
hday	-7149
hear	-7150
heat	-7151
heck	-7152
heel	-7153
heer	-7154
hell	-7155
here	-7156
hile	-7157
hill	-7158
hink	-7159
hock	-7160
hoes	-7161
hove	-7162
iant	-7163
iate	-7164
ices	-7165
icid	-7166
idan	-7167
iden	-7168
idic	-7169
ilep	-7170
imal	-7171
inat	-7172
inee	-7173
inge	-7174
ingl	-7175
ingu	-7176
inin	-7177
inis	-7178
inor	-7179
inus	-7180
isas	-7181
iser	-7182
isha	-7183
ishe	-7184
isit	-7185
isle	-7186
islo	-7187
itat	-7188
ithe	-7189
itic	-7190
ivor	-7191
keep	-7192
kely	-7193
kere	-7194
ldis	-7195
lect	-7196
leed	-7197
lend	-7198
leve	-7199
Bit	-7200
ams	-7201
ayb	-7202
chf	-7203
cit	-7204
gee	-7205
gle	-7206
hol	-7207
ila	-7208
jit	-7209
lay	-7210
leb	-7211
lew	-7212
mes	-7213
rit	-7214
rry	-7215
rst	-7216
ryb	-7217
ryt	-7218
sth	-7219
try	-7220
ule	-7221
urs	-7222
vit	-7223
xpe	-7224
zle	-7225
▁Cr	-7226
▁Ge	-7227
▁Gh	-7228
▁Gi	-7229
▁Gr	-7230
▁Ro	-7231
arle	-7232
ayor	-7233
cere	-7234
eked	-7235
etry	-7236
hisk	-7237
ldes	-7238
lear	-7239
lebr	-7240
lent	-7241
limb	-7242
link	-7243
list	-7244
live	-7245
llar	-7246
lled	-7247
ller	-7248
llet	-7249
llin	-7250
llit	-7251
llou	-7252
loat	-7253
lone	-7254
lown	-7255
mall	-7256
mble	-7257
ment	-7258
mera	-7259
mine	-7260
mire	-7261
mond	-7262
mpat	-7263
nded	-7264
ndle	-7265
ndre	-7266
nter	-7267
ntry	-7268
nuts	-7269
oday	-7270
oice	-7271
oing	-7272
oman	-7273
omat	-7274
omer	-7275
omet	-7276
omin	-7277
omis	-7278
omor	-7279
onel	-7280
oner	-7281
onin	-7282
onis	-7283
onor	-7284
onou	-7285
ooke	-7286
ooki	-7287
ootb	-7288
opan	-7289
ople	-7290
oran	-7291
orat	-7292
oron	-7293
orou	-7294
orre	-7295
orri	-7296
othe	-7297
otis	-7298
oure	-7299
Pit	-7300
adi	-7301
adl	-7302
adm	-7303
ckl	-7304
cks	-7305
ctu	-7306
eck	-7307
git	-7308
hit	-7309
hly	-7310
itc	-7311
lad	-7312
lun	-7313
mad	-7314
mit	-7315
nad	-7316
olo	-7317
pit	-7318
uic	-7319
wel	-7320
wit	-7321
wly	-7322
xit	-7323
▁La	-7324
▁Li	-7325
▁Lu	-7326
▁UF	-7327
▁ef	-7328
▁oy	-7329
anes	-7330
cket	-7331
ckle	-7332
crew	-7333
eone	-7334
eved	-7335
gies	-7336
hone	-7337
imis	-7338
indy	-7339
itan	-7340
itis	-7341
nder	-7342
omes	-7343
ones	-7344
onut	-7345
oons	-7346
outd	-7347
owar	-7348
owed	-7349
ower	-7350
owni	-7351
ownl	-7352
peri	-7353
pied	-7354
pile	-7355
ping	-7356
pist	-7357
ppea	-7358
ppen	-7359
pper	-7360
pple	-7361
ppor	-7362
ptim	-7363
qual	-7364
rack	-7365
rain	-7366
rant	-7367
rass	-7368
rave	-7369
real	-7370
rean	-7371
rear	-7372
reck	-7373
reep	-7374
rein	-7375
rell	-7376
renc	-7377
rend	-7378
rens	-7379
resh	-7380
rets	-7381
reve	-7382
rict	-7383
righ	-7384
rike	-7385
ripp	-7386
rise	-7387
rois	-7388
rook	-7389
rown	-7390
ryon	-7391
sant	-7392
sary	-7393
sele	-7394
sely	-7395
seve	-7396
sing	-7397
slex	-7398
sser	-7399
Bee	-7400
Fee	-7401
Pee	-7402
Pri	-7403
cri	-7404
des	-7405
eec	-7406
eem	-7407
eez	-7408
eme	-7409
esd	-7410
esi	-7411
esk	-7412
esp	-7413
fee	-7414
fes	-7415
fra	-7416
hri	-7417
icc	-7418
ici	-7419
lri	-7420
nde	-7421
nic	-7422
oes	-7423
pee	-7424
pri	-7425
rge	-7426
rib	-7427
ric	-7428
rif	-7429
riz	-7430
tri	-7431
urg	-7432
wes	-7433
xes	-7434
▁Fa	-7435
▁es	-7436
▁ey	-7437
▁um	-7438
atul	-7439
eere	-7440
eser	-7441
etri	-7442
gine	-7443
ilor	-7444
ndly	-7445
omeb	-7446
omem	-7447
omew	-7448
raws	-7449
rich	-7450
rick	-7451
rien	-7452
riou	-7453
some	-7454
ssis	-7455
stat	-7456
sted	-7457
sych	-7458
tain	-7459
take	-7460
terr	-7461
tive	-7462
uall	-7463
uent	-7464
uess	-7465
uest	-7466
ugby	-7467
uide	-7468
uing	-7469
ully	-7470
ulou	-7471
ults	-7472
umid	-7473
unat	-7474
unct	-7475
uner	-7476
unit	-7477
unte	-7478
ural	-7479
uris	-7480
urit	-7481
urnt	-7482
urou	-7483
urre	-7484
ushe	-7485
usin	-7486
uspe	-7487
ustn	-7488
ustw	-7489
uted	-7490
utie	-7491
uton	-7492
vain	-7493
vere	-7494
vest	-7495
vice	-7496
vive	-7497
wake	-7498
wash	-7499
Run	-7500
ald	-7501
cul	-7502
dop	-7503
dun	-7504
esq	-7505
gal	-7506
ims	-7507
jes	-7508
lam	-7509
mun	-7510
ost	-7511
pra	-7512
rac	-7513
rau	-7514
run	-7515
tim	-7516
unb	-7517
ung	-7518
▁Ba	-7519
▁Bi	-7520
Over	-7521
alas	-7522
alot	-7523
alou	-7524
ases	-7525
bles	-7526
each	-7527
eral	-7528
etes	-7529
etim	-7530
hair	-7531
hees	-7532
imid	-7533
isun	-7534
kens	-7535
lack	-7536
lood	-7537
lved	-7538
owes	-7539
rowd	-7540
sect	-7541
unis	-7542
wful	-7543
xist	-7544
yers	-7545
yone	-7546
yzed	-7547
zzle	-7548
▁Ara	-7549
▁Bee	-7550
▁Bew	-7551
▁Bir	-7552
▁Bit	-7553
▁Ble	-7554
▁Bra	-7555
▁Bre	-7556
▁Bur	-7557
▁Cal	-7558
▁Car	-7559
▁Cas	-7560
▁Cat	-7561
▁Cha	-7562
▁Cle	-7563
▁Clo	-7564
▁Coo	-7565
▁Cop	-7566
▁Cou	-7567
▁Cow	-7568
▁Cri	-7569
▁Cro	-7570
▁Cry	-7571
▁Dan	-7572
▁Des	-7573
▁Din	-7574
▁Dra	-7575
▁Dre	-7576
▁Dri	-7577
▁Dud	-7578
▁Dut	-7579
▁Eas	-7580
▁Eve	-7581
▁Exc	-7582
▁Fas	-7583
▁Fee	-7584
▁Fil	-7585
▁Fis	-7586
▁Gar	-7587
▁Gho	-7588
▁Goo	-7589
▁Gra	-7590
▁Gre	-7591
▁Guy	-7592
▁Han	-7593
▁Hea	-7594
▁Hel	-7595
▁Hid	-7596
▁Hon	-7597
▁Jap	-7598
▁Jes	-7599
Our	-7600
bur	-7601
ddy	-7602
eur	-7603
ghb	-7604
hoi	-7605
hop	-7606
icn	-7607
lag	-7608
qua	-7609
urc	-7610
urf	-7611
urp	-7612
urr	-7613
urv	-7614
▁ea	-7615
▁em	-7616
▁ki	-7617
▁ok	-7618
▁op	-7619
Just	-7620
aken	-7621
cake	-7622
cred	-7623
eful	-7624
epen	-7625
etur	-7626
just	-7627
nake	-7628
ooks	-7629
outs	-7630
rake	-7631
redi	-7632
rust	-7633
urat	-7634
urri	-7635
urus	-7636
usti	-7637
ustl	-7638
usts	-7639
vers	-7640
▁Dog	-7641
▁Hur	-7642
▁Job	-7643
▁Kee	-7644
▁Kno	-7645
▁Lar	-7646
▁Len	-7647
▁Lis	-7648
▁Loo	-7649
▁Lun	-7650
▁Nat	-7651
▁Nic	-7652
▁Oct	-7653
▁Pee	-7654
▁Ple	-7655
▁Pre	-7656
▁Rec	-7657
▁Rel	-7658
▁Rem	-7659
▁Res	-7660
▁Sad	-7661
▁Sch	-7662
▁Sen	-7663
▁Ser	-7664
▁Sle	-7665
▁Som	-7666
▁Sor	-7667
▁Sou	-7668
▁Sti	-7669
▁Str	-7670
▁Sur	-7671
▁Tal	-7672
▁Tas	-7673
▁Ter	-7674
▁Tha	-7675
▁Tho	-7676
▁Tim	-7677
▁Tou	-7678
▁Tur	-7679
▁Wal	-7680
▁Wan	-7681
▁Wat	-7682
▁Wel	-7683
▁Wha	-7684
▁Wis	-7685
▁Wom	-7686
▁Wor	-7687
▁Wou	-7688
▁acn	-7689
▁ado	-7690
▁ahe	-7691
▁als	-7692
▁alw	-7693
▁ama	-7694
▁amm	-7695
▁ang	-7696
▁ano	-7697
▁apo	-7698
▁arg	-7699
Nic	-7700
bst	-7701
dea	-7702
eab	-7703
eam	-7704
hic	-7705
nly	-7706
nst	-7707
opp	-7708
ops	-7709
opu	-7710
pea	-7711
pic	-7712
ppi	-7713
rop	-7714
sic	-7715
tic	-7716
top	-7717
uea	-7718
vic	-7719
vol	-7720
wic	-7721
▁Fi	-7722
▁Ma	-7723
▁Mo	-7724
Fant	-7725
adic	-7726
arty	-7727
bout	-7728
dous	-7729
gant	-7730
hoic	-7731
ican	-7732
icat	-7733
igot	-7734
iven	-7735
long	-7736
nant	-7737
ntal	-7738
onic	-7739
outl	-7740
quat	-7741
ques	-7742
stan	-7743
stin	-7744
stle	-7745
stoo	-7746
tant	-7747
▁Fet	-7748
▁Lea	-7749
▁Mar	-7750
▁Mer	-7751
▁Ste	-7752
▁asp	-7753
▁awa	-7754
▁bac	-7755
▁bas	-7756
▁bec	-7757
▁bef	-7758
▁beh	-7759
▁bey	-7760
▁bis	-7761
▁bla	-7762
▁blu	-7763
▁bom	-7764
▁bon	-7765
▁boo	-7766
▁bre	-7767
▁bud	-7768
▁bun	-7769
▁bur	-7770
▁but	-7771
▁caf	-7772
▁cag	-7773
▁cam	-7774
▁cap	-7775
▁cas	-7776
▁cau	-7777
▁cav	-7778
▁cer	-7779
▁cin	-7780
▁cla	-7781
▁col	-7782
▁cor	-7783
▁cri	-7784
▁cul	-7785
▁dam	-7786
▁dar	-7787
▁dat	-7788
▁dea	-7789
▁ded	-7790
▁dee	-7791
▁dia	-7792
▁dic	-7793
▁dif	-7794
▁dig	-7795
▁din	-7796
▁dir	-7797
▁doa	-7798
▁doc	-7799
Rel	-7800
bly	-7801
cht	-7802
dly	-7803
ely	-7804
epl	-7805
izu	-7806
kly	-7807
ldi	-7808
ldn	-7809
nch	-7810
ndl	-7811
nsw	-7812
raf	-7813
rse	-7814
sel	-7815
sew	-7816
ssa	-7817
uly	-7818
utr	-7819
ych	-7820
▁ja	-7821
Fill	-7822
Kill	-7823
adly	-7824
atro	-7825
eive	-7826
hess	-7827
hive	-7828
hout	-7829
indl	-7830
iver	-7831
lded	-7832
ldre	-7833
ongr	-7834
orch	-7835
orse	-7836
outg	-7837
outr	-7838
outw	-7839
owly	-7840
pent	-7841
ppro	-7842
reig	-7843
tent	-7844
uele	-7845
vely	-7846
▁Beg	-7847
▁Nob	-7848
▁Sig	-7849
▁doo	-7850
▁dop	-7851
▁dow	-7852
▁doz	-7853
▁dre	-7854
▁dru	-7855
▁eld	-7856
▁ele	-7857
▁exa	-7858
▁fal	-7859
▁fea	-7860
▁fee	-7861
▁fet	-7862
▁fir	-7863
▁fis	-7864
▁foo	-7865
▁fou	-7866
▁fre	-7867
▁fru	-7868
▁fry	-7869
▁fus	-7870
▁gat	-7871
▁gho	-7872
▁gid	-7873
▁gig	-7874
▁goa	-7875
▁goe	-7876
▁gol	-7877
▁goo	-7878
▁gor	-7879
▁gos	-7880
▁gre	-7881
▁gri	-7882
▁gut	-7883
▁hab	-7884
▁hai	-7885
▁hal	-7886
▁han	-7887
▁hap	-7888
▁hav	-7889
▁haz	-7890
▁hea	-7891
▁hec	-7892
▁hee	-7893
▁hel	-7894
▁hen	-7895
▁hes	-7896
▁hin	-7897
▁hog	-7898
▁hom	-7899
ape	-7900
dut	-7901
ela	-7902
elt	-7903
hut	-7904
ipp	-7905
irc	-7906
irs	-7907
mme	-7908
nda	-7909
ppl	-7910
ppr	-7911
pul	-7912
rak	-7913
ram	-7914
rut	-7915
ssy	-7916
sul	-7917
tir	-7918
uls	-7919
upp	-7920
utu	-7921
vir	-7922
vul	-7923
▁Ne	-7924
▁Pe	-7925
▁Pr	-7926
▁Pu	-7927
amin	-7928
appy	-7929
hame	-7930
happ	-7931
hopp	-7932
icul	-7933
ilen	-7934
inut	-7935
irin	-7936
irit	-7937
lice	-7938
lped	-7939
lple	-7940
nate	-7941
obey	-7942
opul	-7943
orex	-7944
part	-7945
pply	-7946
ppre	-7947
rapp	-7948
raud	-7949
roan	-7950
utis	-7951
▁Gir	-7952
▁Par	-7953
▁Pas	-7954
▁Pit	-7955
▁Pou	-7956
▁Pus	-7957
▁Sme	-7958
▁ann	-7959
▁ans	-7960
▁bir	-7961
▁dro	-7962
▁dud	-7963
▁dut	-7964
▁gir	-7965
▁hir	-7966
▁hoo	-7967
▁hop	-7968
▁hou	-7969
▁hus	-7970
▁ick	-7971
▁ind	-7972
▁ine	-7973
▁inn	-7974
▁iso	-7975
▁iss	-7976
▁itc	-7977
▁jer	-7978
▁jok	-7979
▁jud	-7980
▁kar	-7981
▁kin	-7982
▁kis	-7983
▁kit	-7984
▁kne	-7985
▁kni	-7986
▁kno	-7987
▁lan	-7988
▁lat	-7989
▁lau	-7990
▁laz	-7991
▁len	-7992
▁les	-7993
▁leu	-7994
▁lif	-7995
▁lig	-7996
▁lik	-7997
▁lim	-7998
▁lin	-7999
Fil	-8000
bro	-8001
ctf	-8002
cti	-8003
eli	-8004
feg	-8005
hro	-8006
kip	-8007
pro	-8008
rob	-8009
rof	-8010
rov	-8011
rro	-8012
ssi	-8013
ssu	-8014
tro	-8015
▁Eg	-8016
Food	-8017
addy	-8018
ains	-8019
aint	-8020
ames	-8021
aoke	-8022
asts	-8023
bler	-8024
ctle	-8025
eels	-8026
elon	-8027
fein	-8028
fely	-8029
feur	-8030
hful	-8031
iful	-8032
lain	-8033
nack	-8034
olit	-8035
oodb	-8036
owel	-8037
pous	-8038
rage	-8039
rept	-8040
rice	-8041
roes	-8042
roic	-8043
sful	-8044
shed	-8045
tack	-8046
tful	-8047
ucke	-8048
verd	-8049
vert	-8050
verw	-8051
weep	-8052
▁Pro	-8053
▁eff	-8054
▁fro	-8055
▁lis	-8056
▁liv	-8057
▁lon	-8058
▁lou	-8059
▁lov	-8060
▁loy	-8061
▁lun	-8062
▁mar	-8063
▁mea	-8064
▁med	-8065
▁mee	-8066
▁mem	-8067
▁mes	-8068
▁mic	-8069
▁mid	-8070
▁mil	-8071
▁mon	-8072
▁moo	-8073
▁mot	-8074
▁mou	-8075
▁mus	-8076
▁mys	-8077
▁myt	-8078
▁nan	-8079
▁nas	-8080
▁nat	-8081
▁nau	-8082
▁nec	-8083
▁neg	-8084
▁nei	-8085
▁neu	-8086
▁nex	-8087
▁nic	-8088
▁nob	-8089
▁non	-8090
▁nor	-8091
▁nos	-8092
▁nur	-8093
▁obv	-8094
▁onc	-8095
▁onl	-8096
▁ont	-8097
▁org	-8098
▁ove	-8099
abb	-8100
cce	-8101
cei	-8102
cqu	-8103
die	-8104
equ	-8105
mil	-8106
ndm	-8107
nds	-8108
oil	-8109
oqu	-8110
rce	-8111
rug	-8112
sil	-8113
sue	-8114
uil	-8115
▁Ko	-8116
alks	-8117
eets	-8118
esqu	-8119
gues	-8120
huck	-8121
ilot	-8122
imil	-8123
inks	-8124
insu	-8125
isag	-8126
mous	-8127
onta	-8128
oved	-8129
owns	-8130
ownt	-8131
pare	-8132
quar	-8133
quas	-8134
quea	-8135
quin	-8136
quit	-8137
rink	-8138
roce	-8139
▁Fre	-8140
▁Kid	-8141
▁Kis	-8142
▁ada	-8143
▁ath	-8144
▁bil	-8145
▁dip	-8146
▁div	-8147
▁diz	-8148
▁joc	-8149
▁lam	-8150
▁oft	-8151
▁pad	-8152
▁pas	-8153
▁pec	-8154
▁pim	-8155
▁pin	-8156
▁pit	-8157
▁piz	-8158
▁ple	-8159
▁pom	-8160
▁pra	-8161
▁pus	-8162
▁ras	-8163
▁reg	-8164
▁rem	-8165
▁ren	-8166
▁rew	-8167
▁rif	-8168
▁ris	-8169
▁roo	-8170
▁rop	-8171
▁rou	-8172
▁rum	-8173
▁rus	-8174
▁saf	-8175
▁sai	-8176
▁sal	-8177
▁sam	-8178
▁san	-8179
▁sas	-8180
▁sau	-8181
▁sav	-8182
▁sch	-8183
▁sco	-8184
▁sel	-8185
▁ser	-8186
▁shi	-8187
▁shu	-8188
▁sic	-8189
▁sid	-8190
▁sig	-8191
▁sin	-8192
▁ske	-8193
▁sla	-8194
▁sle	-8195
▁sme	-8196
▁smi	-8197
▁soa	-8198
▁sob	-8199
amm	-8200
cam	-8201
mod	-8202
pam	-8203
sig	-8204
wam	-8205
xam	-8206
ybo	-8207
amis	-8208
amon	-8209
epra	-8210
esig	-8211
fice	-8212
fter	-8213
heep	-8214
ickl	-8215
iger	-8216
ighe	-8217
indf	-8218
inds	-8219
jong	-8220
lind	-8221
ndam	-8222
ongs	-8223
ongu	-8224
reez	-8225
rong	-8226
terf	-8227
uice	-8228
wice	-8229
wind	-8230
▁Mam	-8231
▁Pig	-8232
▁amn	-8233
▁bum	-8234
▁clo	-8235
▁ene	-8236
▁enj	-8237
▁env	-8238
▁mam	-8239
▁mod	-8240
▁que	-8241
▁sei	-8242
▁sep	-8243
▁sew	-8244
▁soc	-8245
▁sof	-8246
▁sor	-8247
▁sou	-8248
▁spa	-8249
▁ste	-8250
▁sti	-8251
▁sto	-8252
▁suf	-8253
▁sum	-8254
▁sup	-8255
▁swo	-8256
▁tas	-8257
▁tat	-8258
▁ter	-8259
▁tes	-8260
▁tha	-8261
▁tho	-8262
▁thu	-8263
▁tid	-8264
▁tis	-8265
▁tod	-8266
▁toe	-8267
▁tof	-8268
▁tog	-8269
▁toi	-8270
▁tol	-8271
▁tre	-8272
▁tun	-8273
▁tur	-8274
▁umb	-8275
▁unn	-8276
▁unp	-8277
▁upb	-8278
▁ups	-8279
▁urg	-8280
▁vac	-8281
▁vag	-8282
▁var	-8283
▁veg	-8284
▁vir	-8285
▁wal	-8286
▁wan	-8287
▁wea	-8288
▁wee	-8289
▁wei	-8290
▁wel	-8291
▁wen	-8292
▁wep	-8293
▁wha	-8294
▁whi	-8295
▁wid	-8296
▁wis	-8297
▁wou	-8298
Every	-8299
Jum	-8300
aff	-8301
cap	-8302
hum	-8303
ium	-8304
plo	-8305
rum	-8306
umm	-8307
arti	-8308
artl	-8309
arts	-8310
axed	-8311
boar	-8312
bove	-8313
cide	-8314
cist	-8315
ears	-8316
istm	-8317
kate	-8318
late	-8319
load	-8320
luck	-8321
oist	-8322
oyed	-8323
ples	-8324
sist	-8325
ssum	-8326
tist	-8327
uckl	-8328
uman	-8329
umil	-8330
utum	-8331
vide	-8332
▁Hum	-8333
▁Spe	-8334
▁Sum	-8335
▁blo	-8336
▁deh	-8337
▁dej	-8338
▁dum	-8339
▁elo	-8340
▁jug	-8341
▁jum	-8342
▁num	-8343
▁sip	-8344
▁slo	-8345
▁tum	-8346
acked	-8347
adies	-8348
ading	-8349
aging	-8350
ainst	-8351
aited	-8352
alent	-8353
aling	-8354
alist	-8355
alked	-8356
alled	-8357
aller	-8358
almed	-8359
alous	-8360
amble	-8361
amily	-8362
amins	-8363
amous	-8364
anick	-8365
ankru	-8366
antas	-8367
anted	-8368
antis	-8369
arant	-8370
aring	-8371
armer	-8372
arted	-8373
arved	-8374
asant	-8375
ashim	-8376
asing	-8377
asses	-8378
astle	-8379
ation	-8380
ative	-8381
atter	-8382
aturn	-8383
awned	-8384
aying	-8385
board	-8386
cated	-8387
ceive	-8388
celed	-8389
centr	-8390
chful	-8391
ching	-8392
ciate	-8393
cised	-8394
cking	-8395
cover	-8396
ctful	-8397
ctice	-8398
cting	-8399
lap	-8400
lue	-8401
pta	-8402
pti	-8403
upt	-8404
amag	-8405
aped	-8406
aste	-8407
bish	-8408
dish	-8409
elie	-8410
ello	-8411
elly	-8412
emon	-8413
fish	-8414
ieve	-8415
last	-8416
mies	-8417
pell	-8418
pted	-8419
ptic	-8420
ptom	-8421
razy	-8422
vast	-8423
▁Jum	-8424
▁arc	-8425
▁bog	-8426
▁coa	-8427
▁lap	-8428
▁nie	-8429
▁thi	-8430
▁una	-8431
▁unb	-8432
▁unc	-8433
▁une	-8434
▁unh	-8435
▁unk	-8436
▁unm	-8437
▁unw	-8438
almly	-8439
astat	-8440
astes	-8441
crite	-8442
ctive	-8443
ctors	-8444
dates	-8445
dding	-8446
dered	-8447
dhead	-8448
dling	-8449
dosed	-8450
dying	-8451
eaves	-8452
ecial	-8453
edies	-8454
ednes	-8455
eeing	-8456
eeply	-8457
efend	-8458
eight	-8459
eleas	-8460
eling	-8461
ellow	-8462
endly	-8463
ening	-8464
entic	-8465
entis	-8466
entle	-8467
enure	-8468
eping	-8469
erant	-8470
erate	-8471
ering	-8472
erver	-8473
escap	-8474
escri	-8475
eside	-8476
esser	-8477
ester	-8478
estro	-8479
etain	-8480
etful	-8481
ether	-8482
etime	-8483
eting	-8484
etter	-8485
ettle	-8486
eturn	-8487
feine	-8488
fered	-8489
feren	-8490
ffeur	-8491
fford	-8492
fused	-8493
fying	-8494
getar	-8495
ghing	-8496
ghted	-8497
ghten	-8498
ghter	-8499
dge	-8500
fts	-8501
gge	-8502
asta	-8503
hang	-8504
olut	-8505
ools	-8506
raft	-8507
urge	-8508
wiss	-8509
wned	-8510
zles	-8511
▁acc	-8512
▁fak	-8513
▁lef	-8514
▁nag	-8515
▁nak	-8516
▁sca	-8517
▁spe	-8518
▁spi	-8519
▁spl	-8520
▁spr	-8521
▁sug	-8522
anned	-8523
aping	-8524
asted	-8525
auded	-8526
eated	-8527
eless	-8528
emies	-8529
eners	-8530
erned	-8531
esday	-8532
etail	-8533
geous	-8534
gered	-8535
gover	-8536
hance	-8537
hanks	-8538
happy	-8539
hared	-8540
hatch	-8541
hated	-8542
hates	-8543
haust	-8544
hedul	-8545
hical	-8546
hless	-8547
hoice	-8548
holic	-8549
hould	-8550
iated	-8551
icate	-8552
icide	-8553
ickle	-8554
ickly	-8555
idays	-8556
iding	-8557
ietly	-8558
iffed	-8559
ifted	-8560
igers	-8561
ighte	-8562
ights	-8563
iking	-8564
ilent	-8565
iless	-8566
illed	-8567
iller	-8568
iming	-8569
imist	-8570
imped	-8571
inall	-8572
inded	-8573
indow	-8574
ineer	-8575
inged	-8576
inger	-8577
ingin	-8578
ingle	-8579
inick	-8580
inish	-8581
inked	-8582
inter	-8583
ioned	-8584
isled	-8585
issed	-8586
istor	-8587
istur	-8588
itant	-8589
ither	-8590
itive	-8591
itter	-8592
izard	-8593
joyed	-8594
kened	-8595
kered	-8596
ldier	-8597
ldish	-8598
leasu	-8599
akl	-8600
aps	-8601
fug	-8602
gag	-8603
nob	-8604
noc	-8605
noy	-8606
nyt	-8607
tag	-8608
ugs	-8609
▁va	-8610
ager	-8611
agre	-8612
anag	-8613
andr	-8614
apes	-8615
band	-8616
enda	-8617
ends	-8618
fend	-8619
fled	-8620
fres	-8621
hite	-8622
lfer	-8623
lite	-8624
mand	-8625
mend	-8626
mmer	-8627
rand	-8628
tane	-8629
tend	-8630
tled	-8631
ugee	-8632
vise	-8633
zeal	-8634
zled	-8635
▁Cap	-8636
▁Pap	-8637
▁Sug	-8638
▁bak	-8639
▁fac	-8640
▁fav	-8641
▁mak	-8642
▁pla	-8643
▁vit	-8644
agree	-8645
ankly	-8646
epend	-8647
leeps	-8648
leepy	-8649
lever	-8650
light	-8651
likes	-8652
llied	-8653
lling	-8654
llous	-8655
loser	-8656
lowed	-8657
lower	-8658
lowly	-8659
lping	-8660
lying	-8661
mells	-8662
mired	-8663
mless	-8664
monds	-8665
ndled	-8666
nical	-8667
night	-8668
nored	-8669
nores	-8670
nough	-8671
nting	-8672
nyone	-8673
offee	-8674
oiled	-8675
olded	-8676
olice	-8677
omant	-8678
omber	-8679
omebo	-8680
omele	-8681
oment	-8682
omers	-8683
oming	-8684
oncho	-8685
onger	-8686
oning	-8687
onked	-8688
onous	-8689
onsul	-8690
onvin	-8691
oodby	-8692
ooked	-8693
ookie	-8694
ooled	-8695
ooped	-8696
ooper	-8697
oorly	-8698
orced	-8699
agg	-8700
agn	-8701
ago	-8702
awk	-8703
axi	-8704
cif	-8705
ffl	-8706
ffo	-8707
lax	-8708
mag	-8709
ney	-8710
oax	-8711
off	-8712
olt	-8713
sol	-8714
agin	-8715
asag	-8716
axes	-8717
esti	-8718
ests	-8719
ffen	-8720
ffle	-8721
ffor	-8722
gest	-8723
isks	-8724
loor	-8725
mile	-8726
olet	-8727
olid	-8728
olin	-8729
olun	-8730
oors	-8731
▁obj	-8732
▁pru	-8733
arked	-8734
assic	-8735
dious	-8736
ested	-8737
ffing	-8738
hoked	-8739
igher	-8740
iving	-8741
ldest	-8742
oking	-8743
order	-8744
orget	-8745
oring	-8746
orize	-8747
orked	-8748
orons	-8749
otall	-8750
oting	-8751
otion	-8752
ouble	-8753
ouldn	-8754
ounds	-8755
ource	-8756
oured	-8757
ousin	-8758
ously	-8759
outed	-8760
owing	-8761
owled	-8762
owned	-8763
owner	-8764
ownst	-8765
pared	-8766
pened	-8767
pples	-8768
ppose	-8769
pring	-8770
prise	-8771
ptain	-8772
pting	-8773
ptive	-8774
quash	-8775
quate	-8776
queak	-8777
quent	-8778
quick	-8779
raged	-8780
raked	-8781
ramed	-8782
rapes	-8783
rated	-8784
rawer	-8785
reath	-8786
redic	-8787
reful	-8788
reled	-8789
rible	-8790
riend	-8791
riest	-8792
rious	-8793
river	-8794
roble	-8795
roiss	-8796
roken	-8797
rough	-8798
round	-8799
aud	-8800
eiz	-8801
hiz	-8802
rud	-8803
siz	-8804
udg	-8805
ype	-8806
aliz	-8807
aniz	-8808
iber	-8809
iren	-8810
izar	-8811
lour	-8812
lowp	-8813
lted	-8814
mmed	-8815
moke	-8816
ober	-8817
oriz	-8818
ortc	-8819
ours	-8820
peck	-8821
pens	-8822
pise	-8823
tles	-8824
turn	-8825
uard	-8826
uddy	-8827
udic	-8828
urns	-8829
weet	-8830
xted	-8831
▁Rej	-8832
▁fog	-8833
▁imb	-8834
▁obe	-8835
▁rob	-8836
▁ros	-8837
▁rud	-8838
ammed	-8839
anger	-8840
arber	-8841
asure	-8842
brate	-8843
cused	-8844
erang	-8845
inute	-8846
ldren	-8847
omise	-8848
orang	-8849
orted	-8850
oward	-8851
rowed	-8852
ryone	-8853
selve	-8854
sever	-8855
shing	-8856
sight	-8857
ssert	-8858
ssing	-8859
ssist	-8860
ssive	-8861
stair	-8862
stand	-8863
sting	-8864
stood	-8865
sured	-8866
table	-8867
terfe	-8868
terno	-8869
terve	-8870
tired	-8871
tless	-8872
tling	-8873
treat	-8874
uated	-8875
ubbed	-8876
udent	-8877
uding	-8878
udish	-8879
ulgar	-8880
umble	-8881
uming	-8882
unate	-8883
unday	-8884
ungry	-8885
unish	-8886
unned	-8887
unset	-8888
untee	-8889
upied	-8890
urate	-8891
uried	-8892
urist	-8893
urous	-8894
urple	-8895
uslim	-8896
ustic	-8897
utile	-8898
utist	-8899
bbl	-8900
emy	-8901
oem	-8902
ubb	-8903
ankr	-8904
arns	-8905
bbit	-8906
cien	-8907
cort	-8908
died	-8909
eaks	-8910
emin	-8911
gize	-8912
lies	-8913
lunk	-8914
lush	-8915
memb	-8916
neak	-8917
oyot	-8918
peak	-8919
port	-8920
rush	-8921
tion	-8922
vies	-8923
▁Asi	-8924
▁Mem	-8925
▁chi	-8926
▁chu	-8927
▁daw	-8928
▁ide	-8929
▁idi	-8930
▁sni	-8931
▁tem	-8932
abbed	-8933
ciful	-8934
cited	-8935
ction	-8936
djust	-8937
edian	-8938
enied	-8939
essor	-8940
iased	-8941
ities	-8942
ollow	-8943
onday	-8944
orthy	-8945
outhp	-8946
pport	-8947
ption	-8948
ually	-8949
udged	-8950
urday	-8951
ushro	-8952
utter	-8953
uying	-8954
vable	-8955
vated	-8956
veget	-8957
veris	-8958
veryb	-8959
veryt	-8960
vised	-8961
vited	-8962
wking	-8963
wning	-8964
xible	-8965
xious	-8966
ybody	-8967
yched	-8968
ypnot	-8969
zling	-8970
▁Amer	-8971
▁Ball	-8972
▁Bear	-8973
▁Beha	-8974
▁Bird	-8975
▁Boat	-8976
▁Bost	-8977
▁Bott	-8978
▁Canc	-8979
▁Chan	-8980
▁Chic	-8981
▁Choo	-8982
▁Crow	-8983
▁Dest	-8984
▁Empt	-8985
▁Exam	-8986
▁Exha	-8987
▁Fant	-8988
▁Fast	-8989
▁Forg	-8990
▁Fren	-8991
▁Gard	-8992
▁Hall	-8993
▁Hell	-8994
▁Kore	-8995
▁Lear	-8996
▁List	-8997
▁Mayb	-8998
▁Mone	-8999
ggs	-9000
ngl	-9001
chel	-9002
fair	-9003
hily	-9004
hirl	-9005
hrow	-9006
njoy	-9007
pair	-9008
ragg	-9009
rogg	-9010
sure	-9011
uppy	-9012
vegg	-9013
vent	-9014
wers	-9015
▁Uns	-9016
▁Unt	-9017
▁abh	-9018
▁cli	-9019
▁clu	-9020
▁cru	-9021
▁pos	-9022
arrow	-9023
btful	-9024
erson	-9025
ggest	-9026
heers	-9027
ipped	-9028
meram	-9029
nging	-9030
oners	-9031
reign	-9032
spect	-9033
sters	-9034
tered	-9035
ullet	-9036
wered	-9037
▁Arab	-9038
▁Girl	-9039
▁Nobo	-9040
▁Pard	-9041
▁Reme	-9042
▁Remo	-9043
▁Repl	-9044
▁Shar	-9045
▁Shee	-9046
▁Shoo	-9047
▁Span	-9048
▁Stan	-9049
▁Star	-9050
▁Than	-9051
▁Thei	-9052
▁Thes	-9053
▁Wall	-9054
▁Welc	-9055
▁Word	-9056
▁acce	-9057
▁acro	-9058
▁adie	-9059
▁adop	-9060
▁adul	-9061
▁afra	-9062
▁agon	-9063
▁agre	-9064
▁aler	-9065
▁almo	-9066
▁alon	-9067
▁alou	-9068
▁alre	-9069
▁alri	-9070
▁amus	-9071
▁anim	-9072
▁anot	-9073
▁anyt	-9074
▁anyw	-9075
▁arre	-9076
▁arri	-9077
▁arro	-9078
▁asha	-9079
▁asle	-9080
▁awes	-9081
▁bake	-9082
▁bare	-9083
▁beak	-9084
▁bean	-9085
▁bedt	-9086
▁begg	-9087
▁beha	-9088
▁betr	-9089
▁blam	-9090
▁blan	-9091
▁blon	-9092
▁blus	-9093
▁bott	-9094
▁brac	-9095
▁bree	-9096
▁brie	-9097
▁canc	-9098
▁cand	-9099
aby	-9100
bey	-9101
eys	-9102
faz	-9103
syc	-9104
arby	-9105
asoc	-9106
bile	-9107
foot	-9108
gued	-9109
hize	-9110
ikes	-9111
lass	-9112
nert	-9113
pert	-9114
rote	-9115
sthm	-9116
▁Exp	-9117
▁bru	-9118
▁daz	-9119
▁gaz	-9120
▁jaz	-9121
▁yog	-9122
alize	-9123
amond	-9124
azing	-9125
bling	-9126
enced	-9127
ensit	-9128
gling	-9129
honed	-9130
inced	-9131
jured	-9132
mally	-9133
onded	-9134
pects	-9135
ptile	-9136
swers	-9137
tured	-9138
zzled	-9139
▁Anyt	-9140
▁Expe	-9141
▁Tran	-9142
▁cann	-9143
▁carr	-9144
▁cart	-9145
▁catt	-9146
▁caus	-9147
▁chas	-9148
▁chau	-9149
▁chea	-9150
▁chee	-9151
▁chic	-9152
▁choo	-9153
▁chur	-9154
▁clas	-9155
▁clic	-9156
▁clim	-9157
▁clou	-9158
▁coff	-9159
▁coll	-9160
▁comf	-9161
▁conc	-9162
▁coug	-9163
▁cour	-9164
▁cove	-9165
▁cras	-9166
▁cred	-9167
▁crow	-9168
▁crud	-9169
▁crus	-9170
▁dayd	-9171
▁deat	-9172
▁decl	-9173
▁dehy	-9174
▁dest	-9175
▁diab	-9176
▁diar	-9177
▁diff	-9178
▁digg	-9179
▁dipl	-9180
▁dire	-9181
▁disa	-9182
▁disc	-9183
▁disl	-9184
▁dism	-9185
▁diso	-9186
▁doct	-9187
▁doom	-9188
▁dran	-9189
▁driz	-9190
▁drow	-9191
▁drug	-9192
▁drun	-9193
▁earl	-9194
▁enou	-9195
▁exag	-9196
▁expe	-9197
▁expl	-9198
▁fait	-9199
pla	-9200
cuit	-9201
cups	-9202
etup	-9203
ggpl	-9204
ians	-9205
iref	-9206
lcom	-9207
lesm	-9208
lons	-9209
mbra	-9210
onsm	-9211
vors	-9212
▁Unb	-9213
▁bab	-9214
▁orp	-9215
▁sym	-9216
▁tip	-9217
asped	-9218
ealot	-9219
eased	-9220
ecent	-9221
ected	-9222
emons	-9223
esuit	-9224
etect	-9225
fraid	-9226
gerat	-9227
ician	-9228
iping	-9229
onsen	-9230
onsid	-9231
opped	-9232
ormal	-9233
orses	-9234
oyota	-9235
range	-9236
rella	-9237
rised	-9238
▁Expl	-9239
▁Repe	-9240
▁Unlo	-9241
▁appl	-9242
▁auth	-9243
▁baff	-9244
▁barb	-9245
▁barg	-9246
▁brib	-9247
▁brid	-9248
▁brot	-9249
▁fami	-9250
▁fant	-9251
▁farm	-9252
▁fars	-9253
▁faul	-9254
▁fias	-9255
▁flee	-9256
▁flin	-9257
▁fogg	-9258
▁foll	-9259
▁forb	-9260
▁forc	-9261
▁forw	-9262
▁fron	-9263
▁fund	-9264
▁fung	-9265
▁funn	-9266
▁gard	-9267
▁geni	-9268
▁genu	-9269
▁gett	-9270
▁gira	-9271
▁goat	-9272
▁goof	-9273
▁goss	-9274
▁grad	-9275
▁gras	-9276
▁grin	-9277
▁grot	-9278
▁grou	-9279
▁grum	-9280
▁grun	-9281
▁guil	-9282
▁guit	-9283
▁hail	-9284
▁hass	-9285
▁hast	-9286
▁hect	-9287
▁hive	-9288
▁hone	-9289
▁hors	-9290
▁hott	-9291
▁ille	-9292
▁immo	-9293
▁inad	-9294
▁inev	-9295
▁inha	-9296
▁inte	-9297
▁intr	-9298
▁jogg	-9299
bts	-9300
eans	-9301
iots	-9302
isky	-9303
nace	-9304
plex	-9305
sper	-9306
ympt	-9307
▁Box	-9308
▁Chr	-9309
▁hoc	-9310
▁tyc	-9311
acted	-9312
anese	-9313
arage	-9314
athet	-9315
belie	-9316
bster	-9317
cceed	-9318
comer	-9319
dical	-9320
ecile	-9321
eolog	-9322
gical	-9323
iolog	-9324
ittle	-9325
kward	-9326
logiz	-9327
losed	-9328
mptom	-9329
nswer	-9330
olunt	-9331
ontro	-9332
otten	-9333
ouder	-9334
ousew	-9335
pical	-9336
roans	-9337
roves	-9338
sized	-9339
ssage	-9340
tinue	-9341
xting	-9342
▁Brit	-9343
▁Loos	-9344
▁argu	-9345
▁buff	-9346
▁buil	-9347
▁curi	-9348
▁doub	-9349
▁empt	-9350
▁furi	-9351
▁jugg	-9352
▁kick	-9353
▁kidd	-9354
▁lapt	-9355
▁laug	-9356
▁lear	-9357
▁leat	-9358
▁lect	-9359
▁legi	-9360
▁letd	-9361
▁ligh	-9362
▁lock	-9363
▁lone	-9364
▁lous	-9365
▁madm	-9366
▁mana	-9367
▁mani	-9368
▁mayb	-9369
▁ment	-9370
▁misj	-9371
▁moan	-9372
▁mold	-9373
▁momm	-9374
▁mone	-9375
▁mood	-9376
▁mort	-9377
▁moti	-9378
▁mout	-9379
▁muff	-9380
▁myse	-9381
▁nagg	-9382
▁nast	-9383
▁naus	-9384
▁nerv	-9385
▁neut	-9386
▁neve	-9387
▁newc	-9388
▁nobo	-9389
▁nodd	-9390
▁nois	-9391
▁nort	-9392
▁noth	-9393
▁noti	-9394
▁obes	-9395
▁oper	-9396
▁orch	-9397
▁outd	-9398
▁outg	-9399
bec	-9400
uzz	-9401
asps	-9402
esia	-9403
hich	-9404
hlet	-9405
path	-9406
rize	-9407
teen	-9408
tere	-9409
utte	-9410
▁Atl	-9411
▁elb	-9412
▁puz	-9413
andru	-9414
arger	-9415
asily	-9416
derst	-9417
iffen	-9418
ircle	-9419
locks	-9420
racle	-9421
ratul	-9422
reshm	-9423
rices	-9424
thday	-9425
ungar	-9426
zzles	-9427
▁arti	-9428
▁bias	-9429
▁crep	-9430
▁elus	-9431
▁evas	-9432
▁fasc	-9433
▁outl	-9434
▁outr	-9435
▁outs	-9436
▁pago	-9437
▁panc	-9438
▁paro	-9439
▁parr	-9440
▁pati	-9441
▁penc	-9442
▁peop	-9443
▁phon	-9444
▁pian	-9445
▁picn	-9446
▁pill	-9447
▁plum	-9448
▁poem	-9449
▁poin	-9450
▁poke	-9451
▁popc	-9452
▁poss	-9453
▁prec	-9454
▁pref	-9455
▁preg	-9456
▁prej	-9457
▁pres	-9458
▁pret	-9459
▁prev	-9460
▁prin	-9461
▁pris	-9462
▁prof	-9463
▁proo	-9464
▁prop	-9465
▁prot	-9466
▁prun	-9467
▁psyc	-9468
▁pupp	-9469
▁purp	-9470
▁qual	-9471
▁quar	-9472
▁ques	-9473
▁rabb	-9474
▁rack	-9475
▁radi	-9476
▁rash	-9477
▁reas	-9478
▁recy	-9479
▁rein	-9480
▁reli	-9481
▁reme	-9482
▁remo	-9483
▁repl	-9484
▁resc	-9485
▁reso	-9486
▁resp	-9487
▁reve	-9488
▁ridd	-9489
▁robb	-9490
▁rubb	-9491
▁ruin	-9492
▁runn	-9493
▁sail	-9494
▁sain	-9495
▁salm	-9496
▁saus	-9497
▁scar	-9498
▁scre	-9499
ibi	-9500
pio	-9501
zeb	-9502
abby	-9503
aseb	-9504
case	-9505
ccup	-9506
mbar	-9507
ukem	-9508
▁Avo	-9509
▁Ski	-9510
▁Tok	-9511
▁avo	-9512
▁mah	-9513
▁tab	-9514
▁vib	-9515
arole	-9516
eally	-9517
ensed	-9518
entif	-9519
exted	-9520
fense	-9521
iccup	-9522
nhale	-9523
notis	-9524
ribut	-9525
sthma	-9526
uliar	-9527
ursed	-9528
usses	-9529
yslex	-9530
▁Koal	-9531
▁Natt	-9532
▁Peop	-9533
▁assu	-9534
▁garb	-9535
▁garg	-9536
▁garl	-9537
▁hogw	-9538
▁hono	-9539
▁incl	-9540
▁irre	-9541
▁obsc	-9542
▁pict	-9543
▁racc	-9544
▁scur	-9545
▁sear	-9546
▁seas	-9547
▁seiz	-9548
▁seld	-9549
▁sele	-9550
▁seni	-9551
▁sens	-9552
▁sequ	-9553
▁seve	-9554
▁shad	-9555
▁shoo	-9556
▁shor	-9557
▁shou	-9558
▁shri	-9559
▁shud	-9560
▁sill	-9561
▁simp	-9562
▁sitt	-9563
▁skat	-9564
▁skin	-9565
▁slou	-9566
▁smar	-9567
▁smas	-9568
▁snic	-9569
▁soak	-9570
▁sobb	-9571
▁sout	-9572
▁spee	-9573
▁spid	-9574
▁spin	-9575
▁spon	-9576
▁stag	-9577
▁stam	-9578
▁stan	-9579
▁stin	-9580
▁stol	-9581
▁ston	-9582
▁stoo	-9583
▁stor	-9584
▁stre	-9585
▁stro	-9586
▁stub	-9587
▁stuf	-9588
▁stum	-9589
▁stup	-9590
▁succ	-9591
▁suff	-9592
▁sunt	-9593
▁surg	-9594
▁surp	-9595
▁sush	-9596
▁swel	-9597
▁swor	-9598
▁tail	-9599
ypn	-9600
acea	-9601
ighb	-9602
ogen	-9603
otog	-9604
ploy	-9605
udgy	-9606
ulky	-9607
weds	-9608
ypoc	-9609
▁Egy	-9610
▁Kne	-9611
▁syn	-9612
emini	-9613
icial	-9614
ilots	-9615
mates	-9616
mpath	-9617
ochis	-9618
oween	-9619
riday	-9620
ssips	-9621
utumn	-9622
▁Sadd	-9623
▁Scor	-9624
▁Taur	-9625
▁Toky	-9626
▁Unsc	-9627
▁cele	-9628
▁helm	-9629
▁oppo	-9630
▁priv	-9631
▁rebu	-9632
▁rewr	-9633
▁tatt	-9634
▁teet	-9635
▁tenn	-9636
▁thei	-9637
▁thes	-9638
▁thie	-9639
▁thir	-9640
▁thou	-9641
▁thre	-9642
▁thri	-9643
▁thum	-9644
▁tiss	-9645
▁toil	-9646
▁tong	-9647
▁tool	-9648
▁toot	-9649
▁touc	-9650
▁trag	-9651
▁tras	-9652
▁trun	-9653
▁trut	-9654
▁tyco	-9655
▁unam	-9656
▁unar	-9657
▁unem	-9658
▁unin	-9659
▁unke	-9660
▁unlo	-9661
▁unmo	-9662
▁unsa	-9663
▁untr	-9664
▁unus	-9665
▁upbe	-9666
▁upst	-9667
▁vegg	-9668
▁vide	-9669
▁voic	-9670
▁waff	-9671
▁wast	-9672
▁weal	-9673
▁weap	-9674
▁weig	-9675
▁weir	-9676
▁weld	-9677
▁whim	-9678
▁whin	-9679
▁wick	-9680
▁winc	-9681
▁wing	-9682
▁winn	-9683
▁witn	-9684
▁wort	-9685
▁wrot	-9686
▁yach	-9687
▁youn	-9688
abetes	-9689
abetic	-9690
acking	-9691
adians	-9692
adical	-9693
afraid	-9694
agical	-9695
agined	-9696
agreed	-9697
ahjong	-9698
ainful	-9699
SAP	-9700
warf	-9701
esque	-9702
ounce	-9703
ussia	-9704
zebra	-9705
▁Heli	-9706
aining	-9707
ainted	-9708
ainter	-9709
aiting	-9710
alding	-9711
alking	-9712
alling	-9713
alnuts	-9714
amonds	-9715
ancing	-9716
anding	-9717
anized	-9718
anning	-9719
antast	-9720
anting	-9721
apting	-9722
araoke	-9723
arated	-9724
ardous	-9725
arking	-9726
arless	-9727
arming	-9728
arrass	-9729
arties	-9730
artled	-9731
artner	-9732
arving	-9733
asagna	-9734
ashimi	-9735
asible	-9736
asting	-9737
astles	-9738
atched	-9739
athing	-9740
ations	-9741
atured	-9742
aulted	-9743
awking	-9744
awning	-9745
azzled	-9746
biased	-9747
bulous	-9748
burned	-9749
ceeded	-9750
chedul	-9751
chless	-9752
cident	-9753
cience	-9754
ciless	-9755
ckless	-9756
comers	-9757
ctless	-9758
ctober	-9759
decent	-9760
deling	-9761
derful	-9762
drated	-9763
eafood	-9764
eaking	-9765
ealing	-9766
ealots	-9767
ealous	-9768
easing	-9769
eating	-9770
eaving	-9771
ection	-9772
edding	-9773
edient	-9774
eeling	-9775
eezing	-9776
either	-9777
elease	-9778
elfish	-9779
elight	-9780
elling	-9781
employ	-9782
empted	-9783
entful	-9784
entist	-9785
entive	-9786
entlem	-9787
erated	-9788
ercise	-9789
erfect	-9790
erless	-9791
ertain	-9792
escort	-9793
essary	-9794
essert	-9795
essful	-9796
estern	-9797
estion	-9798
ething	-9799
exting	-9800
fferen	-9801
ffling	-9802
gerate	-9803
getful	-9804
ghting	-9805
gnored	-9806
gusted	-9807
having	-9808
heated	-9809
histle	-9810
hletic	-9811
hocked	-9812
hoking	-9813
iately	-9814
iating	-9815
icated	-9816
icient	-9817
icious	-9818
idance	-9819
idence	-9820
ideous	-9821
idower	-9822
iffled	-9823
iggled	-9824
ilable	-9825
ildish	-9826
ildren	-9827
ilence	-9828
ilming	-9829
imples	-9830
inated	-9831
inging	-9832
ingual	-9833
inking	-9834
innert	-9835
iously	-9836
ipping	-9837
iracle	-9838
irited	-9839
iscuit	-9840
ishing	-9841
ishone	-9842
isited	-9843
isoned	-9844
issing	-9845
istake	-9846
istens	-9847
isters	-9848
isting	-9849
istmas	-9850
istory	-9851
isturb	-9852
itable	-9853
itated	-9854
itched	-9855
ittery	-9856
itting	-9857
ivered	-9858
izarre	-9859
kening	-9860
lcomed	-9861
learly	-9862
leased	-9863
leases	-9864
lessed	-9865
levant	-9866
listed	-9867
llible	-9868
llowed	-9869
lmates	-9870
loated	-9871
logist	-9872
logize	-9873
losely	-9874
loshed	-9875
lowers	-9876
lution	-9877
melled	-9878
mented	-9879
moking	-9880
napped	-9881
ndered	-9882
nglish	-9883
nocent	-9884
noying	-9885
nybody	-9886
olated	-9887
olence	-9888
oliday	-9889
ologiz	-9890
omatic	-9891
omeone	-9892
omfort	-9893
omised	-9894
ompous	-9895
onable	-9896
oncent	-9897
ongrat	-9898
onight	-9899
onsult	-9900
ontane	-9901
ontrol	-9902
ookies	-9903
ooking	-9904
oolish	-9905
ooting	-9906
orable	-9907
orange	-9908
orders	-9909
orking	-9910
orneys	-9911
orning	-9912
orough	-9913
ortive	-9914
otally	-9915
others	-9916
othing	-9917
otiate	-9918
oundly	-9919
ourist	-9920
ousins	-9921
outing	-9922
owered	-9923
owling	-9924
owning	-9925
pecked	-9926
pected	-9927
perien	-9928
pering	-9929
piring	-9930
ponded	-9931
prised	-9932
psized	-9933
ptable	-9934
ptical	-9935
ptiles	-9936
ptured	-9937
quired	-9938
raight	-9939
rating	-9940
reaked	-9941
reamed	-9942
▁	-9943
e	-9944
o	-9945
.	-9946
t	-9947
a	-9948
s	-9949
i	-9950
r	-9951
n	-9952
l	-9953
h	-9954
m	-9955
u	-9956
d	-9957
I	-9958
y	-9959
'	-9960
g	-9961
w	-9962
c	-9963
T	-9964
k	-9965
p	-9966
f	-9967
?	-9968
b	-9969
v	-9970
W	-9971
Y	-9972
H	-9973
D	-9974
!	-9975
S	-9976
A	-9977
G	-9978
C	-9979
L	-9980
B	-9981
j	-9982
M	-9983
x	-9984
K	-9985
z	-9986
N	-9987
P	-9988
,	-9989
E	-9990
F	-9991
O	-9992
q	-9993
R	-9994
J	-9995
U	-9996
