<unk>	0
<s>	0
</s>	0
os	-0
▁<	-1
eos	-2
es	-3
ai	-4
ou	-5
en	-6
▁J	-7
▁s	-8
▁p	-9
on	-10
▁l	-11
ous	-12
▁d	-13
om	-14
▁T	-15
▁Je	-16
est	-17
▁m	-18
is	-19
er	-20
▁a	-21
▁c	-22
▁t	-23
▁?	-24
▁!	-25
re	-26
▁v	-27
ez	-28
▁Tom	-29
▁pa	-30
le	-31
▁n	-32
▁f	-33
an	-34
▁C	-35
oi	-36
eu	-37
ent	-38
uis	-39
▁N	-40
ais	-41
un	-42
▁pas	-43
▁b	-44
▁suis	-45
▁est	-46
▁I	-47
▁Il	-48
qu	-49
▁de	-50
▁E	-51
▁un	-52
ait	-53
te	-54
ri	-55
il	-56
▁Nous	-57
▁V	-58
ét	-59
in	-60
▁le	-61
ar	-62
ons	-63
or	-64
tes	-65
ll	-66
ce	-67
ont	-68
▁en	-69
au	-70
omm	-71
▁tr	-72
▁A	-73
▁r	-74
▁P	-75
el	-76
▁ch	-77
ch	-78
ci	-79
▁me	-80
▁L	-81
▁la	-82
▁qu	-83
eux	-84
▁Tu	-85
▁Vous	-86
▁à	-87
ien	-88
ti	-89
▁ne	-90
de	-91
onn	-92
tu	-93
our	-94
ui	-95
us	-96
▁g	-97
vous	-98
▁Es	-99
▁S	-100
ant	-101
▁Q	-102
▁pr	-103
al	-104
me	-105
▁vous	-106
▁j	-107
ée	-108
end	-109
ag	-110
▁R	-111
▁av	-112
▁par	-113
as	-114
ommes	-115
▁ét	-116
êtes	-117
▁D	-118
▁une	-119
▁i	-120
ois	-121
▁Ne	-122
av	-123
se	-124
▁es	-125
▁sommes	-126
ain	-127
▁h	-128
moi	-129
▁êtes	-130
▁les	-131
em	-132
▁que	-133
▁pl	-134
ouv	-135
▁ai	-136
▁Est	-137
it	-138
▁M	-139
lle	-140
ça	-141
tt	-142
out	-143
és	-144
▁ça	-145
▁F	-146
oy	-147
ur	-148
▁sont	-149
▁nous	-150
▁fait	-151
lles	-152
pp	-153
ment	-154
▁O	-155
▁re	-156
▁Ils	-157
ot	-158
▁Qu	-159
onne	-160
Ça	-161
▁Ça	-162
ie	-163
ir	-164
elle	-165
▁Elle	-166
▁dé	-167
▁mon	-168
ble	-169
▁Qui	-170
▁des	-171
oin	-172
am	-173
ra	-174
je	-175
êt	-176
▁bien	-177
▁Elles	-178
ang	-179
ue	-180
▁é	-181
▁all	-182
ort	-183
sez	-184
ard	-185
lé	-186
▁au	-187
cu	-188
▁mal	-189
▁ce	-190
▁fau	-191
les	-192
▁in	-193
eur	-194
che	-195
▁y	-196
que	-197
▁as	-198
ille	-199
mp	-200
▁se	-201
ff	-202
▁ar	-203
aire	-204
oir	-205
▁Ce	-206
at	-207
ve	-208
▁ici	-209
ends	-210
▁été	-211
eau	-212
oyez	-213
▁Pr	-214
▁te	-215
▁Lais	-216
▁du	-217
esoin	-218
air	-219
▁besoin	-220
ne	-221
iens	-222
▁per	-223
and	-224
ère	-225
▁gr	-226
▁con	-227
▁moi	-228
toi	-229
aime	-230
▁parti	-231
li	-232
▁Re	-233
▁va	-234
este	-235
sé	-236
té	-237
erai	-238
▁faut	-239
op	-240
ête	-241
enez	-242
oc	-243
▁Ê	-244
▁Êtes	-245
ore	-246
nous	-247
ela	-248
ans	-249
▁ré	-250
▁si	-251
▁était	-252
▁On	-253
di	-254
oup	-255
ré	-256
▁pour	-257
ens	-258
ance	-259
▁ri	-260
▁veux	-261
▁Ar	-262
▁fa	-263
enti	-264
eure	-265
▁Tout	-266
rai	-267
avai	-268
▁Comm	-269
ol	-270
▁perd	-271
▁peux	-272
▁je	-273
▁dét	-274
able	-275
▁aller	-276
ès	-277
était	-278
▁faire	-279
ac	-280
ad	-281
oul	-282
▁vi	-283
▁Arr	-284
étais	-285
▁travai	-286
▁Soyez	-287
▁B	-288
ers	-289
▁dev	-290
fi	-291
sa	-292
aint	-293
▁att	-294
emp	-295
▁avons	-296
omp	-297
▁li	-298
▁train	-299
si	-300
▁Fais	-301
▁am	-302
▁tou	-303
ît	-304
▁e	-305
aît	-306
enant	-307
otre	-308
aintenant	-309
gu	-310
cher	-311
▁là	-312
▁dis	-313
▁peu	-314
▁trop	-315
gn	-316
say	-317
▁ma	-318
orte	-319
▁Le	-320
▁partir	-321
orm	-322
▁vu	-323
▁mar	-324
▁monde	-325
age	-326
rez	-327
▁Les	-328
omb	-329
éri	-330
la	-331
ées	-332
▁seu	-333
ide	-334
▁ont	-335
aison	-336
cup	-337
▁voi	-338
ec	-339
app	-340
ill	-341
▁tu	-342
ouri	-343
▁bon	-344
▁tous	-345
▁tout	-346
▁très	-347
▁heure	-348
ord	-349
▁bi	-350
ture	-351
occup	-352
▁Pers	-353
▁Personne	-354
ge	-355
ux	-356
▁En	-357
▁qui	-358
▁Laisse	-359
rie	-360
▁app	-361
▁Sois	-362
ob	-363
ess	-364
▁cont	-365
▁fais	-366
agn	-367
▁Att	-368
▁comm	-369
▁plaît	-370
ap	-371
ut	-372
▁toi	-373
vez	-374
▁fr	-375
aites	-376
▁dans	-377
▁sens	-378
▁maintenant	-379
der	-380
▁cela	-381
▁All	-382
▁pré	-383
▁plus	-384
▁occup	-385
vre	-386
adore	-387
▁di	-388
▁mang	-389
▁La	-390
▁vais	-391
▁Puis	-392
▁ceci	-393
erm	-394
▁votre	-395
▁Faites	-396
▁Prends	-397
▁Dé	-398
▁dois	-399
anqu	-400
▁Laissez	-401
▁É	-402
▁ent	-403
▁Rest	-404
cr	-405
▁ple	-406
▁ton	-407
▁déteste	-408
enu	-409
res	-410
une	-411
ante	-412
▁imp	-413
ab	-414
use	-415
iste	-416
▁Reg	-417
▁sur	-418
▁avez	-419
▁Comment	-420
id	-421
ils	-422
▁Va	-423
arde	-424
▁Restez	-425
endre	-426
▁Quel	-427
auv	-428
inu	-429
mes	-430
▁conn	-431
ôt	-432
ose	-433
tte	-434
▁su	-435
▁gagn	-436
▁voir	-437
▁jus	-438
▁confi	-439
▁Prenez	-440
▁br	-441
▁ex	-442
▁Cont	-443
▁sent	-444
▁trouv	-445
▁Arrête	-446
ud	-447
euse	-448
▁App	-449
▁Reste	-450
▁maison	-451
ts	-452
ler	-453
asse	-454
▁perdu	-455
ellement	-456
én	-457
erv	-458
▁As	-459
▁cr	-460
▁avec	-461
▁cour	-462
▁peut	-463
▁vrai	-464
▁eu	-465
▁lui	-466
▁temp	-467
lement	-468
ade	-469
emb	-470
iné	-471
par	-472
rer	-473
▁pouv	-474
riv	-475
▁pi	-476
▁chez	-477
▁coup	-478
▁plais	-479
▁temps	-480
▁voiture	-481
▁G	-482
▁dit	-483
udent	-484
▁nouv	-485
▁tomb	-486
▁ta	-487
ande	-488
▁cal	-489
▁Allez	-490
anc	-491
▁Ou	-492
▁ret	-493
▁comp	-494
▁confiance	-495
enc	-496
era	-497
▁sé	-498
gent	-499
êtez	-500
▁beau	-501
▁bles	-502
▁jam	-503
▁fati	-504
▁seul	-505
im	-506
ier	-507
avez	-508
▁chien	-509
▁Quelle	-510
▁toutes	-511
▁tellement	-512
aie	-513
ati	-514
ché	-515
ine	-516
rap	-517
ter	-518
▁grand	-519
▁fatigu	-520
▁prudent	-521
jour	-522
▁dés	-523
▁Cela	-524
▁ad	-525
▁arr	-526
endez	-527
ourir	-528
▁nouveau	-529
uit	-530
ions	-531
▁fai	-532
▁chau	-533
▁lais	-534
cile	-535
▁Par	-536
▁sais	-537
▁essay	-538
ass	-539
▁mé	-540
▁ass	-541
▁bou	-542
▁aider	-543
▁avait	-544
mé	-545
esp	-546
▁Où	-547
erre	-548
rait	-549
être	-550
▁fin	-551
▁vie	-552
▁rest	-553
▁juste	-554
▁Arrêtez	-555
onc	-556
agit	-557
ants	-558
ardez	-559
▁mort	-560
▁Donne	-561
▁calme	-562
quoi	-563
▁dem	-564
▁sou	-565
▁gros	-566
▁term	-567
▁malade	-568
▁connais	-569
ole	-570
▁mi	-571
chez	-572
endu	-573
▁disp	-574
▁jamais	-575
▁travaill	-576
▁Ma	-577
▁dr	-578
cord	-579
onné	-580
illez	-581
▁Pour	-582
▁chat	-583
▁cher	-584
ention	-585
▁porte	-586
▁heureux	-587
▁À	-588
ure	-589
▁fi	-590
▁reg	-591
▁deux	-592
▁pris	-593
▁prêt	-594
▁arriv	-595
▁travail	-596
là	-597
ors	-598
tez	-599
▁ac	-600
▁an	-601
arre	-602
coup	-603
ourn	-604
▁mien	-605
anquille	-606
rité	-607
réci	-608
▁enf	-609
▁pro	-610
illes	-611
onnez	-612
▁mauv	-613
▁prie	-614
▁mauvais	-615
▁chercher	-616
um	-617
oit	-618
ond	-619
oue	-620
▁fou	-621
▁gent	-622
▁sois	-623
▁voul	-624
▁blessé	-625
▁beaucoup	-626
att	-627
ité	-628
qué	-629
rou	-630
▁Tr	-631
▁co	-632
▁sû	-633
aide	-634
oute	-635
▁biz	-636
ement	-637
▁amus	-638
ied	-639
▁De	-640
▁ob	-641
▁pe	-642
omme	-643
▁idi	-644
▁quel	-645
▁rien	-646
▁Viens	-647
▁chant	-648
▁comme	-649
ert	-650
▁ab	-651
▁bl	-652
ager	-653
illé	-654
▁Mon	-655
▁pay	-656
▁Suis	-657
▁sécu	-658
▁pleur	-659
▁triste	-660
▁sécurité	-661
arr	-662
ise	-663
lez	-664
▁éc	-665
ique	-666
▁dép	-667
aient	-668
avons	-669
▁Pouv	-670
▁aime	-671
▁terminé	-672
éc	-673
bre	-674
ussi	-675
▁ven	-676
▁Avez	-677
▁simp	-678
▁soyez	-679
▁Regarde	-680
▁bizarre	-681
ér	-682
élé	-683
ange	-684
fait	-685
▁Dem	-686
▁Ess	-687
▁fort	-688
▁ment	-689
▁vite	-690
uy	-691
vi	-692
ate	-693
▁ég	-694
assé	-695
▁rep	-696
issez	-697
▁part	-698
▁sait	-699
accord	-700
▁Venez	-701
▁Donnez	-702
▁chance	-703
▁Continu	-704
gne	-705
oid	-706
▁Me	-707
▁Que	-708
▁dorm	-709
▁Essay	-710
▁souri	-711
▁attention	-712
amp	-713
bli	-714
▁sa	-715
bout	-716
ence	-717
▁sec	-718
▁peur	-719
▁yeux	-720
▁arrêt	-721
▁bonne	-722
▁senti	-723
▁tomber	-724
▁Regardez	-725
aï	-726
dé	-727
▁fo	-728
▁im	-729
core	-730
erme	-731
rais	-732
elles	-733
▁gagné	-734
▁livre	-735
▁occupé	-736
▁fatigué	-737
▁Continuez	-738
tr	-739
ul	-740
▁Ch	-741
▁Di	-742
▁ou	-743
▁hor	-744
▁mes	-745
erons	-746
▁boul	-747
▁cond	-748
▁fini	-749
▁semb	-750
▁Comme	-751
▁Marie	-752
▁appel	-753
ins	-754
ver	-755
erci	-756
inue	-757
▁aff	-758
▁rem	-759
▁sor	-760
▁souv	-761
▁tard	-762
▁vois	-763
▁froid	-764
▁idiot	-765
▁Essaie	-766
▁debout	-767
▁manger	-768
▁pouvons	-769
▁tranquille	-770
lo	-771
anç	-772
iré	-773
ète	-774
ente	-775
oiss	-776
▁vin	-777
antes	-778
▁fils	-779
▁télé	-780
▁bière	-781
▁nager	-782
▁tromp	-783
▁boulot	-784
▁encore	-785
▁parler	-786
▁Continue	-787
gé	-788
ace	-789
eut	-790
iss	-791
oli	-792
ague	-793
oure	-794
▁dur	-795
▁man	-796
▁vis	-797
avais	-798
▁peti	-799
argent	-800
▁venir	-801
▁contra	-802
▁facile	-803
▁raison	-804
▁regard	-805
ép	-806
aut	-807
rié	-808
ses	-809
irai	-810
rive	-811
tion	-812
téri	-813
▁Mar	-814
▁gar	-815
▁non	-816
▁pos	-817
▁sem	-818
▁tes	-819
▁voy	-820
heure	-821
▁cuis	-822
▁dess	-823
▁quoi	-824
ançais	-825
▁sorti	-826
térieur	-827
▁simplement	-828
ex	-829
ing	-830
olé	-831
▁sy	-832
▁che	-833
▁gén	-834
▁ins	-835
▁naï	-836
▁rev	-837
▁sûr	-838
▁chaud	-839
appréci	-840
▁marcher	-841
▁Pourquoi	-842
▁français	-843
▁pourrait	-844
▁vraiment	-845
▁Éc	-846
erri	-847
rons	-848
▁Dis	-849
▁Veu	-850
▁dém	-851
▁faim	-852
▁réve	-853
▁chang	-854
▁serai	-855
▁mourir	-856
▁dispose	-857
▁Veuillez	-858
▁travailler	-859
pr	-860
aux	-861
ign	-862
rit	-863
ume	-864
ève	-865
▁Ai	-866
iend	-867
iner	-868
▁Voi	-869
▁aim	-870
▁col	-871
▁lit	-872
avant	-873
▁Sont	-874
▁diff	-875
▁dire	-876
▁main	-877
▁sauv	-878
▁être	-879
▁Ferme	-880
▁assis	-881
▁colère	-882
▁courir	-883
▁entrer	-884
▁paress	-885
▁travaille	-886
all	-887
hui	-888
ire	-889
▁auc	-890
▁dou	-891
▁emb	-892
▁emp	-893
▁exc	-894
▁jeu	-895
▁pre	-896
▁stu	-897
▁vas	-898
▁vos	-899
erais	-900
jourd	-901
▁symp	-902
▁avoir	-903
▁chose	-904
▁demand	-905
▁gentil	-906
▁retard	-907
▁semble	-908
oû	-909
pe	-910
▁â	-911
ale	-912
dec	-913
ner	-914
ote	-915
▁Au	-916
▁ca	-917
▁st	-918
▁Des	-919
▁eff	-920
▁tim	-921
viens	-922
▁Mont	-923
▁Peux	-924
▁pied	-925
▁stup	-926
▁séri	-927
▁venu	-928
▁cassé	-929
▁manqu	-930
▁médec	-931
▁Attrap	-932
▁blague	-933
vé	-934
per	-935
sée	-936
ême	-937
ôle	-938
▁cé	-939
▁rê	-940
rent	-941
▁enn	-942
▁env	-943
▁fem	-944
▁rép	-945
▁vol	-946
▁vue	-947
apeau	-948
errou	-949
oncti	-950
▁arme	-951
▁fall	-952
▁lire	-953
▁marr	-954
▁plan	-955
▁prév	-956
▁quit	-957
▁tort	-958
▁aussi	-959
▁mange	-960
▁attrap	-961
▁foncti	-962
▁gagner	-963
▁pouvez	-964
▁trouvé	-965
▁étions	-966
▁Attends	-967
▁chapeau	-968
▁essayer	-969
cs	-970
fs	-971
xi	-972
ég	-973
dée	-974
lli	-975
udi	-976
yez	-977
▁Am	-978
isez	-979
▁aut	-980
▁end	-981
▁mis	-982
▁sau	-983
▁sav	-984
▁sui	-985
▁tôt	-986
▁éch	-987
ortez	-988
▁ador	-989
▁garç	-990
▁renc	-991
oyable	-992
▁assez	-993
▁compr	-994
▁horri	-995
▁menti	-996
▁mieux	-997
▁seule	-998
▁allons	-999
▁amoure	-1000
▁devons	-1001
▁filles	-1002
▁aujourd	-1003
▁enfants	-1004
aim	-1005
lui	-1006
▁Av	-1007
▁Du	-1008
▁ag	-1009
▁cl	-1010
▁én	-1011
enue	-1012
vent	-1013
▁Pas	-1014
▁cré	-1015
▁chev	-1016
▁nerv	-1017
▁sans	-1018
▁suff	-1019
▁poiss	-1020
▁davant	-1021
apprécie	-1022
▁Pouvons	-1023
▁chanter	-1024
▁rencont	-1025
▁davantage	-1026
▁Maintenant	-1027
ic	-1028
are	-1029
ave	-1030
ion	-1031
lie	-1032
qui	-1033
enci	-1034
onte	-1035
▁cor	-1036
▁déb	-1037
▁déc	-1038
▁mer	-1039
▁tri	-1040
aider	-1041
amour	-1042
euses	-1043
▁Mary	-1044
▁fois	-1045
▁sour	-1046
▁tête	-1047
arrive	-1048
▁Merci	-1049
▁appelé	-1050
▁dormir	-1051
▁timide	-1052
▁voulons	-1053
▁Attendez	-1054
▁heureuse	-1055
▁plaisant	-1056
▁prudente	-1057
uv	-1058
oué	-1059
▁al	-1060
▁ép	-1061
arte	-1062
ouge	-1063
▁clé	-1064
▁déj	-1065
▁hur	-1066
▁imm	-1067
▁allé	-1068
▁char	-1069
▁déci	-1070
▁idée	-1071
▁joue	-1072
▁mign	-1073
▁nour	-1074
▁rent	-1075
▁resp	-1076
▁véri	-1077
▁adore	-1078
▁folle	-1079
▁homme	-1080
▁notre	-1081
▁repos	-1082
▁viens	-1083
▁faites	-1084
▁laissé	-1085
▁Appelle	-1086
▁Demande	-1087
▁médecin	-1088
▁occupée	-1089
▁prendre	-1090
intérieur	-1091
▁pourquoi	-1092
ah	-1093
lè	-1094
og	-1095
agé	-1096
cro	-1097
enn	-1098
ile	-1099
int	-1100
ong	-1101
▁Ac	-1102
▁gu	-1103
▁sp	-1104
atis	-1105
ttez	-1106
▁Bon	-1107
▁Dét	-1108
▁Ent	-1109
▁pai	-1110
▁pri	-1111
▁rap	-1112
▁ren	-1113
▁son	-1114
onner	-1115
ortes	-1116
rions	-1117
èrent	-1118
▁conc	-1119
▁norm	-1120
▁pres	-1121
▁puis	-1122
▁cette	-1123
▁femme	-1124
▁parle	-1125
▁prête	-1126
▁riche	-1127
▁route	-1128
▁répar	-1129
▁sympa	-1130
▁vieux	-1131
▁Allons	-1132
▁Sommes	-1133
▁chiens	-1134
▁dessus	-1135
▁essayé	-1136
▁rester	-1137
▁Essayez	-1138
▁commenc	-1139
▁sérieux	-1140
▁attendre	-1141
ct	-1142
hé	-1143
act	-1144
cor	-1145
ern	-1146
eul	-1147
ray	-1148
ène	-1149
▁Lâ	-1150
ches	-1151
uses	-1152
▁Dép	-1153
▁dér	-1154
▁fut	-1155
▁rés	-1156
▁âge	-1157
ation	-1158
▁conf	-1159
▁lent	-1160
▁tour	-1161
▁veut	-1162
veille	-1163
▁Tiens	-1164
▁drôle	-1165
▁souci	-1166
▁verre	-1167
▁étudi	-1168
alement	-1169
▁Verrou	-1170
▁garçon	-1171
▁marche	-1172
▁meille	-1173
▁quelqu	-1174
▁continu	-1175
▁quelque	-1176
▁stupide	-1177
fé	-1178
ph	-1179
ro	-1180
ém	-1181
imp	-1182
inc	-1183
nes	-1184
▁Ex	-1185
▁fâ	-1186
aise	-1187
attu	-1188
ible	-1189
onde	-1190
orté	-1191
▁cap	-1192
▁esp	-1193
▁hér	-1194
▁int	-1195
▁inv	-1196
▁mou	-1197
▁thé	-1198
icile	-1199
école	-1200
▁boug	-1201
▁heur	-1202
▁prés	-1203
▁serv	-1204
▁Garde	-1205
▁Ouvre	-1206
▁journ	-1207
▁mangé	-1208
▁super	-1209
▁vient	-1210
▁Pouvez	-1211
▁aucune	-1212
▁danser	-1213
▁faible	-1214
▁grande	-1215
▁nourri	-1216
▁perdre	-1217
▁rapide	-1218
▁sentie	-1219
▁presque	-1220
▁o	-1221
flé	-1222
ial	-1223
iti	-1224
▁In	-1225
▁Ré	-1226
▁mo	-1227
▁ve	-1228
aine	-1229
aque	-1230
elez	-1231
ense	-1232
ents	-1233
hors	-1234
idez	-1235
leur	-1236
ques	-1237
ôtre	-1238
▁Dev	-1239
▁Ouv	-1240
▁cou	-1241
▁cru	-1242
▁fli	-1243
▁fra	-1244
▁mat	-1245
▁rig	-1246
▁tir	-1247
angez	-1248
ermez	-1249
essay	-1250
telli	-1251
▁Desc	-1252
▁cons	-1253
▁ense	-1254
▁honn	-1255
▁pers	-1256
▁trah	-1257
▁Passe	-1258
▁parlé	-1259
▁petit	-1260
▁satis	-1261
▁Fermez	-1262
▁dehors	-1263
▁devenu	-1264
▁endorm	-1265
▁heures	-1266
▁prépar	-1267
▁sentis	-1268
▁voyage	-1269
▁arrêter	-1270
▁intelli	-1271
▁marrant	-1272
▁occupés	-1273
▁plaisir	-1274
▁seconde	-1275
▁horrible	-1276
▁intelligent	-1277
lu	-1278
con	-1279
gué	-1280
ici	-1281
iez	-1282
isé	-1283
oyé	-1284
ser	-1285
sui	-1286
uri	-1287
uti	-1288
agne	-1289
blie	-1290
eurs	-1291
ffre	-1292
ieds	-1293
orme	-1294
ouve	-1295
phon	-1296
user	-1297
▁aux	-1298
▁bus	-1299
▁feu	-1300
▁fil	-1301
▁jou	-1302
▁obé	-1303
▁ver	-1304
ables	-1305
assez	-1306
▁bour	-1307
▁camp	-1308
▁cham	-1309
▁incr	-1310
▁minu	-1311
▁payé	-1312
▁pous	-1313
▁prom	-1314
▁Oubli	-1315
▁ferai	-1316
▁passé	-1317
▁place	-1318
▁saoul	-1319
▁Demand	-1320
▁Quelqu	-1321
▁manque	-1322
▁mienne	-1323
▁suffit	-1324
▁amusant	-1325
▁entendu	-1326
▁journée	-1327
▁pleurer	-1328
▁retrait	-1329
▁contrari	-1330
▁paresseux	-1331
▁également	-1332
oï	-1333
aid	-1334
dre	-1335
ies	-1336
loi	-1337
rée	-1338
uie	-1339
usé	-1340
▁dî	-1341
camp	-1342
ervé	-1343
issi	-1344
ière	-1345
lait	-1346
liqu	-1347
uire	-1348
▁Ass	-1349
▁Dég	-1350
▁cam	-1351
▁min	-1352
▁ord	-1353
▁ref	-1354
▁ris	-1355
▁sil	-1356
aires	-1357
alent	-1358
anger	-1359
chanc	-1360
▁Dieu	-1361
▁aimé	-1362
▁café	-1363
▁embr	-1364
▁mord	-1365
▁méch	-1366
▁pati	-1367
▁patr	-1368
▁prem	-1369
▁prob	-1370
▁prop	-1371
▁ress	-1372
▁taxi	-1373
▁tiré	-1374
▁Chois	-1375
▁aband	-1376
▁chats	-1377
▁donné	-1378
appelle	-1379
▁Décamp	-1380
▁Ouvrez	-1381
▁marché	-1382
▁appréci	-1383
▁chambre	-1384
▁poisson	-1385
▁malchanc	-1386
▁téléphon	-1387
▁difficile	-1388
gle	-1389
oté	-1390
rés	-1391
âte	-1392
▁Br	-1393
▁Fi	-1394
chée	-1395
oire	-1396
utôt	-1397
▁Tou	-1398
▁brû	-1399
▁cre	-1400
▁ess	-1401
▁jal	-1402
▁neu	-1403
▁piè	-1404
arrêt	-1405
orter	-1406
▁Pars	-1407
▁ache	-1408
▁avoc	-1409
▁tent	-1410
conque	-1411
▁Parle	-1412
▁Tenez	-1413
▁Voici	-1414
▁carte	-1415
▁derri	-1416
▁héros	-1417
▁jeune	-1418
▁payer	-1419
▁signe	-1420
▁somme	-1421
▁viend	-1422
▁arrivé	-1423
▁avance	-1424
▁créati	-1425
▁effray	-1426
▁plutôt	-1427
▁prêtes	-1428
▁réussi	-1429
▁Apporte	-1430
▁Assieds	-1431
▁Attrape	-1432
▁arriver	-1433
▁démissi	-1434
▁parfait	-1435
▁premier	-1436
▁trouver	-1437
▁connaiss	-1438
▁derrière	-1439
▁réveillé	-1440
▁nourriture	-1441
th	-1442
art	-1443
cis	-1444
cre	-1445
hom	-1446
ite	-1447
jec	-1448
oie	-1449
rim	-1450
▁lu	-1451
▁ph	-1452
▁Ét	-1453
anté	-1454
cule	-1455
hait	-1456
igne	-1457
irez	-1458
lace	-1459
lème	-1460
ours	-1461
ères	-1462
▁Ces	-1463
▁Rép	-1464
▁ann	-1465
▁ans	-1466
▁dro	-1467
▁eng	-1468
▁hum	-1469
▁mom	-1470
▁mus	-1471
▁nom	-1472
▁rac	-1473
▁rec	-1474
▁viv	-1475
entre	-1476
homas	-1477
ienne	-1478
seyez	-1479
tique	-1480
êcher	-1481
▁Aide	-1482
▁Dépê	-1483
▁aide	-1484
▁aidé	-1485
▁cass	-1486
▁faux	-1487
▁pard	-1488
▁prof	-1489
▁sinc	-1490
▁soin	-1491
ertain	-1492
ouille	-1493
▁Aidez	-1494
▁Bonne	-1495
▁Voilà	-1496
▁court	-1497
▁discu	-1498
▁dormi	-1499
▁faute	-1500
▁frapp	-1501
▁oubli	-1502
▁plein	-1503
▁puiss	-1504
▁resté	-1505
▁terri	-1506
▁Thomas	-1507
▁attend	-1508
▁génial	-1509
▁hommes	-1510
▁moment	-1511
▁normal	-1512
▁partie	-1513
▁sortir	-1514
▁vérifi	-1515
▁concent	-1516
▁faisait	-1517
▁honnête	-1518
▁réparer	-1519
▁problème	-1520
▁satisfait	-1521
▁Tranquille	-1522
▁incroyable	-1523
be	-1524
bé	-1525
gi	-1526
ss	-1527
xe	-1528
bas	-1529
cep	-1530
cip	-1531
cit	-1532
gné	-1533
noc	-1534
rig	-1535
éci	-1536
▁Em	-1537
▁nu	-1538
▁vé	-1539
bles	-1540
iles	-1541
lais	-1542
oupe	-1543
près	-1544
rimp	-1545
rées	-1546
teur	-1547
tons	-1548
uits	-1549
▁Ret	-1550
▁bar	-1551
▁can	-1552
▁fus	-1553
▁gra	-1554
▁pan	-1555
▁soi	-1556
ancer	-1557
encez	-1558
endue	-1559
illée	-1560
inard	-1561
ingue	-1562
jours	-1563
ombre	-1564
onctu	-1565
onnes	-1566
rivez	-1567
utile	-1568
▁Pard	-1569
▁Sais	-1570
▁batt	-1571
▁bras	-1572
▁chem	-1573
▁dern	-1574
▁doit	-1575
▁elle	-1576
▁mens	-1577
▁méri	-1578
▁naïf	-1579
▁paix	-1580
▁taqu	-1581
ouvert	-1582
▁Dites	-1583
▁Mange	-1584
▁avais	-1585
▁dîner	-1586
▁ennuy	-1587
▁fille	-1588
▁innoc	-1589
▁morts	-1590
▁objec	-1591
▁prêts	-1592
▁servi	-1593
▁spéci	-1594
▁ville	-1595
▁écrit	-1596
asseoir	-1597
importe	-1598
▁Dégage	-1599
▁Gardez	-1600
▁Mangez	-1601
▁arrêté	-1602
▁courag	-1603
▁danger	-1604
▁grossi	-1605
▁hurler	-1606
▁mignon	-1607
▁ponctu	-1608
▁répond	-1609
▁touche	-1610
▁trouve	-1611
▁Appelez	-1612
▁Asseyez	-1613
▁Reviens	-1614
▁devrais	-1615
▁nerveux	-1616
▁présent	-1617
▁regarde	-1618
▁sincère	-1619
▁sommeil	-1620
▁étaient	-1621
▁Demandez	-1622
▁conduire	-1623
▁fatiguée	-1624
▁mauvaise	-1625
▁meilleur	-1626
▁occupées	-1627
▁personne	-1628
▁souviens	-1629
▁toujours	-1630
▁Quiconque	-1631
né	-1632
ach	-1633
aig	-1634
aqu	-1635
ell	-1636
ffe	-1637
ges	-1638
jus	-1639
orc	-1640
ost	-1641
ots	-1642
sés	-1643
ves	-1644
vis	-1645
ache	-1646
cris	-1647
inée	-1648
même	-1649
onna	-1650
ttre	-1651
▁Sur	-1652
▁bal	-1653
▁bén	-1654
▁cra	-1655
▁cri	-1656
▁déf	-1657
▁dég	-1658
▁exp	-1659
▁hab	-1660
▁ira	-1661
▁lar	-1662
▁lis	-1663
▁nei	-1664
▁poi	-1665
▁sac	-1666
▁vit	-1667
▁vus	-1668
▁étr	-1669
enons	-1670
eugle	-1671
irons	-1672
sible	-1673
▁Vrai	-1674
▁Véri	-1675
▁appr	-1676
▁bate	-1677
▁coin	-1678
▁fera	-1679
▁loin	-1680
▁maig	-1681
▁mont	-1682
▁mour	-1683
▁nuit	-1684
▁phot	-1685
▁près	-1686
▁rais	-1687
▁sera	-1688
▁supp	-1689
arrête	-1690
issait	-1691
oiseau	-1692
ombien	-1693
urieux	-1694
▁Lâche	-1695
▁allez	-1696
▁après	-1697
▁déjeu	-1698
▁gagne	-1699
▁libre	-1700
▁naïve	-1701
▁passe	-1702
▁rendu	-1703
▁voici	-1704
▁étais	-1705
atement	-1706
▁Sortez	-1707
▁avocat	-1708
▁chemin	-1709
▁cheval	-1710
▁désolé	-1711
▁minute	-1712
▁patron	-1713
▁pleuré	-1714
▁prends	-1715
▁respec	-1716
▁trompé	-1717
▁échapp	-1718
▁Oubliez	-1719
▁attrapé	-1720
▁aveugle	-1721
▁comment	-1722
▁connaît	-1723
▁content	-1724
▁demandé	-1725
▁détendu	-1726
▁enseign	-1727
▁fallait	-1728
▁patient	-1729
▁prévenu	-1730
▁service	-1731
▁Attrapez	-1732
▁amoureux	-1733
▁cuisiner	-1734
▁gentille	-1735
▁contrarié	-1736
▁fonctionn	-1737
▁lentement	-1738
▁seulement	-1739
bi	-1740
hi	-1741
iv	-1742
fie	-1743
ira	-1744
ist	-1745
lac	-1746
oïs	-1747
raî	-1748
ylo	-1749
▁Ah	-1750
▁bo	-1751
▁bu	-1752
▁et	-1753
▁fl	-1754
▁pu	-1755
▁ra	-1756
▁év	-1757
aman	-1758
elui	-1759
enus	-1760
oses	-1761
ouse	-1762
reur	-1763
▁Aim	-1764
▁Cal	-1765
▁Lis	-1766
▁Mes	-1767
▁Sau	-1768
▁acc	-1769
▁arm	-1770
▁chi	-1771
▁fum	-1772
▁oui	-1773
▁pue	-1774
▁ron	-1775
▁rou	-1776
▁tat	-1777
▁tué	-1778
areil	-1779
juste	-1780
outez	-1781
▁Bien	-1782
▁Couv	-1783
▁Mets	-1784
▁Nett	-1785
▁Peut	-1786
▁Pous	-1787
▁amis	-1788
▁bais	-1789
▁ceux	-1790
▁cool	-1791
▁form	-1792
▁haut	-1793
▁même	-1794
▁neuf	-1795
▁pars	-1796
▁rire	-1797
▁soit	-1798
endons	-1799
espère	-1800
ormais	-1801
▁Bouge	-1802
▁Monte	-1803
▁amusé	-1804
▁bienv	-1805
▁boire	-1806
▁chanc	-1807
▁désol	-1808
▁flics	-1809
▁forme	-1810
▁fâché	-1811
▁grave	-1812
▁honte	-1813
▁morte	-1814
▁prend	-1815
▁reste	-1816
▁égoïs	-1817
entends	-1818
essayer	-1819
▁Entrez	-1820
▁Mettez	-1821
▁Montre	-1822
▁Oublie	-1823
▁bateau	-1824
▁chauss	-1825
▁dingue	-1826
▁détest	-1827
▁enfant	-1828
▁invité	-1829
▁manqué	-1830
▁oublié	-1831
▁perdus	-1832
▁pleure	-1833
▁portes	-1834
▁précip	-1835
▁quelle	-1836
▁rendre	-1837
▁talent	-1838
▁énervé	-1839
▁Faisons	-1840
▁attenti	-1841
▁certain	-1842
▁cheveux	-1843
▁demande	-1844
▁emporté	-1845
▁horreur	-1846
▁peuvent	-1847
▁préparé	-1848
▁raisonn	-1849
▁sembles	-1850
▁semblez	-1851
▁silenci	-1852
▁souvent	-1853
▁vieille	-1854
▁Apportez	-1855
▁déjeuner	-1856
▁retraite	-1857
▁heureuses	-1858
▁Verrouille	-1859
▁contrariée	-1860
bu	-1861
zz	-1862
él	-1863
agu	-1864
cul	-1865
dem	-1866
env	-1867
ifi	-1868
isc	-1869
pos	-1870
ret	-1871
ric	-1872
vée	-1873
▁Te	-1874
▁il	-1875
alis	-1876
alut	-1877
apon	-1878
ides	-1879
ingu	-1880
médi	-1881
olie	-1882
otes	-1883
rich	-1884
érer	-1885
▁Auc	-1886
▁Emb	-1887
▁Ser	-1888
▁Vas	-1889
▁ble	-1890
▁cer	-1891
▁fam	-1892
▁fis	-1893
▁fle	-1894
▁hid	-1895
▁lic	-1896
▁loi	-1897
▁mec	-1898
▁pap	-1899
▁pét	-1900
▁Étu	-1901
aband	-1902
ainte	-1903
ancez	-1904
ateur	-1905
ature	-1906
encié	-1907
entôt	-1908
fléch	-1909
onnée	-1910
oston	-1911
ourne	-1912
uisez	-1913
venez	-1914
▁Ceci	-1915
▁bois	-1916
▁bruy	-1917
▁déjà	-1918
▁gâte	-1919
▁join	-1920
▁jume	-1921
▁lace	-1922
▁port	-1923
▁sang	-1924
▁sûre	-1925
▁veul	-1926
▁vues	-1927
onnais	-1928
étique	-1929
▁Grimp	-1930
▁Salut	-1931
▁avant	-1932
▁belle	-1933
▁celle	-1934
▁celui	-1935
▁charm	-1936
▁choue	-1937
▁cours	-1938
▁crois	-1939
▁ennem	-1940
▁marié	-1941
▁photo	-1942
▁rouge	-1943
▁survi	-1944
arrêter	-1945
▁Boston	-1946
▁Essaye	-1947
▁Trouve	-1948
▁avions	-1949
▁chauve	-1950
▁envoyé	-1951
▁espoir	-1952
▁immédi	-1953
▁oiseau	-1954
▁positi	-1955
▁promis	-1956
▁propre	-1957
▁savoir	-1958
▁tatill	-1959
▁volont	-1960
▁Écoute	-1961
▁Combien	-1962
▁Détends	-1963
▁bientôt	-1964
▁compris	-1965
▁famille	-1966
▁injuste	-1967
▁laissée	-1968
▁poursui	-1969
▁rentrer	-1970
▁reposer	-1971
▁sentait	-1972
▁souhait	-1973
▁veulent	-1974
▁voulait	-1975
extérieur	-1976
▁commencé	-1977
▁coupable	-1978
▁demander	-1979
▁licencié	-1980
▁maigrich	-1981
▁parviens	-1982
▁préoccup	-1983
▁désormais	-1984
▁immédiatement	-1985
du	-1986
if	-1987
év	-1988
aud	-1989
die	-1990
erp	-1991
itu	-1992
jet	-1993
lic	-1994
ris	-1995
til	-1996
tié	-1997
ufs	-1998
urs	-1999
ype	-2000
éra	-2001
ages	-2002
anse	-2003
bres	-2004
dans	-2005
guée	-2006
ient	-2007
inez	-2008
itée	-2009
ouez	-2010
reux	-2011
riez	-2012
rire	-2013
terr	-2014
tive	-2015
âmes	-2016
çons	-2017
émor	-2018
▁Exp	-2019
▁Fin	-2020
▁Ign	-2021
▁aid	-2022
▁ami	-2023
▁cau	-2024
▁fen	-2025
▁inc	-2026
▁obs	-2027
▁ses	-2028
▁écr	-2029
aille	-2030
appel	-2031
arriv	-2032
avate	-2033
esser	-2034
loche	-2035
ouver	-2036
oyons	-2037
quide	-2038
▁Bois	-2039
▁Sors	-2040
▁Tous	-2041
▁bête	-2042
▁cade	-2043
▁cing	-2044
▁cous	-2045
▁crie	-2046
▁dure	-2047
▁gard	-2048
▁ivre	-2049
▁lait	-2050
▁levé	-2051
▁loup	-2052
▁noir	-2053
▁piég	-2054
▁poli	-2055
▁père	-2056
▁ronf	-2057
▁rêve	-2058
▁soif	-2059
▁soul	-2060
▁tien	-2061
▁type	-2062
▁vent	-2063
▁viré	-2064
▁vont	-2065
▁voté	-2066
▁vélo	-2067
cement	-2068
erreur	-2069
ingues	-2070
vement	-2071
verrou	-2072
▁Accro	-2073
▁Aimez	-2074
▁Entre	-2075
▁Fiche	-2076
▁Jetez	-2077
▁Lisez	-2078
▁Mémor	-2079
▁aimes	-2080
▁aucun	-2081
▁battu	-2082
▁bouge	-2083
▁chans	-2084
▁coinc	-2085
▁contr	-2086
▁exact	-2087
▁gratu	-2088
▁jouer	-2089
▁matin	-2090
▁neige	-2091
▁nôtre	-2092
▁pause	-2093
▁piège	-2094
▁rigol	-2095
▁santé	-2096
▁souff	-2097
▁sourd	-2098
▁sourn	-2099
▁stylo	-2100
▁sépar	-2101
▁terre	-2102
▁trahi	-2103
▁voilà	-2104
▁vôtre	-2105
▁Avance	-2106
▁Ignore	-2107
▁Parlez	-2108
▁Rendez	-2109
▁accord	-2110
▁amusée	-2111
▁arrive	-2112
▁battre	-2113
▁bouger	-2114
▁changé	-2115
▁demain	-2116
▁devoir	-2117
▁frappé	-2118
▁grosse	-2119
▁guerre	-2120
▁idiote	-2121
▁mentir	-2122
▁parais	-2123
▁parole	-2124
▁savons	-2125
▁simple	-2126
▁surviv	-2127
▁trente	-2128
aimerais	-2129
emporter	-2130
▁Choisis	-2131
▁Décampe	-2132
▁Montrez	-2133
▁blessée	-2134
▁changer	-2135
▁courant	-2136
▁cravate	-2137
▁cuisine	-2138
▁embrass	-2139
▁endormi	-2140
▁fenêtre	-2141
▁musique	-2142
▁regardé	-2143
▁veinard	-2144
▁égoïste	-2145
▁étrange	-2146
▁Réveille	-2147
▁Vraiment	-2148
▁chouette	-2149
▁entendre	-2150
▁malheure	-2151
▁prévenue	-2152
▁regarder	-2153
▁sournois	-2154
▁Commencez	-2155
▁Descendez	-2156
▁amoureuse	-2157
▁comprends	-2158
▁plaisante	-2159
▁téléphoné	-2160
▁plaisantes	-2161
▁plaisantez	-2162
▁silencieux	-2163
▁Verrouillez	-2164
▁fonctionnera	-2165
ig	-2166
âl	-2167
çu	-2168
ath	-2169
bat	-2170
can	-2171
cré	-2172
dic	-2173
fié	-2174
gil	-2175
mez	-2176
mps	-2177
oix	-2178
rin	-2179
tée	-2180
xim	-2181
éli	-2182
▁Bu	-2183
▁dû	-2184
▁ga	-2185
▁ju	-2186
▁mê	-2187
▁po	-2188
▁ru	-2189
▁rè	-2190
aign	-2191
aver	-2192
ball	-2193
chés	-2194
comm	-2195
enir	-2196
inte	-2197
isse	-2198
oite	-2199
oyer	-2200
rand	-2201
tant	-2202
tice	-2203
usez	-2204
uyez	-2205
vres	-2206
îmes	-2207
▁Goû	-2208
▁Moi	-2209
▁Non	-2210
▁Sui	-2211
▁Tra	-2212
▁arn	-2213
▁cho	-2214
▁cul	-2215
▁dél	-2216
▁lun	-2217
▁mag	-2218
▁pat	-2219
▁pau	-2220
▁riz	-2221
▁sol	-2222
▁tre	-2223
▁éve	-2224
angue	-2225
arqué	-2226
culez	-2227
guerp	-2228
illés	-2229
inqui	-2230
ister	-2231
libat	-2232
ouler	-2233
quipe	-2234
temps	-2235
tions	-2236
▁Cond	-2237
▁Quoi	-2238
▁Sans	-2239
▁actu	-2240
▁arri	-2241
▁bleu	-2242
▁choc	-2243
▁fant	-2244
▁ferm	-2245
▁foot	-2246
▁four	-2247
▁fous	-2248
▁géné	-2249
▁impr	-2250
▁jamb	-2251
▁joli	-2252
▁long	-2253
▁mari	-2254
▁moin	-2255
▁moti	-2256
▁pari	-2257
▁pass	-2258
▁prin	-2259
▁proc	-2260
▁prod	-2261
▁préf	-2262
▁recr	-2263
▁siff	-2264
▁sors	-2265
▁vole	-2266
ennuie	-2267
idable	-2268
tionné	-2269
ximité	-2270
▁Aimes	-2271
▁Aucun	-2272
▁Buvez	-2273
▁Quand	-2274
▁aille	-2275
▁arrog	-2276
▁clair	-2277
▁cruel	-2278
▁crédu	-2279
▁devez	-2280
▁droit	-2281
▁dégoû	-2282
▁flexi	-2283
▁forte	-2284
▁immob	-2285
▁lacet	-2286
▁liste	-2287
▁malin	-2288
▁pitié	-2289
▁rican	-2290
▁rêver	-2291
▁seuls	-2292
▁suivi	-2293
▁surpr	-2294
▁table	-2295
▁tasse	-2296
▁tombé	-2297
▁toute	-2298
▁vends	-2299
▁vigil	-2300
▁écras	-2301
arriver	-2302
iendrai	-2303
▁Cassez	-2304
▁Cessez	-2305
▁Lâchez	-2306
▁Recomm	-2307
▁Rentre	-2308
▁Suivez	-2309
▁aimons	-2310
▁argent	-2311
▁autour	-2312
▁cadeau	-2313
▁cancer	-2314
▁chatte	-2315
▁cloche	-2316
▁compte	-2317
▁dispar	-2318
▁emploi	-2319
▁engagé	-2320
▁erreur	-2321
▁excusé	-2322
▁fallut	-2323
▁gâteau	-2324
▁import	-2325
▁langue	-2326
▁mercis	-2327
▁mesure	-2328
▁perdue	-2329
▁petite	-2330
▁quitté	-2331
▁risque	-2332
▁touché	-2333
▁échoué	-2334
▁Devrais	-2335
▁Déguerp	-2336
▁Revenez	-2337
▁Vérifie	-2338
▁adorent	-2339
▁chanson	-2340
▁command	-2341
▁compter	-2342
▁célibat	-2343
▁deviens	-2344
▁dingues	-2345
▁décider	-2346
▁dérange	-2347
▁désolée	-2348
▁faisons	-2349
▁justice	-2350
▁liquide	-2351
▁méchant	-2352
▁spécial	-2353
▁voulais	-2354
▁Commence	-2355
▁Descends	-2356
▁Essayons	-2357
▁devrions	-2358
▁discuter	-2359
▁dépêcher	-2360
▁possible	-2361
▁pourrais	-2362
▁ressenti	-2363
▁vérifier	-2364
▁courageux	-2365
▁proximité	-2366
▁paresseuse	-2367
▁rapidement	-2368
▁célibataire	-2369
▁malchanceux	-2370
▁raisonnable	-2371
▁Déguerpissez	-2372
ié	-2373
ps	-2374
yc	-2375
ze	-2376
éd	-2377
adm	-2378
agi	-2379
arm	-2380
cha	-2381
cid	-2382
enf	-2383
lat	-2384
obé	-2385
olf	-2386
oré	-2387
ras	-2388
tie	-2389
uté	-2390
zza	-2391
ède	-2392
èle	-2393
▁ap	-2394
▁gl	-2395
▁rh	-2396
arti	-2397
assi	-2398
ayez	-2399
dess	-2400
laud	-2401
mble	-2402
oisi	-2403
oter	-2404
ourv	-2405
quin	-2406
tiez	-2407
uite	-2408
ures	-2409
usée	-2410
util	-2411
uves	-2412
vorc	-2413
âlin	-2414
èvre	-2415
ûmes	-2416
▁Esp	-2417
▁Ins	-2418
▁Son	-2419
▁abs	-2420
▁ain	-2421
▁bas	-2422
▁boî	-2423
▁bre	-2424
▁but	-2425
▁buv	-2426
▁cle	-2427
▁coû	-2428
▁dév	-2429
▁fit	-2430
▁gau	-2431
▁giv	-2432
▁goû	-2433
▁lap	-2434
▁mor	-2435
▁mét	-2436
▁off	-2437
▁pop	-2438
▁rit	-2439
▁sal	-2440
▁vac	-2441
▁vil	-2442
abord	-2443
chons	-2444
cordi	-2445
enait	-2446
ensez	-2447
entez	-2448
isant	-2449
liqué	-2450
otest	-2451
oulez	-2452
ouvez	-2453
ressi	-2454
terai	-2455
toire	-2456
ureau	-2457
écart	-2458
▁Lève	-2459
▁annu	-2460
▁armé	-2461
▁avis	-2462
▁bisc	-2463
▁boit	-2464
▁chef	-2465
▁conv	-2466
▁célè	-2467
▁fout	-2468
▁golf	-2469
▁indi	-2470
▁mecs	-2471
▁paie	-2472
▁parv	-2473
▁rend	-2474
▁régi	-2475
▁sien	-2476
▁suiv	-2477
▁vers	-2478
▁volé	-2479
espoir	-2480
esseur	-2481
ournez	-2482
parais	-2483
▁Mille	-2484
▁Rends	-2485
▁Savez	-2486
▁Serre	-2487
▁ainsi	-2488
▁apeur	-2489
▁autre	-2490
▁boiss	-2491
▁bruit	-2492
▁brûlé	-2493
▁choix	-2494
▁câlin	-2495
▁excit	-2496
▁impit	-2497
▁jusqu	-2498
▁mince	-2499
▁mordu	-2500
▁ordre	-2501
▁pense	-2502
▁perds	-2503
▁pizza	-2504
▁plait	-2505
▁proch	-2506
▁quest	-2507
▁rhume	-2508
▁soupe	-2509
▁tirer	-2510
▁trans	-2511
▁Écris	-2512
▁Étais	-2513
▁Étiez	-2514
▁écout	-2515
astique	-2516
onnaiss	-2517
terromp	-2518
▁Chante	-2519
▁Montez	-2520
▁Passez	-2521
▁Toutes	-2522
▁bonnes	-2523
▁bureau	-2524
▁calmes	-2525
▁celles	-2526
▁cesser	-2527
▁chante	-2528
▁chanté	-2529
▁choses	-2530
▁cinglé	-2531
▁coffre	-2532
▁confec	-2533
▁confus	-2534
▁corrig	-2535
▁cuisin	-2536
▁discre	-2537
▁disput	-2538
▁divorc	-2539
▁donner	-2540
▁douche	-2541
▁drogué	-2542
▁folles	-2543
▁fruits	-2544
▁hideux	-2545
▁jeunes	-2546
▁largué	-2547
▁libres	-2548
▁miséri	-2549
▁mortes	-2550
▁mérité	-2551
▁ouvert	-2552
▁partis	-2553
▁pauvre	-2554
▁prenez	-2555
▁quitte	-2556
▁retour	-2557
▁riches	-2558
▁ronfle	-2559
▁répons	-2560
▁savais	-2561
▁secret	-2562
▁serais	-2563
▁seules	-2564
▁sienne	-2565
▁sombre	-2566
▁sortie	-2567
▁souris	-2568
▁tombée	-2569
▁trahie	-2570
▁équipe	-2571
▁Bonjour	-2572
▁Couvrez	-2573
▁Reculez	-2574
▁bonjour	-2575
▁clément	-2576
▁conduis	-2577
▁creuser	-2578
▁dernier	-2579
▁disparu	-2580
▁dépourv	-2581
▁impliqu	-2582
▁jalouse	-2583
▁manière	-2584
▁miennes	-2585
▁oiseaux	-2586
▁preuves	-2587
▁protest	-2588
▁préfère	-2589
▁sentais	-2590
▁sourire	-2591
▁Écoutez	-2592
▁Écrivez	-2593
abandonne	-2594
▁Décampez	-2595
▁adorable	-2596
▁affaires	-2597
▁chanceux	-2598
▁innocent	-2599
▁ponctuel	-2600
▁prudents	-2601
▁rappelle	-2602
▁respectu	-2603
▁semblait	-2604
▁terminée	-2605
▁terrible	-2606
▁Disparais	-2607
▁abandonné	-2608
▁important	-2609
▁meilleure	-2610
▁printemps	-2611
▁prudentes	-2612
▁Choisissez	-2613
▁connaissez	-2614
▁fonctionne	-2615
▁malheureux	-2616
▁plaisanter	-2617
▁professeur	-2618
▁reconnaiss	-2619
▁volontaire	-2620
▁miséricordi	-2621
▁actuellement	-2622
▁confectionné	-2623
▁attentivement	-2624
mu	-2625
ail	-2626
asp	-2627
avi	-2628
avo	-2629
cte	-2630
exp	-2631
gén	-2632
let	-2633
lée	-2634
oux	-2635
oya	-2636
ple	-2637
rép	-2638
tif	-2639
uve	-2640
èce	-2641
égé	-2642
ôté	-2643
▁Ab	-2644
▁bâ	-2645
▁pâ	-2646
▁té	-2647
abri	-2648
achè	-2649
agez	-2650
ains	-2651
angé	-2652
anou	-2653
aqué	-2654
arez	-2655
arme	-2656
cité	-2657
ensé	-2658
fiée	-2659
form	-2660
gles	-2661
gnez	-2662
iser	-2663
llez	-2664
oint	-2665
pire	-2666
quit	-2667
rect	-2668
rill	-2669
tuci	-2670
uiss	-2671
émie	-2672
ômes	-2673
▁Déb	-2674
▁Enf	-2675
▁Pos	-2676
▁Ram	-2677
▁aur	-2678
▁ban	-2679
▁cas	-2680
▁ces	-2681
▁cli	-2682
▁dir	-2683
▁dix	-2684
▁fid	-2685
▁gro	-2686
▁ind	-2687
▁lég	-2688
▁mot	-2689
▁moy	-2690
▁rét	-2691
▁sex	-2692
▁tru	-2693
▁vou	-2694
▁vôt	-2695
▁âgé	-2696
choir	-2697
derai	-2698
ennui	-2699
enses	-2700
gment	-2701
gnard	-2702
hiver	-2703
ident	-2704
iette	-2705
lions	-2706
onnel	-2707
oubli	-2708
oyeux	-2709
seoir	-2710
sions	-2711
table	-2712
tures	-2713
▁Comp	-2714
▁Cons	-2715
▁Reti	-2716
▁Sens	-2717
▁Séri	-2718
▁Vide	-2719
▁amic	-2720
▁barb	-2721
▁bons	-2722
▁bord	-2723
▁cami	-2724
▁coop	-2725
▁côté	-2726
▁dépê	-2727
▁fich	-2728
▁font	-2729
▁gens	-2730
▁grim	-2731
▁hais	-2732
▁jour	-2733
▁laid	-2734
▁lève	-2735
▁mère	-2736
▁nage	-2737
▁pani	-2738
▁papa	-2739
▁parl	-2740
▁path	-2741
▁pois	-2742
▁poup	-2743
▁préc	-2744
▁remu	-2745
▁réal	-2746
▁sort	-2747
▁vend	-2748
▁vint	-2749
▁voix	-2750
agnifi	-2751
amment	-2752
attend	-2753
ençons	-2754
ffaire	-2755
issons	-2756
mettre	-2757
onnons	-2758
ourage	-2759
oureux	-2760
outeau	-2761
énager	-2762
▁Aband	-2763
▁Amuse	-2764
▁Amène	-2765
▁Bravo	-2766
▁Casse	-2767
▁Cesse	-2768
▁Cette	-2769
▁Jette	-2770
▁allés	-2771
▁assur	-2772
▁blagu	-2773
▁brill	-2774
▁brève	-2775
▁connu	-2776
▁conse	-2777
▁coupé	-2778
▁danse	-2779
▁déloy	-2780
▁enfui	-2781
▁envie	-2782
▁fallu	-2783
▁fumer	-2784
▁gaffe	-2785
▁ingén	-2786
▁japon	-2787
▁lundi	-2788
▁miens	-2789
▁pieds	-2790
▁piégé	-2791
▁purit	-2792
▁saint	-2793
▁sauvé	-2794
▁savez	-2795
▁sucré	-2796
▁tourn	-2797
▁verti	-2798
▁Étudi	-2799
▁épuis	-2800
appeler	-2801
istoire	-2802
oyables	-2803
▁Grimpe	-2804
▁Marche	-2805
▁Recule	-2806
▁Répond	-2807
▁Serrez	-2808
▁Soyons	-2809
▁Travai	-2810
▁Voulez	-2811
▁abattu	-2812
▁acheté	-2813
▁appell	-2814
▁assise	-2815
▁astuci	-2816
▁attaqu	-2817
▁bougez	-2818
▁bourré	-2819
▁cassée	-2820
▁claire	-2821
▁conclu	-2822
▁consci	-2823
▁dispon	-2824
▁dispos	-2825
▁droite	-2826
▁défait	-2827
▁fiable	-2828
▁impati	-2829
▁intrép	-2830
▁jambes	-2831
▁laissa	-2832
▁livres	-2833
▁partit	-2834
▁perple	-2835
▁procès	-2836
▁rentré	-2837
▁revenu	-2838
▁règles	-2839
▁régime	-2840
▁sauvés	-2841
▁savait	-2842
▁soucie	-2843
▁soulag	-2844
▁sourit	-2845
▁tourne	-2846
▁tranqu	-2847
▁triché	-2848
▁trompe	-2849
▁vaches	-2850
▁verrou	-2851
▁viande	-2852
▁vivant	-2853
▁voulez	-2854
▁voyait	-2855
▁vôtres	-2856
appareil	-2857
eusement	-2858
inquiète	-2859
▁Conduis	-2860
▁Poussez	-2861
▁Trouvez	-2862
▁affaire	-2863
▁arrière	-2864
▁arrêtez	-2865
▁asseoir	-2866
▁blessés	-2867
▁conduit	-2868
▁convain	-2869
▁couteau	-2870
▁créatif	-2871
▁crédule	-2872
▁curieux	-2873
▁célèbre	-2874
▁furieux	-2875
▁gratuit	-2876
▁impuiss	-2877
▁instant	-2878
▁inutile	-2879
▁joindre	-2880
▁laissés	-2881
▁manquer	-2882
▁menteur	-2883
▁minable	-2884
▁mouillé	-2885
▁paierai	-2886
▁partons	-2887
▁perdues	-2888
▁positif	-2889
▁pousser	-2890
▁prenons	-2891
▁quittez	-2892
▁respons	-2893
▁siffler	-2894
▁souffre	-2895
▁télévis	-2896
▁échappé	-2897
▁éveillé	-2898
agnifique	-2899
▁Dépêchez	-2900
▁Nettoyez	-2901
▁apprécie	-2902
▁bienvenu	-2903
▁détendue	-2904
▁embrassé	-2905
▁fatigués	-2906
▁football	-2907
▁grossier	-2908
▁immobile	-2909
▁laissées	-2910
▁mouchoir	-2911
▁méchante	-2912
▁nerveuse	-2913
▁poignard	-2914
▁poissons	-2915
▁poursuiv	-2916
▁puissant	-2917
▁remarqué	-2918
▁répondre	-2919
▁résister	-2920
▁vigilant	-2921
▁Attention	-2922
▁Surveille	-2923
▁chaussure	-2924
▁commencer	-2925
▁continuer	-2926
▁doucement	-2927
▁imprudent	-2928
▁nouvelles	-2929
▁paraissez	-2930
▁réveillée	-2931
▁Commençons	-2932
▁changement	-2933
▁connaissons	-2934
▁tranquilles	-2935
▁malchanceuse	-2936
ao	-2937
ay	-2938
et	-2939
yp	-2940
ïe	-2941
abl	-2942
acé	-2943
aly	-2944
ats	-2945
bil	-2946
eff	-2947
emm	-2948
gez	-2949
hab	-2950
lam	-2951
man	-2952
oll	-2953
pes	-2954
red	-2955
ron	-2956
run	-2957
tur	-2958
tus	-2959
uss	-2960
ème	-2961
été	-2962
▁Ta	-2963
▁ho	-2964
▁où	-2965
▁tê	-2966
acle	-2967
acun	-2968
addi	-2969
aira	-2970
biti	-2971
eule	-2972
eurt	-2973
fiez	-2974
ienn	-2975
iflé	-2976
imag	-2977
itez	-2978
lète	-2979
mets	-2980
obre	-2981
ombe	-2982
oncé	-2983
onge	-2984
orée	-2985
otez	-2986
oulé	-2987
quie	-2988
rict	-2989
rier	-2990
rine	-2991
roit	-2992
ront	-2993
sède	-2994
tait	-2995
teau	-2996
ttes	-2997
udie	-2998
uyer	-2999
vite	-3000
voyé	-3001
vécu	-3002
èche	-3003
▁Brû	-3004
▁Dém	-3005
▁Dés	-3006
▁Fil	-3007
▁Peu	-3008
▁Rep	-3009
▁Ton	-3010
▁adm	-3011
▁bag	-3012
▁bol	-3013
▁car	-3014
▁cet	-3015
▁dos	-3016
▁eue	-3017
▁eux	-3018
▁fié	-3019
▁gam	-3020
▁gav	-3021
▁hau	-3022
▁ign	-3023
▁met	-3024
▁mit	-3025
▁nez	-3026
▁néc	-3027
▁pag	-3028
▁raf	-3029
▁ras	-3030
▁rat	-3031
▁rom	-3032
▁sci	-3033
▁ser	-3034
▁sir	-3035
▁six	-3036
alysé	-3037
anter	-3038
chées	-3039
corde	-3040
elaxe	-3041
ercie	-3042
eront	-3043
iaque	-3044
ignez	-3045
irait	-3046
istre	-3047
lacez	-3048
lette	-3049
leurs	-3050
olent	-3051
ousse	-3052
reuse	-3053
vient	-3054
xique	-3055
▁Ceux	-3056
▁Fous	-3057
▁Lave	-3058
▁Noue	-3059
▁Prép	-3060
▁Rapp	-3061
▁Remp	-3062
▁Tire	-3063
▁Trop	-3064
▁Veux	-3065
▁amie	-3066
▁anim	-3067
▁bain	-3068
▁bref	-3069
▁chic	-3070
▁clef	-3071
▁comb	-3072
▁desc	-3073
▁diab	-3074
▁donc	-3075
▁doul	-3076
▁dégu	-3077
▁détr	-3078
▁ence	-3079
▁envi	-3080
▁faci	-3081
▁fond	-3082
▁fête	-3083
▁gras	-3084
▁inté	-3085
▁leur	-3086
▁lieu	-3087
▁mine	-3088
▁mots	-3089
▁pays	-3090
▁poil	-3091
▁prix	-3092
▁rema	-3093
▁reçu	-3094
▁sale	-3095
▁sexy	-3096
▁soli	-3097
▁surv	-3098
▁sûrs	-3099
▁tire	-3100
▁vain	-3101
▁éche	-3102
▁égal	-3103
▁étou	-3104
aimons	-3105
anteau	-3106
atique	-3107
attrap	-3108
bécile	-3109
dedans	-3110
dessus	-3111
entraî	-3112
faites	-3113
import	-3114
issant	-3115
rochez	-3116
▁Cours	-3117
▁Grand	-3118
▁Lance	-3119
▁Lavez	-3120
▁Maman	-3121
▁Notre	-3122
▁absur	-3123
▁accep	-3124
▁affam	-3125
▁agité	-3126
▁alarm	-3127
▁amies	-3128
▁armés	-3129
▁balle	-3130
▁banan	-3131
▁bombe	-3132
▁bouch	-3133
▁boîte	-3134
▁brave	-3135
▁canad	-3136
▁choqu	-3137
▁congé	-3138
▁discr	-3139
▁doute	-3140
▁délic	-3141
▁embau	-3142
▁engag	-3143
▁entré	-3144
▁fianc	-3145
▁finie	-3146
▁finir	-3147
▁grass	-3148
▁grond	-3149
▁guéri	-3150
▁intri	-3151
▁jolie	-3152
▁jours	-3153
▁lever	-3154
▁loupé	-3155
▁malad	-3156
▁maman	-3157
▁merdé	-3158
▁meurs	-3159
▁meurt	-3160
▁notes	-3161
▁pièce	-3162
▁plans	-3163
▁pleuv	-3164
▁plomb	-3165
▁popul	-3166
▁rends	-3167
▁sûres	-3168
▁tenté	-3169
▁témoi	-3170
▁utile	-3171
▁Était	-3172
▁énerv	-3173
▁équit	-3174
affaire	-3175
essaire	-3176
iennent	-3177
ilateur	-3178
onnette	-3179
tilisez	-3180
▁Amenez	-3181
▁Amusez	-3182
▁Calmez	-3183
▁Débarr	-3184
▁Fichez	-3185
▁Pardon	-3186
▁Pensez	-3187
▁Pousse	-3188
▁Relaxe	-3189
▁accomp	-3190
▁ailles	-3191
▁aiment	-3192
▁allées	-3193
▁ambiti	-3194
▁annulé	-3195
▁apeuré	-3196
▁baissé	-3197
▁bouche	-3198
▁caméra	-3199
▁chasse	-3200
▁devint	-3201
▁différ	-3202
▁direct	-3203
▁débile	-3204
▁débrou	-3205
▁décidé	-3206
▁désesp	-3207
▁détend	-3208
▁femmes	-3209
▁fidèle	-3210
▁fièvre	-3211
▁fleurs	-3212
▁grands	-3213
▁gueule	-3214
▁idiots	-3215
▁inquie	-3216
▁jaloux	-3217
▁laisse	-3218
▁minuti	-3219
▁mordre	-3220
▁nombre	-3221
▁parlez	-3222
▁partez	-3223
▁plaira	-3224
▁pleine	-3225
▁pleura	-3226
▁pousse	-3227
▁preuve	-3228
▁précis	-3229
▁raccro	-3230
▁refusé	-3231
▁rendez	-3232
▁revoir	-3233
▁ricané	-3234
▁rouler	-3235
▁sauvée	-3236
▁serons	-3237
▁strict	-3238
▁taille	-3239
▁vanter	-3240
▁visite	-3241
▁volant	-3242
▁vérité	-3243
▁écrire	-3244
addition	-3245
agissait	-3246
lètement	-3247
▁Accorde	-3248
▁Avancez	-3249
▁Dépêche	-3250
▁Nettoie	-3251
▁Peuvent	-3252
▁Réfléch	-3253
▁acheter	-3254
▁adorons	-3255
▁approuv	-3256
▁arrivés	-3257
▁bruyant	-3258
▁chienne	-3259
▁contact	-3260
▁correct	-3261
▁courage	-3262
▁crainte	-3263
▁droguée	-3264
▁dérangé	-3265
▁excusée	-3266
▁faibles	-3267
▁garçons	-3268
▁grandes	-3269
▁importe	-3270
▁jumeaux	-3271
▁manteau	-3272
▁possède	-3273
▁pouvais	-3274
▁profond	-3275
▁raciste	-3276
▁renvoyé	-3277
▁réfléch	-3278
▁réservé	-3279
▁silence	-3280
▁suppose	-3281
▁surpris	-3282
▁survécu	-3283
▁séparés	-3284
▁talentu	-3285
▁toucher	-3286
▁touchée	-3287
▁Étudiez	-3288
achèterai	-3289
terrompre	-3290
▁Accroche	-3291
▁Détendez	-3292
▁Déverrou	-3293
▁Mémorise	-3294
▁Oublions	-3295
▁Pardonne	-3296
▁Retourne	-3297
▁appareil	-3298
▁apprécié	-3299
▁arrivent	-3300
▁charmant	-3301
▁commande	-3302
▁contente	-3303
▁continué	-3304
▁contrôle	-3305
▁créative	-3306
▁disputer	-3307
▁enceinte	-3308
▁endormie	-3309
▁ensemble	-3310
▁excitant	-3311
▁généreux	-3312
▁impressi	-3313
▁marchera	-3314
▁mensonge	-3315
▁mignonne	-3316
▁médecins	-3317
▁paralysé	-3318
▁parfaite	-3319
▁pleurait	-3320
▁prendrai	-3321
▁présenté	-3322
▁question	-3323
▁remercie	-3324
▁souhaite	-3325
▁trouille	-3326
▁vertiges	-3327
▁vieilles	-3328
▁viendrai	-3329
▁Retournez	-3330
▁cuisinier	-3331
▁effrayant	-3332
▁fatiguées	-3333
▁grossière	-3334
▁intrépide	-3335
▁nerveuses	-3336
▁pourrions	-3337
▁chaussures	-3338
▁diabétique	-3339
▁disponible	-3340
▁douloureux	-3341
▁facilement	-3342
▁fonctionné	-3343
▁formidable	-3344
▁nécessaire	-3345
▁pathétique	-3346
▁rencontrer	-3347
▁rencontrés	-3348
▁reviendrai	-3349
▁satisfaits	-3350
▁télévision	-3351
▁camionnette	-3352
▁connaissent	-3353
▁responsable	-3354
▁travaillent	-3355
▁ventilateur	-3356
▁complètement	-3357
..	-3358
fu	-3359
ma	-3360
ng	-3361
ru	-3362
ug	-3363
amn	-3364
ann	-3365
arg	-3366
auc	-3367
ber	-3368
ces	-3369
cyc	-3370
dez	-3371
dio	-3372
dis	-3373
dit	-3374
ect	-3375
euc	-3376
exc	-3377
iao	-3378
idé	-3379
inq	-3380
jou	-3381
lue	-3382
oci	-3383
ogg	-3384
one	-3385
org	-3386
tro	-3387
uff	-3388
umé	-3389
usa	-3390
vés	-3391
çue	-3392
èse	-3393
éan	-3394
éré	-3395
ôme	-3396
▁Ag	-3397
▁CD	-3398
▁Cr	-3399
▁Et	-3400
▁Oh	-3401
▁Ri	-3402
▁Sa	-3403
▁Su	-3404
▁be	-3405
▁bé	-3406
▁ci	-3407
▁ha	-3408
▁ja	-3409
▁on	-3410
▁râ	-3411
adap	-3412
ador	-3413
aill	-3414
ainé	-3415
ambi	-3416
appr	-3417
armé	-3418
asin	-3419
asth	-3420
comp	-3421
culi	-3422
idée	-3423
iers	-3424
ines	-3425
isée	-3426
lant	-3427
lève	-3428
mbre	-3429
mett	-3430
oies	-3431
onté	-3432
osse	-3433
oule	-3434
ouée	-3435
piré	-3436
quet	-3437
reus	-3438
ribu	-3439
rige	-3440
rimé	-3441
ruti	-3442
sons	-3443
suis	-3444
tenu	-3445
vons	-3446
éléb	-3447
érir	-3448
érée	-3449
▁Bou	-3450
▁Déf	-3451
▁Exc	-3452
▁Gén	-3453
▁Imp	-3454
▁Ont	-3455
▁Oui	-3456
▁Rés	-3457
▁Sce	-3458
▁Sec	-3459
▁Sou	-3460
▁Tue	-3461
▁art	-3462
▁com	-3463
▁cop	-3464
▁dal	-3465
▁fac	-3466
▁fix	-3467
▁gal	-3468
▁gui	-3469
▁gém	-3470
▁hon	-3471
▁las	-3472
▁nau	-3473
▁nue	-3474
▁out	-3475
▁pil	-3476
▁pru	-3477
▁rég	-3478
▁sin	-3479
▁sus	-3480
▁ten	-3481
▁éte	-3482
achez	-3483
aimes	-3484
aisse	-3485
aller	-3486
allon	-3487
amuse	-3488
ances	-3489
anges	-3490
antez	-3491
asser	-3492
attez	-3493
autre	-3494
daire	-3495
demne	-3496
entir	-3497
envie	-3498
essai	-3499
ignet	-3500
ignor	-3501
iller	-3502
inent	-3503
inéma	-3504
iques	-3505
ières	-3506
meaux	-3507
oient	-3508
oleil	-3509
ottes	-3510
ouris	-3511
rayon	-3512
ressé	-3513
rient	-3514
terre	-3515
udier	-3516
ulman	-3517
umeur	-3518
urent	-3519
éfait	-3520
ériel	-3521
érons	-3522
étage	-3523
▁Ayez	-3524
▁Ciao	-3525
▁Détr	-3526
▁Embr	-3527
▁Fant	-3528
▁File	-3529
▁Form	-3530
▁Grou	-3531
▁Joue	-3532
▁Nour	-3533
▁Rent	-3534
▁Renv	-3535
▁Tais	-3536
▁Trad	-3537
▁Tuez	-3538
▁agré	-3539
▁ange	-3540
▁atte	-3541
▁bagu	-3542
▁bron	-3543
▁crac	-3544
▁crié	-3545
▁cédé	-3546
▁dent	-3547
▁dist	-3548
▁extr	-3549
▁face	-3550
▁film	-3551
▁flic	-3552
▁fume	-3553
▁gasp	-3554
▁géni	-3555
▁hale	-3556
▁hors	-3557
▁inut	-3558
▁jogg	-3559
▁joué	-3560
▁leuc	-3561
▁lune	-3562
▁mise	-3563
▁mouv	-3564
▁mêle	-3565
▁nett	-3566
▁note	-3567
▁obéi	-3568
▁ouïe	-3569
▁pein	-3570
▁pens	-3571
▁pipe	-3572
▁pété	-3573
▁rapp	-3574
▁ravi	-3575
▁sain	-3576
▁sauf	-3577
▁soir	-3578
▁sous	-3579
▁surf	-3580
▁trac	-3581
▁trou	-3582
▁têtu	-3583
▁vein	-3584
▁vote	-3585
▁véhi	-3586
▁égar	-3587
▁énig	-3588
alises	-3589
allume	-3590
amuser	-3591
asthme	-3592
ations	-3593
averti	-3594
cherai	-3595
emport	-3596
entrer	-3597
iciles	-3598
iendra	-3599
laudir	-3600
nequin	-3601
oignez	-3602
ommage	-3603
oublie	-3604
ouriez	-3605
outons	-3606
ricots	-3607
sèrent	-3608
tilise	-3609
élicit	-3610
érerai	-3611
évanou	-3612
▁Avons	-3613
▁Cache	-3614
▁Calme	-3615
▁Embau	-3616
▁Goûte	-3617
▁Japon	-3618
▁Levez	-3619
▁Repos	-3620
▁Ripos	-3621
▁Saute	-3622
▁Signe	-3623
▁Super	-3624
▁Videz	-3625
▁Votre	-3626
▁accro	-3627
▁alors	-3628
▁appar	-3629
▁barbe	-3630
▁bicyc	-3631
▁cache	-3632
▁canon	-3633
▁capte	-3634
▁chois	-3635
▁colle	-3636
▁corps	-3637
▁couru	-3638
▁coûte	-3639
▁dents	-3640
▁dites	-3641
▁donne	-3642
▁elles	-3643
▁endur	-3644
▁enlac	-3645
▁entra	-3646
▁fainé	-3647
▁foies	-3648
▁frais	-3649
▁fuite	-3650
▁fêtes	-3651
▁fûmes	-3652
▁glace	-3653
▁glous	-3654
▁grogn	-3655
▁génie	-3656
▁héroï	-3657
▁immun	-3658
▁inqui	-3659
▁intér	-3660
▁levée	-3661
▁légal	-3662
▁marre	-3663
▁match	-3664
▁merci	-3665
▁ouver	-3666
▁piqué	-3667
▁plant	-3668
▁point	-3669
▁pomme	-3670
▁press	-3671
▁prise	-3672
▁quand	-3673
▁radio	-3674
▁roman	-3675
▁réjou	-3676
▁réuss	-3677
▁rêves	-3678
▁saign	-3679
▁sauté	-3680
▁sobre	-3681
▁sujet	-3682
▁tenue	-3683
▁tiens	-3684
▁tombe	-3685
▁tremp	-3686
▁vague	-3687
▁vivre	-3688
▁voler	-3689
▁voter	-3690
▁voyez	-3691
▁échou	-3692
▁éclat	-3693
▁étiez	-3694
aiderai	-3695
atiques	-3696
emporte	-3697
ennuyer	-3698
ensible	-3699
imagine	-3700
urieuse	-3701
utilise	-3702
veillez	-3703
étudier	-3704
▁Celles	-3705
▁Chacun	-3706
▁Couvre	-3707
▁Désolé	-3708
▁Espèce	-3709
▁Essuie	-3710
▁Goûtez	-3711
▁Génial	-3712
▁Partez	-3713
▁Quitte	-3714
▁Ralent	-3715
▁Signez	-3716
▁abruti	-3717
▁affair	-3718
▁aidera	-3719
▁allong	-3720
▁applic	-3721
▁armées	-3722
▁arrête	-3723
▁assoup	-3724
▁baisse	-3725
▁ballon	-3726
▁battus	-3727
▁cacher	-3728
▁chaise	-3729
▁change	-3730
▁cinéma	-3731
▁constr	-3732
▁crayon	-3733
▁dedans	-3734
▁devant	-3735
▁deviné	-3736
▁dirent	-3737
▁doutes	-3738
▁débarr	-3739
▁défaut	-3740
▁dément	-3741
▁ennemi	-3742
▁envoya	-3743
▁essaye	-3744
▁failli	-3745
▁ferais	-3746
▁fiévre	-3747
▁fâchée	-3748
▁habitu	-3749
▁humble	-3750
▁impoli	-3751
▁lapins	-3752
▁membre	-3753
▁mentez	-3754
▁mettre	-3755
▁motivé	-3756
▁nature	-3757
▁nausée	-3758
▁obtenu	-3759
▁pardon	-3760
▁perdis	-3761
▁perdit	-3762
▁petits	-3763
▁police	-3764
▁pommes	-3765
▁poupée	-3766
▁proche	-3767
▁pêcher	-3768
▁recrut	-3769
▁refuse	-3770
▁rendue	-3771
▁reposé	-3772
▁rigole	-3773
▁rigolo	-3774
▁rétabl	-3775
▁réveil	-3776
▁sainte	-3777
▁savent	-3778
▁sentez	-3779
▁sentir	-3780
▁soleil	-3781
▁sourde	-3782
▁séjour	-3783
▁taquin	-3784
▁tombés	-3785
▁voleur	-3786
▁Étudie	-3787
▁échecs	-3788
▁écoulé	-3789
▁écrasé	-3790
▁énorme	-3791
ambition	-3792
attendre	-3793
enseigne	-3794
entendez	-3795
entendre	-3796
▁Attache	-3797
▁Courage	-3798
▁Grimpez	-3799
▁Ignorez	-3800
▁Poursui	-3801
▁Quittez	-3802
▁Sensass	-3803
▁Souhait	-3804
▁Souriez	-3805
▁aboient	-3806
▁affreus	-3807
▁affreux	-3808
▁aimable	-3809
▁appelée	-3810
▁appelés	-3811
▁arnaque	-3812
▁artiste	-3813
▁augment	-3814
▁beignet	-3815
▁boisson	-3816
▁bouchon	-3817
▁bénisse	-3818
▁capable	-3819
▁devoirs	-3820
▁directe	-3821
▁discret	-3822
▁divorcé	-3823
▁défoncé	-3824
▁dégueul	-3825
▁déplace	-3826
▁effrayé	-3827
▁excuses	-3828
▁expliqu	-3829
▁fauchés	-3830
▁gentils	-3831
▁imparti	-3832
▁indemne	-3833
▁invitée	-3834
▁jogging	-3835
▁magasin	-3836
▁matinal	-3837
▁normale	-3838
▁offensé	-3839
▁paniqué	-3840
▁partage	-3841
▁parties	-3842
▁poussez	-3843
▁prisonn	-3844
▁produit	-3845
▁prouver	-3846
▁recruté	-3847
▁regarda	-3848
▁retourn	-3849
▁reviens	-3850
▁risques	-3851
▁réponse	-3852
▁sauvées	-3853
▁savions	-3854
▁semaine	-3855
▁trompée	-3856
▁valises	-3857
▁viendra	-3858
▁vilaine	-3859
▁étudier	-3860
▁évident	-3861
allumette	-3862
▁Devrions	-3863
▁Pourrais	-3864
▁Poursuis	-3865
▁Répondez	-3866
▁Vérifiez	-3867
▁agréable	-3868
▁ailleurs	-3869
▁attraper	-3870
▁attrapée	-3871
▁biscuits	-3872
▁blessées	-3873
▁comprend	-3874
▁compteur	-3875
▁contribu	-3876
▁convient	-3877
▁coopérer	-3878
▁courrier	-3879
▁dernière	-3880
▁dépourvu	-3881
▁détendus	-3882
▁déverrou	-3883
▁embauché	-3884
▁ennuyeux	-3885
▁environs	-3886
▁flexible	-3887
▁haricots	-3888
▁honnêtes	-3889
▁immature	-3890
▁impliqué	-3891
▁inutiles	-3892
▁japonais	-3893
▁leucémie	-3894
▁matinale	-3895
▁matériel	-3896
▁pardonné	-3897
▁partager	-3898
▁passerai	-3899
▁patronne	-3900
▁perplexe	-3901
▁resterai	-3902
▁sourient	-3903
▁sérieuse	-3904
▁taquiner	-3905
▁tatillon	-3906
▁tenterai	-3907
▁trouvais	-3908
▁veinarde	-3909
▁voitures	-3910
▁étudiant	-3911
apprécions	-3912
importance	-3913
▁Accrochez	-3914
▁Attendons	-3915
▁Demandons	-3916
▁Mémorisez	-3917
▁astucieux	-3918
▁bienvenue	-3919
▁commandes	-3920
▁concentré	-3921
▁convaincu	-3922
▁dangereux	-3923
▁découvert	-3924
▁déménager	-3925
▁détendues	-3926
▁embrassés	-3927
▁flexibles	-3928
▁innocente	-3929
▁mannequin	-3930
▁mauvaises	-3931
▁merveille	-3932
▁mouvement	-3933
▁objection	-3934
▁partaient	-3935
▁particuli	-3936
▁populaire	-3937
▁prochaine	-3938
▁préoccupé	-3939
▁puissante	-3940
▁réfléchir	-3941
▁serviette	-3942
▁solidaire	-3943
▁stupéfait	-3944
▁suffisant	-3945
▁travaillé	-3946
▁viendront	-3947
▁équitable	-3948
▁Recommence	-3949
▁amoureuses	-3950
▁bicyclette	-3951
▁clairement	-3952
▁concentrée	-3953
▁courageuse	-3954
▁difficiles	-3955
▁insensible	-3956
▁laissèrent	-3957
▁magnifique	-3958
▁maigrichon	-3959
▁ponctuelle	-3960
▁rencontrée	-3961
▁romantique	-3962
▁satisfaite	-3963
▁tatillonne	-3964
▁verrouillé	-3965
élicitations	-3966
▁Débarrassez	-3967
▁Fantastique	-3968
▁Recommencez	-3969
▁application	-3970
▁commentaire	-3971
▁grassouille	-3972
▁impitoyable	-3973
▁paresseuses	-3974
▁poursuivrai	-3975
▁rencontrées	-3976
▁satisfaites	-3977
▁soulagement	-3978
▁Sérieusement	-3979
▁affreusement	-3980
▁intelligente	-3981
▁maigrichonne	-3982
br	-3983
co	-3984
nu	-3985
où	-3986
pt	-3987
ta	-3988
ys	-3989
▁z	-3990
alé	-3991
ano	-3992
asi	-3993
bri	-3994
cev	-3995
cle	-3996
dra	-3997
déo	-3998
ein	-3999
eus	-4000
gal	-4001
gue	-4002
lax	-4003
mil	-4004
off	-4005
ome	-4006
osé	-4007
ota	-4008
oûl	-4009
sec	-4010
tim	-4011
uet	-4012
urg	-4013
ust	-4014
vro	-4015
ège	-4016
éch	-4017
ôts	-4018
▁Li	-4019
▁No	-4020
▁Pi	-4021
▁cu	-4022
▁gê	-4023
▁lâ	-4024
▁my	-4025
▁mû	-4026
▁ni	-4027
▁op	-4028
▁or	-4029
▁pê	-4030
▁Ép	-4031
aies	-4032
aisé	-4033
ales	-4034
anad	-4035
anch	-4036
appe	-4037
asié	-4038
atal	-4039
auff	-4040
ayer	-4041
aîtr	-4042
chaï	-4043
cide	-4044
croc	-4045
deur	-4046
drai	-4047
ectu	-4048
enne	-4049
entr	-4050
erve	-4051
essé	-4052
eulé	-4053
fort	-4054
fugi	-4055
haut	-4056
honn	-4057
huit	-4058
icul	-4059
ieur	-4060
irer	-4061
ises	-4062
issé	-4063
ités	-4064
laça	-4065
laît	-4066
lent	-4067
liez	-4068
ling	-4069
obot	-4070
oche	-4071
oids	-4072
oiré	-4073
oles	-4074
omne	-4075
ongé	-4076
oral	-4077
orce	-4078
ouci	-4079
oyée	-4080
peau	-4081
psie	-4082
quel	-4083
quez	-4084
quis	-4085
rant	-4086
rets	-4087
tera	-4088
tifs	-4089
tour	-4090
tter	-4091
ulsi	-4092
ulte	-4093
umer	-4094
umes	-4095
umez	-4096
umée	-4097
urez	-4098
ysle	-4099
ètes	-4100
édic	-4101
érez	-4102
ésie	-4103
ésus	-4104
éter	-4105
étez	-4106
▁Ach	-4107
▁Cap	-4108
▁Dou	-4109
▁Emm	-4110
▁Emp	-4111
▁Env	-4112
▁Jou	-4113
▁Lui	-4114
▁Mél	-4115
▁Nic	-4116
▁Nos	-4117
▁Rac	-4118
▁Rej	-4119
▁Rel	-4120
▁Sil	-4121
▁Toi	-4122
▁bég	-4123
▁doc	-4124
▁doi	-4125
▁dom	-4126
▁enr	-4127
▁eut	-4128
▁fan	-4129
▁fav	-4130
▁fer	-4131
▁fie	-4132
▁gel	-4133
▁gob	-4134
▁haï	-4135
▁hic	-4136
▁hés	-4137
▁jum	-4138
▁lev	-4139
▁lig	-4140
▁lou	-4141
▁loy	-4142
▁lum	-4143
▁men	-4144
▁nag	-4145
▁nié	-4146
▁opp	-4147
▁pit	-4148
▁pou	-4149
▁pun	-4150
▁rad	-4151
▁ram	-4152
▁rej	-4153
▁rue	-4154
▁sel	-4155
▁syn	-4156
▁veu	-4157
▁vég	-4158
▁Éte	-4159
▁élu	-4160
▁ému	-4161
accep	-4162
agnez	-4163
agère	-4164
allez	-4165
améli	-4166
anche	-4167
andez	-4168
apens	-4169
aquée	-4170
arres	-4171
assif	-4172
drais	-4173
ellez	-4174
emmer	-4175
enais	-4176
ensif	-4177
esses	-4178
eulée	-4179
exagé	-4180
fiant	-4181
fique	-4182
férer	-4183
homme	-4184
istes	-4185
istez	-4186
latan	-4187
ollar	-4188
otait	-4189
ouest	-4190
ourdi	-4191
ouses	-4192
prise	-4193
raîch	-4194
rends	-4195
ricul	-4196
rigez	-4197
rives	-4198
roche	-4199
ruque	-4200
seign	-4201
suite	-4202
tômes	-4203
uirai	-4204
épile	-4205
êtons	-4206
▁Ache	-4207
▁Beau	-4208
▁Dois	-4209
▁Incr	-4210
▁Oust	-4211
▁Plie	-4212
▁Resp	-4213
▁Seul	-4214
▁Term	-4215
▁Vers	-4216
▁auto	-4217
▁bagn	-4218
▁bern	-4219
▁bébé	-4220
▁card	-4221
▁cath	-4222
▁cerf	-4223
▁clés	-4224
▁coll	-4225
▁crai	-4226
▁cria	-4227
▁crue	-4228
▁demi	-4229
▁donn	-4230
▁dort	-4231
▁doux	-4232
▁durs	-4233
▁flan	-4234
▁forc	-4235
▁fred	-4236
▁fric	-4237
▁fuit	-4238
▁goût	-4239
▁grin	-4240
▁guet	-4241
▁hait	-4242
▁hont	-4243
▁huit	-4244
▁illé	-4245
▁ivro	-4246
▁jazz	-4247
▁jeux	-4248
▁juge	-4249
▁lion	-4250
▁miel	-4251
▁mode	-4252
▁noie	-4253
▁obst	-4254
▁pain	-4255
▁pare	-4256
▁paye	-4257
▁pinc	-4258
▁pros	-4259
▁pâle	-4260
▁péri	-4261
▁rare	-4262
▁rass	-4263
▁rati	-4264
▁raté	-4265
▁ridi	-4266
▁réel	-4267
▁sert	-4268
▁simu	-4269
▁soup	-4270
▁soûl	-4271
▁toit	-4272
▁truc	-4273
▁vaut	-4274
▁verb	-4275
▁vert	-4276
▁vide	-4277
▁voit	-4278
achète	-4279
agesse	-4280
ailler	-4281
aimait	-4282
aiment	-4283
alarme	-4284
apable	-4285
assons	-4286
aucune	-4287
cutons	-4288
emploi	-4289
emprun	-4290
entend	-4291
enture	-4292
ercice	-4293
erminé	-4294
espace	-4295
essaie	-4296
expéri	-4297
formez	-4298
fugiés	-4299
habite	-4300
iculté	-4301
inards	-4302
liquez	-4303
niques	-4304
ogique	-4305
onnant	-4306
rimper	-4307
rissez	-4308
rivain	-4309
teille	-4310
visons	-4311
étudie	-4312
▁Avais	-4313
▁Brûle	-4314
▁Canad	-4315
▁Coupe	-4316
▁Filez	-4317
▁Finis	-4318
▁Fuyez	-4319
▁Jouez	-4320
▁Jésus	-4321
▁Maîtr	-4322
▁Nouez	-4323
▁Pense	-4324
▁Perme	-4325
▁Pleur	-4326
▁Redem	-4327
▁Sauve	-4328
▁Tirez	-4329
▁Trace	-4330
▁Votez	-4331
▁accid	-4332
▁aimer	-4333
▁aimée	-4334
▁alent	-4335
▁alité	-4336
▁allée	-4337
▁anges	-4338
▁année	-4339
▁armes	-4340
▁aupar	-4341
▁beaux	-4342
▁blanc	-4343
▁bouff	-4344
▁brisé	-4345
▁buvez	-4346
▁causé	-4347
▁cerve	-4348
▁chale	-4349
▁charg	-4350
▁crevé	-4351
▁crier	-4352
▁crise	-4353
▁culti	-4354
▁dirai	-4355
▁diète	-4356
▁donna	-4357
▁dysle	-4358
▁décid	-4359
▁décéd	-4360
▁effet	-4361
▁entêt	-4362
▁exclu	-4363
▁excur	-4364
▁faits	-4365
▁fatal	-4366
▁ferme	-4367
▁fermé	-4368
▁foiré	-4369
▁fonds	-4370
▁forts	-4371
▁gamin	-4372
▁geste	-4373
▁goûts	-4374
▁graci	-4375
▁gérer	-4376
▁haute	-4377
▁inoff	-4378
▁irons	-4379
▁jambe	-4380
▁jouet	-4381
▁jubil	-4382
▁ligne	-4383
▁mains	-4384
▁meure	-4385
▁mille	-4386
▁moine	-4387
▁moins	-4388
▁mérit	-4389
▁mêlez	-4390
▁naïfs	-4391
▁obéir	-4392
▁obéit	-4393
▁parie	-4394
▁peine	-4395
▁peint	-4396
▁piano	-4397
▁pique	-4398
▁porté	-4399
▁poste	-4400
▁poète	-4401
▁quasi	-4402
▁rejet	-4403
▁remis	-4404
▁repas	-4405
▁robot	-4406
▁roses	-4407
▁rougi	-4408
▁ruiné	-4409
▁réagi	-4410
▁réglé	-4411
▁sable	-4412
▁sangl	-4413
▁saura	-4414
▁sauve	-4415
▁siens	-4416
▁signé	-4417
▁simil	-4418
▁sorci	-4419
▁spect	-4420
▁stone	-4421
▁stric	-4422
▁sucre	-4423
▁suite	-4424
▁séché	-4425
▁tendu	-4426
▁tient	-4427
▁trich	-4428
▁trucs	-4429
▁vache	-4430
▁venue	-4431
▁vidéo	-4432
artient	-4433
athique	-4434
attaque	-4435
attends	-4436
automne	-4437
chaïque	-4438
demment	-4439
ennuies	-4440
ignorer	-4441
matique	-4442
oisième	-4443
oubliez	-4444
▁Achète	-4445
▁Allume	-4446
▁Baisse	-4447
▁Battez	-4448
▁Devine	-4449
▁Dirige	-4450
▁Encore	-4451
▁Joyeux	-4452
▁Lancez	-4453
▁Magnez	-4454
▁Manges	-4455
▁Penses	-4456
▁Ramène	-4457
▁Repose	-4458
▁Retire	-4459
▁Sauvez	-4460
▁Servez	-4461
▁Souris	-4462
▁Touche	-4463
▁Traver	-4464
▁affamé	-4465
▁aimait	-4466
▁alitée	-4467
▁assuré	-4468
▁baguel	-4469
▁briser	-4470
▁brisée	-4471
▁cambri	-4472
▁captes	-4473
▁captez	-4474
▁casser	-4475
▁causer	-4476
▁cercle	-4477
▁chanta	-4478
▁charme	-4479
▁chiant	-4480
▁chiqué	-4481
▁choisi	-4482
▁choqué	-4483
▁coincé	-4484
▁connue	-4485
▁couler	-4486
▁courez	-4487
▁courus	-4488
▁crains	-4489
▁croiss	-4490
▁devais	-4491
▁dollar	-4492
▁déprim	-4493
▁entraî	-4494
▁entret	-4495
▁escroc	-4496
▁essaie	-4497
▁excité	-4498
▁farine	-4499
▁fauché	-4500
▁faveur	-4501
▁ferons	-4502
▁fesses	-4503
▁foutre	-4504
▁frères	-4505
▁galant	-4506
▁garder	-4507
▁hoquet	-4508
▁humeur	-4509
▁ignoré	-4510
▁impert	-4511
▁impôts	-4512
▁induit	-4513
▁interv	-4514
▁joueur	-4515
▁joyeux	-4516
▁jumeau	-4517
▁lapidé	-4518
▁maline	-4519
▁malins	-4520
▁mangea	-4521
▁manges	-4522
▁mariée	-4523
▁mariés	-4524
▁massif	-4525
▁mature	-4526
▁monter	-4527
▁moyens	-4528
▁mérite	-4529
▁métier	-4530
▁naïves	-4531
▁offens	-4532
▁papier	-4533
▁paraît	-4534
▁pertur	-4535
▁pipeau	-4536
▁piégée	-4537
▁piégés	-4538
▁poisse	-4539
▁prison	-4540
▁promen	-4541
▁précau	-4542
▁pétrin	-4543
▁refusa	-4544
▁relais	-4545
▁relève	-4546
▁renard	-4547
▁restez	-4548
▁restée	-4549
▁rouges	-4550
▁rumeur	-4551
▁réalis	-4552
▁sentit	-4553
▁suffis	-4554
▁tienne	-4555
▁trains	-4556
▁triche	-4557
▁vilain	-4558
▁vivons	-4559
▁volent	-4560
▁voyant	-4561
▁Écarte	-4562
▁écouté	-4563
▁épouse	-4564
▁épuisé	-4565
ennuient	-4566
exagérez	-4567
exercice	-4568
férerais	-4569
histoire	-4570
imbécile	-4571
issement	-4572
utiliser	-4573
édiction	-4574
évanouir	-4575
▁Achetez	-4576
▁Arrives	-4577
▁Arrivez	-4578
▁Aujourd	-4579
▁Chantez	-4580
▁Connais	-4581
▁Devinez	-4582
▁Dirigez	-4583
▁Dégagez	-4584
▁Déplace	-4585
▁Inspire	-4586
▁Joignez	-4587
▁Marchez	-4588
▁Partons	-4589
▁Prenons	-4590
▁Restons	-4591
▁Retirez	-4592
▁Réparez	-4593
▁Réserve	-4594
▁Silence	-4595
▁Touchez	-4596
▁absurde	-4597
▁agricul	-4598
▁allongé	-4599
▁allumée	-4600
▁animaux	-4601
▁appeler	-4602
▁apporté	-4603
▁arrives	-4604
▁arrêtée	-4605
▁assises	-4606
▁attaqué	-4607
▁atteint	-4608
▁attendu	-4609
▁avocate	-4610
▁avocats	-4611
▁bagarre	-4612
▁bagnole	-4613
▁bananes	-4614
▁biscuit	-4615
▁blagues	-4616
▁bouchée	-4617
▁boulots	-4618
▁bourrés	-4619
▁catholi	-4620
▁cochons	-4621
▁combatt	-4622
▁condamn	-4623
▁confuse	-4624
▁coucher	-4625
▁cousins	-4626
▁cruelle	-4627
▁cuisiné	-4628
▁cultive	-4629
▁devenir	-4630
▁devrait	-4631
▁devriez	-4632
▁docteur	-4633
▁doivent	-4634
▁débattu	-4635
▁dégoûté	-4636
▁délicat	-4637
▁dépasse	-4638
▁dépassé	-4639
▁dépêche	-4640
▁désolés	-4641
▁détourn	-4642
▁détruit	-4643
▁engagée	-4644
▁ennemis	-4645
▁ensuite	-4646
▁esseulé	-4647
▁fantôme	-4648
▁frousse	-4649
▁gaucher	-4650
▁gloussé	-4651
▁grimper	-4652
▁habillé	-4653
▁hurlait	-4654
▁illégal	-4655
▁immoral	-4656
▁impolie	-4657
▁impulsi	-4658
▁indigné	-4659
▁inquiet	-4660
▁insouci	-4661
▁ivrogne	-4662
▁jumelle	-4663
▁laissez	-4664
▁lumière	-4665
▁manquez	-4666
▁marteau	-4667
▁mignons	-4668
▁mourons	-4669
▁méprise	-4670
▁parlait	-4671
▁passera	-4672
▁petites	-4673
▁piégées	-4674
▁propres	-4675
▁refuser	-4676
▁remarié	-4677
▁reniflé	-4678
▁rentrée	-4679
▁rigoles	-4680
▁rigolez	-4681
▁répondu	-4682
▁sagesse	-4683
▁secrets	-4684
▁sortons	-4685
▁souffle	-4686
▁soulagé	-4687
▁supplie	-4688
▁taquine	-4689
▁timides	-4690
▁tombées	-4691
▁touchez	-4692
▁trompez	-4693
▁trouvée	-4694
▁trouvés	-4695
▁vacille	-4696
▁violent	-4697
▁voleuse	-4698
▁vérifié	-4699
▁énervée	-4700
▁étouffe	-4701
applaudir	-4702
épilepsie	-4703
▁Arrêtons	-4704
▁Attachez	-4705
▁Déplacez	-4706
▁Espérons	-4707
▁Finissez	-4708
▁Grouille	-4709
▁Informez	-4710
▁Laissons	-4711
▁Préparez	-4712
▁Rappelle	-4713
▁Remplace	-4714
▁accompli	-4715
▁aimaient	-4716
▁arrogant	-4717
▁bizarres	-4718
▁boissons	-4719
▁bourrées	-4720
▁bruyante	-4721
▁canadien	-4722
▁commandé	-4723
▁commence	-4724
▁compatis	-4725
▁confessé	-4726
▁confiant	-4727
▁corriger	-4728
▁curieuse	-4729
▁dessiner	-4730
▁discrets	-4731
▁discrète	-4732
▁domicile	-4733
▁dégoûtée	-4734
▁dérangez	-4735
▁détendre	-4736
▁ennemies	-4737
▁ennuyons	-4738
▁esseulée	-4739
▁faisable	-4740
▁fantômes	-4741
▁fauchées	-4742
▁feuilles	-4743
▁histoire	-4744
▁horrifié	-4745
▁immunisé	-4746
▁intrigué	-4747
▁intéress	-4748
▁jalouses	-4749
▁joindrai	-4750
▁mangeons	-4751
▁marrante	-4752
▁menteuse	-4753
▁mouillés	-4754
▁musulman	-4755
▁nouveaux	-4756
▁objectif	-4757
▁pagaille	-4758
▁parlions	-4759
▁parvenus	-4760
▁patiente	-4761
▁perruque	-4762
▁plaisent	-4763
▁pleurent	-4764
▁plombier	-4765
▁prochain	-4766
▁précipit	-4767
▁préparée	-4768
▁prévenus	-4769
▁puritain	-4770
▁rafraîch	-4771
▁rassasié	-4772
▁recrutée	-4773
▁regardez	-4774
▁respecte	-4775
▁respirer	-4776
▁retraité	-4777
▁ridicule	-4778
▁réaliste	-4779
▁réfugiés	-4780
▁réponses	-4781
▁sinistre	-4782
▁stupides	-4783
▁surprise	-4784
▁séparées	-4785
▁terminer	-4786
▁terrifié	-4787
▁trouvées	-4788
▁vacances	-4789
▁voudrais	-4790
▁voulions	-4791
▁échapper	-4792
▁écrivain	-4793
▁épinards	-4794
▁étudions	-4795
expérience	-4796
▁Abandonne	-4797
▁Discutons	-4798
▁Doucement	-4799
▁Dépêchons	-4800
▁Expliquez	-4801
▁Réfléchis	-4802
▁Réveillez	-4803
▁Saisissez	-4804
▁ambitieux	-4805
▁archaïque	-4806
▁bouteille	-4807
▁cardiaque	-4808
▁chanceuse	-4809
▁charmante	-4810
▁confiante	-4811
▁confiture	-4812
▁contribué	-4813
▁descendre	-4814
▁différent	-4815
▁dépourvue	-4816
▁déterminé	-4817
▁détestait	-4818
▁embrasser	-4819
▁enseigner	-4820
▁expliquer	-4821
▁gagnèrent	-4822
▁gentilles	-4823
▁gémissait	-4824
▁généreuse	-4825
▁horrifiée	-4826
▁impatient	-4827
▁impliquée	-4828
▁incapable	-4829
▁maladroit	-4830
▁minutieux	-4831
▁pitoyable	-4832
▁poignardé	-4833
▁précipité	-4834
▁prévenues	-4835
▁puritaine	-4836
▁quasiment	-4837
▁rencontré	-4838
▁sournoise	-4839
▁spectacle	-4840
▁symptômes	-4841
▁transpire	-4842
▁transpiré	-4843
▁troisième	-4844
▁véritable	-4845
▁étudiants	-4846
▁Continuons	-4847
▁Formidable	-4848
▁Incroyable	-4849
▁Poursuivez	-4850
▁Rapprochez	-4851
▁Travaillez	-4852
▁abandonner	-4853
▁auparavant	-4854
▁chatouille	-4855
▁contrariés	-4856
▁demanderai	-4857
▁difficulté	-4858
▁dyslexique	-4859
▁extraverti	-4860
▁inoffensif	-4861
▁prudemment	-4862
▁préoccupée	-4863
▁travaillez	-4864
▁contrariées	-4865
▁dégueulasse	-4866
▁démissionna	-4867
▁déplacement	-4868
▁impertinent	-4869
▁incroyables	-4870
▁interrompre	-4871
▁merveilleux	-4872
▁plaisantent	-4873
▁préférerais	-4874
▁respectueux	-4875
▁sympathique	-4876
▁volontaires	-4877
▁Déverrouille	-4878
▁connaissions	-4879
▁démissionner	-4880
▁déverrouillé	-4881
▁fonctionnait	-4882
▁grassouillet	-4883
▁impitoyables	-4884
▁plaisanterie	-4885
▁raisonnables	-4886
▁respectueuse	-4887
▁suffisamment	-4888
▁travaillerai	-4889
▁démissionnons	-4890
▁reconnaissant	-4891
▁miséricordieux	-4892
▁rétablissement	-4893
▁miséricordieuse	-4894
MS	-4895
NI	-4896
VD	-4897
aç	-4898
bl	-4899
by	-4900
cé	-4901
ep	-4902
ey	-4903
fe	-4904
he	-4905
hh	-4906
hy	-4907
lg	-4908
mb	-4909
mm	-4910
ns	-4911
ox	-4912
pl	-4913
pé	-4914
to	-4915
uf	-4916
zé	-4917
adé	-4918
alg	-4919
ami	-4920
ams	-4921
ape	-4922
arc	-4923
asc	-4924
ash	-4925
bon	-4926
béc	-4927
cas	-4928
chè	-4929
cts	-4930
cté	-4931
cue	-4932
cur	-4933
don	-4934
doy	-4935
erg	-4936
gby	-4937
gis	-4938
her	-4939
his	-4940
hor	-4941
idn	-4942
ili	-4943
imm	-4944
ize	-4945
lan	-4946
lec	-4947
mos	-4948
mpe	-4949
nnu	-4950
nob	-4951
ocl	-4952
ocs	-4953
oma	-4954
omi	-4955
ool	-4956
ope	-4957
qua	-4958
reg	-4959
rir	-4960
sse	-4961
the	-4962
tic	-4963
ton	-4964
tra	-4965
tté	-4966
tés	-4967
ude	-4968
uir	-4969
uré	-4970
usc	-4971
uét	-4972
vec	-4973
vol	-4974
xes	-4975
ycl	-4976
âch	-4977
ébu	-4978
édé	-4979
égu	-4980
élu	-4981
êts	-4982
▁Aj	-4983
▁DJ	-4984
▁Gé	-4985
▁Mo	-4986
▁OV	-4987
▁Ra	-4988
▁Si	-4989
▁aa	-4990
▁do	-4991
▁gé	-4992
▁hâ	-4993
▁is	-4994
▁lè	-4995
▁na	-4996
▁to	-4997
▁ur	-4998
▁Él	-4999
▁Év	-5000
▁ém	-5001
abli	-5002
acné	-5003
agir	-5004
amen	-5005
anle	-5006
appé	-5007
arce	-5008
aspi	-5009
atre	-5010
aube	-5011
aure	-5012
berg	-5013
bour	-5014
bule	-5015
cain	-5016
cell	-5017
char	-5018
chin	-5019
cial	-5020
cien	-5021
cils	-5022
cite	-5023
clez	-5024
cont	-5025
cour	-5026
culé	-5027
cène	-5028
dieu	-5029
dité	-5030
eaux	-5031
eler	-5032
ende	-5033
ener	-5034
enon	-5035
enre	-5036
ercé	-5037
erts	-5038
esse	-5039
essi	-5040
fard	-5041
heur	-5042
humé	-5043
inal	-5044
ingt	-5045
insc	-5046
insi	-5047
irat	-5048
isou	-5049
isté	-5050
isés	-5051
ites	-5052
jets	-5053
lend	-5054
lons	-5055
medi	-5056
méro	-5057
neig	-5058
obli	-5059
odie	-5060
oiff	-5061
oilà	-5062
oits	-5063
olat	-5064
olog	-5065
olée	-5066
opté	-5067
ores	-5068
orts	-5069
ortu	-5070
oser	-5071
otte	-5072
ourd	-5073
ourm	-5074
ouss	-5075
quer	-5076
quée	-5077
rage	-5078
raie	-5079
rati	-5080
rits	-5081
rivé	-5082
riée	-5083
sion	-5084
trée	-5085
uffe	-5086
uler	-5087
ules	-5088
usés	-5089
vers	-5090
viez	-5091
yeux	-5092
âche	-5093
éder	-5094
égli	-5095
élue	-5096
énom	-5097
énét	-5098
épar	-5099
épr	-5100
auta	-5101
corn	-5102
cote	-5103
loge	-5104
luie	-5105
étit	-5106
évid	-5107
êpes	-5108
ôler	-5109
▁Aie	-5110
▁Ang	-5111
▁Cou	-5112
▁DVD	-5113
▁End	-5114
▁Eng	-5115
▁Fre	-5116
▁Fuy	-5117
▁Ici	-5118
▁Jus	-5119
▁Man	-5120
▁Max	-5121
▁Off	-5122
▁Ple	-5123
▁Pro	-5124
▁Rou	-5125
▁Ver	-5126
▁asi	-5127
▁bin	-5128
▁bos	-5129
▁cha	-5130
▁cit	-5131
▁cla	-5132
▁dor	-5133
▁eur	-5134
▁fir	-5135
▁fla	-5136
▁fri	-5137
▁gai	-5138
▁gla	-5139
▁gri	-5140
▁inf	-5141
▁loc	-5142
▁mah	-5143
▁mas	-5144
▁mir	-5145
▁mug	-5146
▁mél	-5147
▁net	-5148
▁nos	-5149
▁nou	-5150
▁nus	-5151
▁ong	-5152
▁pin	-5153
▁pot	-5154
▁pép	-5155
▁rav	-5156
▁roc	-5157
▁sid	-5158
▁sud	-5159
▁tab	-5160
▁tex	-5161
▁tua	-5162
▁tut	-5163
▁uns	-5164
▁val	-5165
▁van	-5166
▁Éch	-5167
▁ébl	-5168
▁émé	-5169
abine	-5170
agace	-5171
agera	-5172
ageux	-5173
agner	-5174
aimez	-5175
aises	-5176
alifi	-5177
ament	-5178
amine	-5179
andid	-5180
antis	-5181
aquez	-5182
arant	-5183
ardin	-5184
arrez	-5185
arrée	-5186
artez	-5187
asqué	-5188
asses	-5189
assis	-5190
assit	-5191
aules	-5192
aurai	-5193
avait	-5194
aviar	-5195
avoir	-5196
aître	-5197
berté	-5198
carte	-5199
...	-5200
jong	-5201
▁Acc	-5202
▁Aha	-5203
▁Cro	-5204
▁gif	-5205
arqua	-5206
champ	-5207
chiré	-5208
chron	-5209
cieux	-5210
credi	-5211
dices	-5212
dites	-5213
ectué	-5214
eller	-5215
elons	-5216
encre	-5217
endit	-5218
enues	-5219
eries	-5220
ernue	-5221
erser	-5222
estre	-5223
eutre	-5224
ffeur	-5225
hydra	-5226
icule	-5227
idère	-5228
ifler	-5229
ignon	-5230
illir	-5231
illon	-5232
insul	-5233
iront	-5234
ision	-5235
ition	-5236
itées	-5237
lerte	-5238
lever	-5239
lique	-5240
mmard	-5241
moins	-5242
ngard	-5243
ondes	-5244
ontan	-5245
ontez	-5246
orera	-5247
organ	-5248
orité	-5249
ormez	-5250
ouill	-5251
oules	-5252
oyait	-5253
pirez	-5254
quine	-5255
quons	-5256
raich	-5257
reint	-5258
resse	-5259
riace	-5260
rigue	-5261
selle	-5262
sibil	-5263
teurs	-5264
tiens	-5265
troce	-5266
ttons	-5267
turez	-5268
usées	-5269
ution	-5270
uvres	-5271
venue	-5272
vingt	-5273
vière	-5274
éance	-5275
écent	-5276
écris	-5277
ément	-5278
épous	-5279
évite	-5280
êtant	-5281
▁Avec	-5282
▁Bats	-5283
▁Cher	-5284
▁Conc	-5285
▁Cuis	-5286
▁Dans	-5287
▁Dors	-5288
▁Ford	-5289
▁Gard	-5290
▁Joli	-5291
▁Lion	-5292
▁Mord	-5293
▁Même	-5294
▁Note	-5295
▁Pati	-5296
▁Pile	-5297
▁Pose	-5298
▁Prot	-5299
bib	-5300
îné	-5301
▁Viv	-5302
eball	-5303
ibles	-5304
lacée	-5305
rimer	-5306
▁Bach	-5307
▁Recr	-5308
▁Repr	-5309
▁Rien	-5310
▁Romp	-5311
▁Sout	-5312
▁Souv	-5313
▁Vise	-5314
▁Vote	-5315
▁acqu	-5316
▁agir	-5317
▁aima	-5318
▁arrê	-5319
▁arti	-5320
▁asth	-5321
▁aura	-5322
▁bibi	-5323
▁brûl	-5324
▁cert	-5325
▁chav	-5326
▁chir	-5327
▁cocu	-5328
▁cran	-5329
▁crev	-5330
▁crim	-5331
▁cuit	-5332
▁dact	-5333
▁date	-5334
▁dest	-5335
▁dira	-5336
▁doté	-5337
▁dout	-5338
▁doué	-5339
▁drap	-5340
▁décl	-5341
▁déso	-5342
▁déçu	-5343
▁dîné	-5344
▁enti	-5345
▁fasc	-5346
▁fiez	-5347
▁file	-5348
▁filé	-5349
▁fixe	-5350
▁fraî	-5351
▁gars	-5352
▁gein	-5353
▁gobe	-5354
▁gris	-5355
▁gêné	-5356
▁hâte	-5357
▁incl	-5358
▁inep	-5359
▁jong	-5360
▁lavé	-5361
▁libé	-5362
▁légu	-5363
▁mass	-5364
▁mess	-5365
▁mets	-5366
▁midi	-5367
▁mène	-5368
▁méth	-5369
▁mûri	-5370
▁nier	-5371
▁nies	-5372
▁niez	-5373
▁nord	-5374
▁nost	-5375
▁noyé	-5376
▁ours	-5377
▁page	-5378
▁pige	-5379
▁pigé	-5380
▁plat	-5381
▁pont	-5382
▁porc	-5383
▁prud	-5384
▁préj	-5385
▁pâli	-5386
▁quer	-5387
▁romp	-5388
▁ruin	-5389
▁rusé	-5390
▁réch	-5391
▁rééc	-5392
▁scep	-5393
▁scor	-5394
▁sept	-5395
▁serm	-5396
▁sers	-5397
▁sidé	-5398
▁sign	-5399
obéi	-5400
▁gaz	-5401
armée	-5402
itulé	-5403
opéra	-5404
posté	-5405
rises	-5406
élève	-5407
▁OVNI	-5408
▁bats	-5409
▁iras	-5410
▁pisc	-5411
▁snob	-5412
▁soci	-5413
▁sout	-5414
▁tact	-5415
▁tais	-5416
▁tenu	-5417
▁tira	-5418
▁tolé	-5419
▁toma	-5420
▁toux	-5421
▁trag	-5422
▁tuer	-5423
▁viol	-5424
▁vire	-5425
▁visa	-5426
▁vulg	-5427
▁Éloi	-5428
▁écri	-5429
▁élan	-5430
▁épid	-5431
▁évén	-5432
admire	-5433
agédie	-5434
aimais	-5435
aisiss	-5436
aliser	-5437
allais	-5438
amster	-5439
arrêta	-5440
assion	-5441
aureau	-5442
buleux	-5443
cevoir	-5444
chargé	-5445
chette	-5446
cordez	-5447
curisé	-5448
embête	-5449
enlaça	-5450
entait	-5451
entrez	-5452
esprit	-5453
essaye	-5454
geance	-5455
illage	-5456
illère	-5457
inrent	-5458
istent	-5459
lables	-5460
mettra	-5461
obable	-5462
oclard	-5463
oindre	-5464
ommand	-5465
orange	-5466
ortues	-5467
ousses	-5468
outant	-5469
sectes	-5470
terais	-5471
terrez	-5472
trover	-5473
uirons	-5474
uisent	-5475
ulerai	-5476
urgien	-5477
uscade	-5478
uétude	-5479
yclage	-5480
épeler	-5481
▁Améri	-5482
▁Armez	-5483
▁Assez	-5484
▁Barre	-5485
▁Enreg	-5486
▁Fumer	-5487
▁Magne	-5488
▁Maint	-5489
▁Offre	-5490
▁Payez	-5491
▁Plais	-5492
▁Plait	-5493
▁Plaît	-5494
▁Pliez	-5495
▁Possé	-5496
▁Postu	-5497
▁Priez	-5498
▁Prome	-5499
aye	-5500
ails	-5501
▁hyp	-5502
formé	-5503
▁gavé	-5504
▁haus	-5505
▁iron	-5506
▁naze	-5507
admets	-5508
▁Enfin	-5509
▁Prati	-5510
▁Redis	-5511
▁Santé	-5512
▁Sonne	-5513
▁Surpr	-5514
▁Visez	-5515
▁Voyez	-5516
▁accue	-5517
▁adoré	-5518
▁affai	-5519
▁agacé	-5520
▁ailes	-5521
▁amend	-5522
▁amour	-5523
▁amuse	-5524
▁anéan	-5525
▁armée	-5526
▁avide	-5527
▁aviez	-5528
▁avoué	-5529
▁bague	-5530
▁balai	-5531
▁bidon	-5532
▁biper	-5533
▁bisou	-5534
▁bleue	-5535
▁bougé	-5536
▁bâtie	-5537
▁bénév	-5538
▁calmé	-5539
▁canne	-5540
▁capté	-5541
▁casse	-5542
▁cause	-5543
▁cesse	-5544
▁champ	-5545
▁châte	-5546
▁clefs	-5547
▁cloué	-5548
▁corde	-5549
▁coupe	-5550
▁coure	-5551
▁crime	-5552
▁crocs	-5553
▁crème	-5554
▁cuire	-5555
▁céder	-5556
▁demie	-5557
▁douce	-5558
▁drogu	-5559
▁dures	-5560
▁début	-5561
▁décep	-5562
▁dégon	-5563
▁démun	-5564
▁dévou	-5565
▁déçue	-5566
▁enter	-5567
▁escro	-5568
▁expul	-5569
▁fiche	-5570
▁fixer	-5571
▁flipp	-5572
▁folie	-5573
▁fondu	-5574
▁foutu	-5575
▁foyer	-5576
▁franc	-5577
▁fumes	-5578
▁fumez	-5579
▁fumée	-5580
▁fusil	-5581
▁futon	-5582
▁fâche	-5583
▁gardé	-5584
▁garer	-5585
▁genre	-5586
▁giflé	-5587
▁givré	-5588
▁gourm	-5589
▁grève	-5590
▁haïss	-5591
▁hurla	-5592
▁hurlé	-5593
▁impas	-5594
▁incor	-5595
▁initi	-5596
▁isolé	-5597
▁jouez	-5598
▁laide	-5599
cinq	-5600
ugés	-5601
argée	-5602
brous	-5603
▁aaah	-5604
▁aisé	-5605
▁dipl	-5606
▁gorg	-5607
▁juré	-5608
▁néan	-5609
acquis	-5610
adapte	-5611
auffer	-5612
ources	-5613
tonien	-5614
▁Crois	-5615
▁Céléb	-5616
▁Impro	-5617
▁coméd	-5618
▁copie	-5619
▁céléb	-5620
▁dalle	-5621
▁gosse	-5622
▁guide	-5623
▁lampe	-5624
▁lavée	-5625
▁lente	-5626
▁leurs	-5627
▁levez	-5628
▁lèvre	-5629
▁léger	-5630
▁magie	-5631
▁marré	-5632
▁monté	-5633
▁moque	-5634
▁moral	-5635
▁mouri	-5636
▁moyen	-5637
▁mythe	-5638
▁médic	-5639
▁neigé	-5640
▁neuve	-5641
▁noyer	-5642
▁obèse	-5643
▁offre	-5644
▁optim	-5645
▁ordin	-5646
▁outré	-5647
▁parap	-5648
▁passa	-5649
▁pensi	-5650
▁persp	-5651
▁pincé	-5652
▁poids	-5653
▁prime	-5654
▁privé	-5655
▁prosp	-5656
▁prune	-5657
▁prêté	-5658
▁puent	-5659
▁pénét	-5660
▁pêche	-5661
▁recul	-5662
▁remué	-5663
▁rende	-5664
▁resta	-5665
▁revue	-5666
▁rugby	-5667
▁rusée	-5668
▁râler	-5669
▁règle	-5670
▁récré	-5671
▁récup	-5672
▁rîmes	-5673
▁salue	-5674
▁saqué	-5675
▁saute	-5676
▁sauva	-5677
▁savai	-5678
▁siège	-5679
▁soign	-5680
▁stagi	-5681
▁sèche	-5682
▁sélec	-5683
▁terme	-5684
▁tirez	-5685
▁touss	-5686
▁trait	-5687
▁trois	-5688
▁veine	-5689
▁vendu	-5690
▁végan	-5691
▁Évite	-5692
▁égard	-5693
▁égaré	-5694
▁épous	-5695
▁évadé	-5696
abillez	-5697
acheter	-5698
adorais	-5699
▁SMS	-5700
algie	-5701
herbe	-5702
▁Annu	-5703
▁Cool	-5704
▁achè	-5705
▁leva	-5706
▁vomi	-5707
▁Ainsi	-5708
▁Joues	-5709
▁Raoul	-5710
▁Renon	-5711
▁berné	-5712
▁emmer	-5713
▁extra	-5714
▁gelée	-5715
▁imbéc	-5716
▁loser	-5717
▁lourd	-5718
▁loyal	-5719
▁réels	-5720
▁trébu	-5721
▁veuve	-5722
▁Élarg	-5723
adorent	-5724
aignées	-5725
andises	-5726
anglais	-5727
anquill	-5728
assique	-5729
avancer	-5730
cellent	-5731
chargée	-5732
cidaire	-5733
dessous	-5734
effraie	-5735
enfants	-5736
entions	-5737
entrain	-5738
ergoter	-5739
excuser	-5740
gnaient	-5741
honneur	-5742
idables	-5743
inalité	-5744
isément	-5745
lendide	-5746
mettrai	-5747
obéirai	-5748
onnelle	-5749
onnerai	-5750
onsieur	-5751
ossible	-5752
redanse	-5753
ritaire	-5754
seigner	-5755
èrement	-5756
énomène	-5757
éparons	-5758
▁Accomp	-5759
▁Agrand	-5760
▁Aucune	-5761
▁Bougez	-5762
▁Brosse	-5763
▁Brûlez	-5764
▁Calmos	-5765
▁Creuse	-5766
▁Debout	-5767
▁Emmène	-5768
▁Enfour	-5769
▁Entrée	-5770
▁Excuse	-5771
▁Expire	-5772
▁Foutez	-5773
▁Lequel	-5774
▁Levons	-5775
▁Maniez	-5776
▁Prouve	-5777
▁Remets	-5778
▁Répare	-5779
▁Saisis	-5780
▁Scelle	-5781
▁Secoue	-5782
▁Sentez	-5783
▁Serais	-5784
▁Sonnez	-5785
▁Taisez	-5786
▁Tentez	-5787
▁Tourne	-5788
▁absent	-5789
▁acclam	-5790
▁acteur	-5791
▁adopté	-5792
▁adulte	-5793
▁aidait	-5794
▁aident	-5795
▁alarmé	-5796
▁allait	-5797
▁allumé	-5798
▁amende	-5799
aments	-5800
▁Aviez	-5801
▁négli	-5802
▁sauta	-5803
▁éblou	-5804
horloge	-5805
éprouve	-5806
▁Courez	-5807
▁Fuyons	-5808
▁Offrez	-5809
▁alerte	-5810
▁amical	-5811
▁amuser	-5812
▁ancien	-5813
▁années	-5814
▁apprêt	-5815
▁assure	-5816
▁atroce	-5817
▁auteur	-5818
▁autres	-5819
▁banane	-5820
▁beauté	-5821
▁blesse	-5822
▁bluffe	-5823
▁bordel	-5824
▁bosser	-5825
▁bouder	-5826
▁bougon	-5827
▁boîtes	-5828
▁branle	-5829
▁bronzé	-5830
▁brûlée	-5831
▁burent	-5832
▁buvais	-5833
▁buvait	-5834
▁bâillé	-5835
▁bégaie	-5836
▁cafard	-5837
▁candid	-5838
▁cassos	-5839
▁cassés	-5840
▁caviar	-5841
▁chaude	-5842
▁claque	-5843
▁classe	-5844
▁cligné	-5845
▁contre	-5846
▁coudre	-5847
▁cruels	-5848
▁crêpes	-5849
▁double	-5850
▁droits	-5851
▁décour	-5852
▁décédé	-5853
▁délais	-5854
▁dépend	-5855
▁dévoué	-5856
▁emprun	-5857
▁enneig	-5858
▁ennuie	-5859
▁entrez	-5860
▁entêté	-5861
▁espion	-5862
▁eurent	-5863
▁examen	-5864
▁exclue	-5865
▁exercé	-5866
▁fautif	-5867
▁façons	-5868
▁fermer	-5869
▁fermés	-5870
▁fiancé	-5871
▁fierai	-5872
▁firent	-5873
▁forces	-5874
▁fortes	-5875
▁fortun	-5876
▁fourbu	-5877
▁foutus	-5878
▁franch	-5879
▁frappe	-5880
▁gagnes	-5881
▁gardes	-5882
▁gauche	-5883
▁givrée	-5884
▁glacée	-5885
▁grasse	-5886
▁grinch	-5887
▁grogné	-5888
▁gronda	-5889
▁honoré	-5890
▁humide	-5891
▁humili	-5892
▁hésité	-5893
▁incarc	-5894
▁indice	-5895
▁ingénu	-5896
▁insuff	-5897
▁jambon	-5898
▁jardin	-5899
▁jusque	-5900
▁justes	-5901
▁lacets	-5902
▁lancer	-5903
▁lettre	-5904
▁ligoté	-5905
▁lutter	-5906
▁lâcher	-5907
▁maigre	-5908
▁marqué	-5909
▁marrer	-5910
▁marrée	-5911
▁menace	-5912
▁mental	-5913
▁morflé	-5914
▁moteur	-5915
▁musici	-5916
▁mécont	-5917
▁neutre	-5918
▁numéro	-5919
▁observ	-5920
▁obéiss	-5921
▁ordres	-5922
▁paiera	-5923
▁parten	-5924
▁passer	-5925
▁penses	-5926
▁pensez	-5927
▁perdez	-5928
▁plaint	-5929
▁planté	-5930
▁plissé	-5931
▁poulet	-5932
▁poupon	-5933
▁poésie	-5934
▁pressé	-5935
▁projet	-5936
▁pépère	-5937
▁quérir	-5938
▁rappel	-5939
▁remise	-5940
▁remuée	-5941
▁rentre	-5942
▁retenu	-5943
▁risqué	-5944
▁récomp	-5945
▁réjoui	-5946
▁réparé	-5947
▁salace	-5948
▁samedi	-5949
▁saoule	-5950
▁saouls	-5951
▁sauter	-5952
▁sauver	-5953
▁secoué	-5954
▁sirène	-5955
▁sonner	-5956
▁soudoy	-5957
▁stores	-5958
▁suivez	-5959
▁suivie	-5960
▁tempor	-5961
▁tirait	-5962
▁tiroir	-5963
▁toubib	-5964
▁trappe	-5965
▁treize	-5966
▁trempé	-5967
▁tripes	-5968
▁trouva	-5969
▁tuerai	-5970
▁urgent	-5971
▁vainqu	-5972
▁venons	-5973
▁verres	-5974
▁vieill	-5975
▁visage	-5976
▁vivent	-5977
▁voiles	-5978
▁voyais	-5979
▁Éteins	-5980
▁Évitez	-5981
▁écoute	-5982
▁énigme	-5983
▁éteint	-5984
▁étouff	-5985
▁étudie	-5986
▁évanou	-5987
admirait	-5988
admirons	-5989
aidaient	-5990
aimaient	-5991
apprécia	-5992
aspirine	-5993
attraper	-5994
avention	-5995
emprunte	-5996
entraîne	-5997
essailli	-5998
identité	-5999
iendrons	-6000
inscrire	-6001
intrigue	-6002
irateurs	-6003
onnèrent	-6004
oublions	-6005
ouillard	-6006
sibilité	-6007
évidence	-6008
▁Allumez	-6009
▁Anglais	-6010
▁Augment	-6011
▁Bouclez	-6012
▁Compris	-6013
▁Demeure	-6014
▁Dommage	-6015
▁Défends	-6016
▁Démonte	-6017
▁Détruis	-6018
▁Enterre	-6019
▁Envoyez	-6020
▁Excusez	-6021
▁Expirez	-6022
▁Gardons	-6023
▁Gémeaux	-6024
▁Mettons	-6025
▁Mélange	-6026
▁Nourris	-6027
▁Parfait	-6028
▁Passons	-6029
▁Pleurer	-6030
▁Prépare	-6031
▁Quelles	-6032
▁Raconte	-6033
▁Ramenez	-6034
▁Redites	-6035
▁Rendons	-6036
▁Rentrez	-6037
▁Renvoie	-6038
▁Reposez	-6039
▁Respire	-6040
▁Riposte	-6041
▁Réponds	-6042
▁Répétez	-6043
▁Scellez	-6044
▁Secouez	-6045
▁Sérieux	-6046
▁Taureau	-6047
▁Traduis	-6048
▁abattue	-6049
▁aboyait	-6050
▁abrutie	-6051
▁accepté	-6052
▁affairé	-6053
▁aiderai	-6054
▁alarmée	-6055
▁amicale	-6056
▁amusons	-6057
▁annuler	-6058
▁apeurée	-6059
▁applaud	-6060
▁appétit	-6061
▁arnaqué	-6062
▁arrivée	-6063
▁assoiff	-6064
▁assoupi	-6065
▁attaque	-6066
▁attrape	-6067
▁autiste	-6068
▁avaient	-6069
▁bagages	-6070
▁bailler	-6071
▁barbare	-6072
▁barbier	-6073
▁battues	-6074
▁blaguer	-6075
▁boiteux	-6076
▁bourrée	-6077
▁cachets	-6078
▁cerveau	-6079
▁chaleur	-6080
▁chantez	-6081
▁chausse	-6082
▁cherche	-6083
▁choqués	-6084
▁cinglée	-6085
▁clichés	-6086
▁coincée	-6087
▁coincés	-6088
▁combien	-6089
▁compagn	-6090
▁conseil	-6091
▁consomm	-6092
▁contagi	-6093
▁contrat	-6094
▁coriace	-6095
▁courses	-6096
▁couvert	-6097
▁cracher	-6098
▁craques	-6099
▁crierai	-6100
▁céderai	-6101
▁dactylo	-6102
▁dessert	-6103
▁devenue	-6104
▁devient	-6105
▁directs	-6106
▁disputé	-6107
▁dollars	-6108
▁dommage	-6109
▁donnent	-6110
▁douleur	-6111
▁déchiré	-6112
▁décidée	-6113
▁défaite	-6114
▁défaits	-6115
▁déloyal	-6116
▁démener	-6117
▁déprimé	-6118
▁désarmé	-6119
▁désobéi	-6120
▁détails	-6121
▁détesté	-6122
▁détient	-6123
▁efforts	-6124
▁endroit	-6125
▁ennuyez	-6126
▁enrhumé	-6127
▁entends	-6128
▁envieux	-6129
▁envoyée	-6130
▁esprits	-6131
▁essaies	-6132
▁excitée	-6133
▁exprimé	-6134
▁faisais	-6135
▁fatigue	-6136
▁fiables	-6137
▁fiancés	-6138
▁fichent	-6139
▁fichier	-6140
▁frappée	-6141
▁fusible	-6142
▁gagnant	-6143
▁gardait	-6144
▁geindre	-6145
▁givrées	-6146
▁glacial	-6147
▁gorgées	-6148
▁grimace	-6149
▁grimacé	-6150
▁grognon	-6151
▁grosses	-6152
▁guérira	-6153
▁gâteaux	-6154
▁géniale	-6155
▁géniaux	-6156
▁habitué	-6157
▁hamster	-6158
▁hideuse	-6159
▁honorée	-6160
▁honteux	-6161
▁humains	-6162
▁héroïne	-6163
▁ignorée	-6164
▁ineptie	-6165
▁ingénue	-6166
▁insisté	-6167
▁invités	-6168
▁jongler	-6169
▁journal	-6170
▁laisser	-6171
▁larguée	-6172
▁liberté	-6173
▁lisible	-6174
▁logique	-6175
▁légumes	-6176
▁magique	-6177
▁malaise	-6178
▁malheur	-6179
▁mangent	-6180
▁manques	-6181
▁massage	-6182
▁mentent	-6183
▁mesquin	-6184
▁message	-6185
▁miracle	-6186
▁moindre	-6187
▁montrer	-6188
▁motivée	-6189
▁mourant	-6190
▁moutons	-6191
▁nourris	-6192
▁nuageux	-6193
▁obscène	-6194
▁ordonné	-6195
▁outrage	-6196
▁ouverts	-6197
▁panique	-6198
▁pardonn	-6199
▁parlent	-6200
▁parlons	-6201
▁parodie	-6202
▁partout	-6203
▁patiner	-6204
▁peintre	-6205
▁perdant	-6206
▁perdons	-6207
▁perdrai	-6208
▁pervers	-6209
▁pilotes	-6210
▁pilules	-6211
▁piscine	-6212
▁plantes	-6213
▁plantée	-6214
▁pleurez	-6215
▁portait	-6216
▁pouvoir	-6217
▁prenait	-6218
▁pressée	-6219
▁prirent	-6220
▁proches	-6221
▁projets	-6222
▁qualifi	-6223
▁quittes	-6224
▁raconte	-6225
▁rembour	-6226
▁remonté	-6227
▁rendons	-6228
▁reposée	-6229
▁repouss	-6230
▁ressens	-6231
▁restait	-6232
▁restent	-6233
▁revenir	-6234
▁revenue	-6235
▁revoilà	-6236
▁ringard	-6237
▁riposté	-6238
▁rivière	-6239
▁réalité	-6240
▁réjouie	-6241
▁réparai	-6242
▁réponds	-6243
▁résiste	-6244
▁saoules	-6245
▁science	-6246
▁soucier	-6247
▁souriez	-6248
▁spontan	-6249
▁stricte	-6250
▁suivrai	-6251
▁superbe	-6252
▁taisait	-6253
▁taquina	-6254
▁tirerai	-6255
▁tomates	-6256
▁tortues	-6257
▁trichez	-6258
▁tricote	-6259
▁tristes	-6260
▁trompes	-6261
▁trompés	-6262
▁témoign	-6263
▁varient	-6264
▁visible	-6265
▁voyante	-6266
▁Écartez	-6267
▁Étaient	-6268
▁échouer	-6269
▁écouter	-6270
▁émettre	-6271
▁énigmes	-6272
▁épaules	-6273
▁éteinte	-6274
▁étourdi	-6275
annulerai	-6276
arrêterai	-6277
attendais	-6278
attendrai	-6279
entraîner	-6280
essayerai	-6281
essionnel	-6282
intention	-6283
interromp	-6284
▁Accordez	-6285
▁Appellez	-6286
▁Apprends	-6287
▁Beaucoup	-6288
▁Capturez	-6289
▁Comporte	-6290
▁Embrasse	-6291
▁Enterrez	-6292
▁Explique	-6293
▁Inspirez	-6294
▁Japonais	-6295
▁Mangeons	-6296
▁Parviens	-6297
▁Possédez	-6298
▁Pourriez	-6299
▁Rappelez	-6300
▁Rentrons	-6301
▁Renvoyez	-6302
▁Ripostez	-6303
▁Souhaite	-6304
▁Traverse	-6305
▁achetons	-6306
▁acquérir	-6307
▁admettre	-6308
▁admirons	-6309
▁affairée	-6310
▁alentour	-6311
▁allongée	-6312
▁amusante	-6313
▁apparent	-6314
▁appelées	-6315
▁apprends	-6316
▁approuvé	-6317
▁apprécia	-6318
▁arnaquée	-6319
▁arrivera	-6320
▁arrières	-6321
▁arrêtons	-6322
▁assiette	-6323
▁assister	-6324
▁assoupie	-6325
▁attaquer	-6326
▁attendit	-6327
▁attendra	-6328
▁attentif	-6329
▁augmenté	-6330
▁aventure	-6331
▁baseball	-6332
▁bougonne	-6333
▁bouillir	-6334
▁brillant	-6335
▁capitulé	-6336
▁carabine	-6337
▁certaine	-6338
▁cessions	-6339
▁chameaux	-6340
▁changent	-6341
▁changera	-6342
▁chanteur	-6343
▁choquées	-6344
▁clémente	-6345
▁coincées	-6346
▁comptons	-6347
▁conseils	-6348
▁contents	-6349
▁continua	-6350
▁cousines	-6351
▁créatifs	-6352
▁crédules	-6353
▁cuillère	-6354
▁desserts	-6355
▁devenais	-6356
▁devenait	-6357
▁disaient	-6358
▁distrait	-6359
▁divorcée	-6360
▁débarqué	-6361
▁décidera	-6362
▁décision	-6363
▁défaites	-6364
▁déloyale	-6365
▁démasqué	-6366
▁dépressi	-6367
▁déprimée	-6368
▁déshydra	-6369
▁désolées	-6370
▁détourna	-6371
▁effarant	-6372
▁effectué	-6373
▁effrayée	-6374
▁effrayés	-6375
▁embêtant	-6376
▁emporter	-6377
▁endormis	-6378
▁enfreint	-6379
▁entendue	-6380
▁envieuse	-6381
▁essaient	-6382
▁essayent	-6383
▁existent	-6384
▁fabuleux	-6385
▁fainéant	-6386
▁faisions	-6387
▁fiévreux	-6388
▁flemmard	-6389
▁formuler	-6390
▁gaspille	-6391
▁guiderai	-6392
▁géniales	-6393
▁habillée	-6394
▁haletait	-6395
▁héroïque	-6396
▁indécent	-6397
▁inquiets	-6398
▁insectes	-6399
▁insister	-6400
▁introver	-6401
▁ironique	-6402
▁jumelles	-6403
▁location	-6404
▁lunettes	-6405
▁mangeait	-6406
▁mangerai	-6407
▁maniaque	-6408
▁manières	-6409
▁mariages	-6410
▁mercredi	-6411
▁mesquine	-6412
▁mourions	-6413
▁mourrons	-6414
▁méritent	-6415
▁méticule	-6416
▁nagèrent	-6417
▁nettoyer	-6418
▁nombreux	-6419
▁nouvelle	-6420
▁obstinée	-6421
▁offensée	-6422
▁pancarte	-6423
▁particip	-6424
▁partirai	-6425
▁peinture	-6426
▁perturbé	-6427
▁pleuvait	-6428
▁pleuvoir	-6429
▁portable	-6430
▁priorité	-6431
▁probable	-6432
▁procéder	-6433
▁prudence	-6434
▁préjugés	-6435
▁préparer	-6436
▁présente	-6437
▁rafraich	-6438
▁rappelez	-6439
▁remariée	-6440
▁remarqua	-6441
▁remettra	-6442
▁renaître	-6443
▁renifler	-6444
▁repasser	-6445
▁reprises	-6446
▁retentir	-6447
▁retourne	-6448
▁retourné	-6449
▁rigolent	-6450
▁résonner	-6451
▁saignait	-6452
▁sauverai	-6453
▁savaient	-6454
▁semblant	-6455
▁semblent	-6456
▁sensible	-6457
▁sociable	-6458
▁solution	-6459
▁sorcière	-6460
▁souffert	-6461
▁souhaité	-6462
▁soulagée	-6463
▁soulever	-6464
▁sourcils	-6465
▁souriait	-6466
▁souriant	-6467
▁souvenez	-6468
▁souvient	-6469
▁spéciaux	-6470
▁survivra	-6471
▁synchron	-6472
▁sécurisé	-6473
▁tenaient	-6474
▁tolérant	-6475
▁touriste	-6476
▁tournait	-6477
▁tracasse	-6478
▁tragique	-6479
▁tragédie	-6480
▁trichent	-6481
▁trousses	-6482
▁utiliser	-6483
▁veinards	-6484
▁viennent	-6485
▁vulgaire	-6486
▁véhicule	-6487
▁écriteau	-6488
▁égoïstes	-6489
▁épidémie	-6490
aisissable	-6491
améliorera	-6492
▁Américain	-6493
▁Bienvenue	-6494
▁Conduisez	-6495
▁Considère	-6496
▁Célébrons	-6497
▁Détruisez	-6498
▁Embauchez	-6499
▁Excellent	-6500
▁Finissons	-6501
▁Maîtrisez	-6502
▁Pardonnez	-6503
▁Patientez	-6504
▁Permettez	-6505
▁Pourrions	-6506
▁Remplacez	-6507
▁Souhaitez	-6508
▁Traduisez	-6509
▁Tranquill	-6510
▁abandonna	-6511
▁absurdité	-6512
▁accidents	-6513
▁araignées	-6514
▁arrogante	-6515
▁arrêtions	-6516
▁assuétude	-6517
▁attendons	-6518
▁attentive	-6519
▁binoclard	-6520
▁brillante	-6521
▁calmement	-6522
▁cambriolé	-6523
▁changeons	-6524
▁chanteuse	-6525
▁chargerai	-6526
▁charlatan	-6527
▁chauffeur	-6528
▁chocottes	-6529
▁classique	-6530
▁condamnés	-6531
▁conduisez	-6532
▁conseille	-6533
▁construit	-6534
▁contentes	-6535
▁contrôler	-6536
▁croissant	-6537
▁créatives	-6538
▁célébrité	-6539
▁daltonien	-6540
▁devinrent	-6541
▁discrètes	-6542
▁disposent	-6543
▁débarrass	-6544
▁débrouill	-6545
▁déception	-6546
▁déciderai	-6547
▁décommand	-6548
▁désaccord	-6549
▁désespère	-6550
▁désespéré	-6551
▁désorient	-6552
▁détestais	-6553
▁détestent	-6554
▁détruirai	-6555
▁effrayées	-6556
▁embrassée	-6557
▁embuscade	-6558
▁endormies	-6559
▁excursion	-6560
▁fiévreuse	-6561
▁foutaises	-6562
▁française	-6563
▁fredonner	-6564
▁gratuites	-6565
▁imbéciles	-6566
▁immobiles	-6567
▁impartial	-6568
▁impliqués	-6569
▁incertain	-6570
▁innocents	-6571
▁intention	-6572
▁intriguée	-6573
▁japonaise	-6574
▁marcherai	-6575
▁mentionna	-6576
▁moururent	-6577
▁nageaient	-6578
▁nostalgie	-6579
▁néanmoins	-6580
▁négligent	-6581
▁objectifs	-6582
▁objective	-6583
▁optimiste	-6584
▁parapluie	-6585
▁pardonnée	-6586
▁partagera	-6587
▁patienter	-6588
▁permettre	-6589
▁perplexes	-6590
▁personnel	-6591
▁phénomène	-6592
▁ponctuels	-6593
▁poursuivi	-6594
▁prendrons	-6595
▁promenade	-6596
▁précipite	-6597
▁préséance	-6598
▁puissants	-6599
▁quereller	-6600
▁questions	-6601
▁quiconque	-6602
▁raccroche	-6603
▁rationnel	-6604
▁recyclage	-6605
▁rejoindre	-6606
▁ressentir	-6607
▁réalistes	-6608
▁récupérer	-6609
▁réessayer	-6610
▁réveillés	-6611
▁sceptique	-6612
▁souriante	-6613
▁souvenons	-6614
▁splendide	-6615
▁supporter	-6616
▁sérieuses	-6617
▁tracassez	-6618
▁trouverai	-6619
▁téléphone	-6620
▁vaisselle	-6621
▁veinardes	-6622
▁vengeance	-6623
▁viendrons	-6624
▁vigilants	-6625
▁événement	-6626
acquisition	-6627
emporterons	-6628
interrompre	-6629
▁Abandonnez	-6630
▁Accompagne	-6631
▁Magnifique	-6632
▁Nourrissez	-6633
▁Redemandez	-6634
▁acceptable	-6635
▁appartient	-6636
▁appellerai	-6637
▁approuvent	-6638
▁apprécions	-6639
▁asiatiques	-6640
▁astucieuse	-6641
▁attendrons	-6642
▁brouillard	-6643
▁canadienne	-6644
▁catholique	-6645
▁champignon	-6646
▁chantaient	-6647
▁chirurgien	-6648
▁compassion	-6649
▁concentrer	-6650
▁concentrés	-6651
▁conscienci	-6652
▁construite	-6653
▁continuait	-6654
▁convaincue	-6655
▁coopérerai	-6656
▁couramment	-6657
▁discutions	-6658
▁désespérée	-6659
▁enseignant	-6660
▁essayerons	-6661
▁fanatiques	-6662
▁fourchette	-6663
▁friandises	-6664
▁gaspillage	-6665
▁grandiront	-6666
▁impassible	-6667
▁impatiente	-6668
▁impliquées	-6669
▁improbable	-6670
▁imprudente	-6671
▁impuissant	-6672
▁insouciant	-6673
▁intentions	-6674
▁minutieuse	-6675
▁ordinateur	-6676
▁permettrai	-6677
▁poursuivre	-6678
▁prisonnier	-6679
▁produisent	-6680
▁profondeur	-6681
▁protestais	-6682
▁précaution	-6683
▁précipitez	-6684
▁puissantes	-6685
▁regarderai	-6686
▁renseigner	-6687
▁ressentait	-6688
▁ressources	-6689
▁récréation	-6690
▁réussirons	-6691
▁réveillées	-6692
▁sanglotait	-6693
▁semblables	-6694
▁similaires	-6695
▁sournoises	-6696
▁spécifique	-6697
▁suicidaire	-6698
▁surviendra	-6699
▁survivrons	-6700
▁talentueux	-6701
▁terrifiant	-6702
▁travailles	-6703
▁tressailli	-6704
▁trouveront	-6705
▁trouvèrent	-6706
▁téléphoner	-6707
abandonnerai	-6708
▁Improvisons	-6709
▁Ralentissez	-6710
▁abandonnons	-6711
▁acclamèrent	-6712
▁accompagner	-6713
▁admirateurs	-6714
▁agriculteur	-6715
▁appelleront	-6716
▁asthmatique	-6717
▁attaqueront	-6718
▁autoritaire	-6719
▁candidature	-6720
▁combattrons	-6721
▁concentrées	-6722
▁continuerai	-6723
▁contredanse	-6724
▁craignaient	-6725
▁criminalité	-6726
▁démissionne	-6727
▁démissionné	-6728
▁enseignante	-6729
▁enseignants	-6730
▁entièrement	-6731
▁fantastique	-6732
▁formidables	-6733
▁franchement	-6734
▁impuissants	-6735
▁insuffisant	-6736
▁intéressant	-6737
▁malheureuse	-6738
▁malédiction	-6739
▁médicaments	-6740
▁normalement	-6741
▁particulier	-6742
▁plaisantait	-6743
▁plaisantons	-6744
▁ponctuelles	-6745
▁possibilité	-6746
▁précisément	-6747
▁sincèrement	-6748
▁spécialiste	-6749
▁surviennent	-6750
▁talentueuse	-6751
▁travaillons	-6752
▁verrouillée	-6753
▁Réfléchissez	-6754
▁augmentation	-6755
▁chatouilleux	-6756
▁commandement	-6757
▁délicatement	-6758
▁enseignantes	-6759
▁impuissantes	-6760
▁intelligents	-6761
▁positivement	-6762
▁profondément	-6763
▁protestation	-6764
▁téléphonerai	-6765
▁Déverrouillez	-6766
▁Félicitations	-6767
▁Tranquillisez	-6768
▁abandonnèrent	-6769
▁connaissaient	-6770
▁contravention	-6771
▁félicitations	-6772
▁impressionnée	-6773
▁insaisissable	-6774
▁intelligentes	-6775
▁malchanceuses	-6776
▁professionnel	-6777
▁soigneusement	-6778
▁impressionnant	-6779
▁rafraîchissant	-6780
▁reconnaissante	-6781
▁tranquillement	-6782
AB	-6783
CP	-6784
In	-6785
aj	-6786
ba	-6787
cc	-6788
da	-6789
do	-6790
fr	-6791
gg	-6792
gm	-6793
gs	-6794
hs	-6795
ib	-6796
lp	-6797
oo	-6798
rs	-6799
VC	-6800
gr	-6801
iz	-6802
sy	-6803
sè	-6804
uc	-6805
vo	-6806
vu	-6807
ym	-6808
yn	-6809
yo	-6810
Ég	-6811
Ét	-6812
âm	-6813
èz	-6814
éb	-6815
îm	-6816
în	-6817
ôm	-6818
abs	-6819
ane	-6820
aou	-6821
apa	-6822
ari	-6823
arn	-6824
aré	-6825
avé	-6826
aça	-6827
bes	-6828
blé	-6829
bol	-6830
bée	-6831
cch	-6832
cez	-6833
chc	-6834
des	-6835
dou	-6836
ecc	-6837
een	-6838
elv	-6839
eno	-6840
err	-6841
esé	-6842
eue	-6843
eug	-6844
fez	-6845
gar	-6846
ger	-6847
git	-6848
got	-6849
gée	-6850
gés	-6851
hon	-6852
hét	-6853
idi	-6854
ind	-6855
inv	-6856
ios	-6857
lau	-6858
llé	-6859
los	-6860
mai	-6861
mon	-6862
mou	-6863
mée	-6864
nan	-6865
nez	-6866
nom	-6867
nou	-6868
née	-6869
oca	-6870
och	-6871
ode	-6872
omn	-6873
ouc	-6874
ouf	-6875
pil	-6876
psé	-6877
pét	-6878
rac	-6879
rex	-6880
sai	-6881
sau	-6882
sey	-6883
sis	-6884
tec	-6885
tin	-6886
tip	-6887
tos	-6888
tre	-6889
uns	-6890
ute	-6891
çon	-6892
éen	-6893
épo	-6894
équ	-6895
éro	-6896
éte	-6897
étr	-6898
▁At	-6899
ali	-6900
cal	-6901
ovi	-6902
tal	-6903
tir	-6904
tit	-6905
ugn	-6906
▁Eh	-6907
▁Id	-6908
▁Im	-6909
▁Sc	-6910
▁Se	-6911
▁St	-6912
▁To	-6913
▁Ve	-6914
▁Vi	-6915
▁at	-6916
▁ba	-6917
▁bè	-6918
▁gn	-6919
▁gâ	-6920
▁iP	-6921
▁id	-6922
▁né	-6923
▁os	-6924
▁th	-6925
▁us	-6926
▁êt	-6927
aggr	-6928
agis	-6929
alle	-6930
allé	-6931
alph	-6932
alte	-6933
alée	-6934
ammé	-6935
amné	-6936
aouh	-6937
arao	-6938
arie	-6939
arra	-6940
arri	-6941
atas	-6942
athe	-6943
atig	-6944
auto	-6945
açon	-6946
bant	-6947
bile	-6948
bond	-6949
bons	-6950
ceau	-6951
cent	-6952
chis	-6953
chop	-6954
chos	-6955
ciel	-6956
cier	-6957
cipe	-6958
comb	-6959
cons	-6960
crée	-6961
cues	-6962
cula	-6963
cure	-6964
digé	-6965
elin	-6966
encé	-6967
ença	-6968
erce	-6969
esce	-6970
euil	-6971
fais	-6972
file	-6973
fois	-6974
gant	-6975
icit	-6976
iert	-6977
indé	-6978
jeux	-6979
jonc	-6980
jure	-6981
lier	-6982
lois	-6983
mons	-6984
océd	-6985
oile	-6986
omis	-6987
oner	-6988
ostu	-6989
osés	-6990
ouru	-6991
outs	-6992
outu	-6993
ouvé	-6994
pide	-6995
ppez	-6996
quai	-6997
rice	-6998
riel	-6999
ase	-7000
ava	-7001
imi	-7002
ita	-7003
oal	-7004
▁Rè	-7005
▁hu	-7006
▁ir	-7007
agon	-7008
aida	-7009
aves	-7010
cita	-7011
gnes	-7012
lpit	-7013
ogez	-7014
pare	-7015
quem	-7016
rime	-7017
ring	-7018
rira	-7019
rite	-7020
riét	-7021
rois	-7022
ronn	-7023
sent	-7024
tais	-7025
titu	-7026
turb	-7027
uira	-7028
ulée	-7029
uner	-7030
utes	-7031
vait	-7032
véri	-7033
ycée	-7034
ytes	-7035
État	-7036
çois	-7037
égez	-7038
ésav	-7039
étre	-7040
îtes	-7041
▁Aid	-7042
▁Aïe	-7043
▁Bal	-7044
▁Cre	-7045
▁Dan	-7046
▁Dév	-7047
▁Eff	-7048
▁Feu	-7049
▁Flo	-7050
▁Idi	-7051
▁Iel	-7052
▁Inf	-7053
▁Mou	-7054
▁Mus	-7055
▁Pio	-7056
▁Pré	-7057
▁Pét	-7058
▁RCP	-7059
▁Ras	-7060
▁Red	-7061
▁Rem	-7062
▁Ris	-7063
▁Tai	-7064
▁Toy	-7065
▁Vis	-7066
▁Vot	-7067
▁abe	-7068
▁agr	-7069
▁ara	-7070
▁avi	-7071
▁bav	-7072
▁bil	-7073
▁bét	-7074
▁chr	-7075
▁chè	-7076
▁cir	-7077
▁cot	-7078
▁dus	-7079
▁fal	-7080
▁fre	-7081
▁fré	-7082
▁fui	-7083
▁hal	-7084
▁hoc	-7085
▁hom	-7086
▁lac	-7087
▁lav	-7088
▁maï	-7089
▁mun	-7090
▁mén	-7091
▁nav	-7092
▁née	-7093
▁ouï	-7094
▁pli	-7095
▁pon	-7096
▁poè	-7097
▁psy	-7098
▁rag	-7099
but	-7100
bés	-7101
hés	-7102
irm	-7103
oth	-7104
ppe	-7105
rov	-7106
▁Fr	-7107
▁Ob	-7108
avir	-7109
chet	-7110
iral	-7111
ires	-7112
nité	-7113
oins	-7114
otch	-7115
sier	-7116
ttés	-7117
téré	-7118
urer	-7119
ésir	-7120
ésor	-7121
▁Cam	-7122
▁Fie	-7123
▁Joy	-7124
▁ali	-7125
▁duo	-7126
▁jés	-7127
▁nie	-7128
▁pur	-7129
▁rai	-7130
▁ral	-7131
▁reb	-7132
▁red	-7133
▁roi	-7134
▁sai	-7135
▁sco	-7136
▁sot	-7137
▁squ	-7138
▁str	-7139
▁sue	-7140
▁sut	-7141
▁tal	-7142
▁tel	-7143
▁tig	-7144
▁toc	-7145
▁tot	-7146
▁vic	-7147
▁yen	-7148
▁yog	-7149
▁éle	-7150
▁éth	-7151
Inter	-7152
ablit	-7153
acité	-7154
agnes	-7155
agéré	-7156
ajout	-7157
alisé	-7158
amais	-7159
anglé	-7160
ardés	-7161
ative	-7162
auffe	-7163
avanc	-7164
açant	-7165
cchym	-7166
cussi	-7167
dible	-7168
dions	-7169
diter	-7170
douze	-7171
enard	-7172
enqui	-7173
enter	-7174
entri	-7175
errir	-7176
ertis	-7177
erves	-7178
ervés	-7179
estom	-7180
geots	-7181
ggest	-7182
gnait	-7183
icace	-7184
idées	-7185
ience	-7186
illie	-7187
impli	-7188
inces	-7189
incte	-7190
inons	-7191
irafe	-7192
irais	-7193
iteux	-7194
ituel	-7195
lammé	-7196
levez	-7197
llons	-7198
monté	-7199
lab	-7200
ôlé	-7201
airé	-7202
ames	-7203
amis	-7204
asco	-7205
fflé	-7206
geur	-7207
neur	-7208
olez	-7209
réal	-7210
sept	-7211
veur	-7212
yeur	-7213
èles	-7214
êter	-7215
▁bêt	-7216
▁gér	-7217
▁tue	-7218
▁tén	-7219
▁élé	-7220
arder	-7221
ardes	-7222
asque	-7223
astre	-7224
cepti	-7225
cules	-7226
drons	-7227
essez	-7228
laire	-7229
lipsé	-7230
odeur	-7231
oires	-7232
oirée	-7233
oissé	-7234
olets	-7235
ontra	-7236
ontée	-7237
orons	-7238
ortif	-7239
ossez	-7240
ouage	-7241
oumou	-7242
oupez	-7243
ousez	-7244
outer	-7245
outon	-7246
ouvre	-7247
ouvri	-7248
ovice	-7249
oyais	-7250
oûtes	-7251
parti	-7252
poids	-7253
point	-7254
quent	-7255
quins	-7256
rassa	-7257
recte	-7258
renez	-7259
ricor	-7260
rimad	-7261
rivis	-7262
sauté	-7263
serve	-7264
tesse	-7265
tiche	-7266
trois	-7267
uites	-7268
ulant	-7269
ultée	-7270
ureux	-7271
uriez	-7272
urons	-7273
usons	-7274
ussie	-7275
uvons	-7276
uyais	-7277
uyiez	-7278
venté	-7279
verai	-7280
ville	-7281
véler	-7282
xieux	-7283
énère	-7284
érale	-7285
étins	-7286
îtres	-7287
▁Actu	-7288
▁Bais	-7289
▁Comb	-7290
▁Dort	-7291
▁Débr	-7292
▁Déch	-7293
▁Exam	-7294
▁Fiez	-7295
▁Fuis	-7296
▁Irez	-7297
▁Jard	-7298
▁Laqu	-7299
até	-7300
dat	-7301
net	-7302
sév	-7303
acré	-7304
bère	-7305
illi	-7306
neau	-7307
état	-7308
▁Aut	-7309
▁Enc	-7310
▁Rat	-7311
▁bat	-7312
▁vif	-7313
▁zoo	-7314
airai	-7315
andes	-7316
angla	-7317
auves	-7318
beaux	-7319
chand	-7320
deste	-7321
ennis	-7322
inter	-7323
lleux	-7324
loyez	-7325
oudre	-7326
rerai	-7327
taire	-7328
▁Agis	-7329
▁Aère	-7330
▁Libé	-7331
▁Mais	-7332
▁Paie	-7333
▁Part	-7334
▁Paye	-7335
▁Reme	-7336
▁Renc	-7337
▁Sers	-7338
▁Sort	-7339
▁Télé	-7340
▁Voir	-7341
▁Vois	-7342
▁affû	-7343
▁alla	-7344
▁amer	-7345
▁aver	-7346
▁aîné	-7347
▁bara	-7348
▁bide	-7349
▁brit	-7350
▁bâti	-7351
▁béni	-7352
▁béné	-7353
▁cart	-7354
▁cess	-7355
▁chôm	-7356
▁ciel	-7357
▁coul	-7358
▁cris	-7359
▁dont	-7360
▁dres	-7361
▁dupe	-7362
▁déli	-7363
▁dépr	-7364
▁dîne	-7365
▁ench	-7366
▁espè	-7367
▁eues	-7368
▁faud	-7369
▁fier	-7370
▁fies	-7371
▁fine	-7372
▁fixa	-7373
▁frac	-7374
▁gauf	-7375
▁gelé	-7376
▁grav	-7377
▁grou	-7378
▁guit	-7379
▁gémi	-7380
▁hong	-7381
▁inex	-7382
▁insp	-7383
▁inév	-7384
▁irez	-7385
▁jase	-7386
▁loué	-7387
▁luis	-7388
▁mais	-7389
▁malp	-7390
▁mett	-7391
▁muff	-7392
▁muté	-7393
▁médi	-7394
▁nain	-7395
▁obsè	-7396
▁orch	-7397
▁over	-7398
▁parc	-7399
acc	-7400
odi	-7401
olu	-7402
rog	-7403
sac	-7404
édi	-7405
aces	-7406
acqu	-7407
arré	-7408
atto	-7409
dire	-7410
diti	-7411
rogr	-7412
utez	-7413
▁Cop	-7414
▁foc	-7415
▁joc	-7416
▁ore	-7417
dieux	-7418
forts	-7419
omage	-7420
ondré	-7421
édies	-7422
▁Arme	-7423
▁Bons	-7424
▁Mens	-7425
▁crus	-7426
▁jeté	-7427
▁peau	-7428
▁perm	-7429
▁poin	-7430
▁prié	-7431
▁prun	-7432
▁puez	-7433
▁puni	-7434
▁quar	-7435
▁rand	-7436
▁remp	-7437
▁revu	-7438
▁riez	-7439
▁rous	-7440
▁réam	-7441
▁réci	-7442
▁rêvé	-7443
▁sage	-7444
▁sauc	-7445
▁schc	-7446
▁scié	-7447
▁sirè	-7448
▁somn	-7449
▁stop	-7450
▁subi	-7451
▁sucr	-7452
▁sync	-7453
▁test	-7454
▁trav	-7455
▁tuez	-7456
▁vari	-7457
▁veuf	-7458
▁évas	-7459
abille	-7460
acclam	-7461
action	-7462
ageons	-7463
agonie	-7464
aidait	-7465
aident	-7466
ailles	-7467
airait	-7468
alisée	-7469
amants	-7470
angent	-7471
angère	-7472
appela	-7473
approp	-7474
arrose	-7475
assois	-7476
avance	-7477
avenir	-7478
avions	-7479
concev	-7480
elleux	-7481
embrou	-7482
emmène	-7483
endrai	-7484
essine	-7485
exerce	-7486
fiante	-7487
formés	-7488
gissez	-7489
guille	-7490
hommes	-7491
idérez	-7492
ifeste	-7493
inable	-7494
instin	-7495
insère	-7496
iscuit	-7497
istres	-7498
itable	-7499
appa	-7500
assa	-7501
fite	-7502
gnée	-7503
guer	-7504
illa	-7505
page	-7506
suit	-7507
vide	-7508
▁bec	-7509
▁coo	-7510
▁ill	-7511
aginé	-7512
ailla	-7513
appée	-7514
astic	-7515
chers	-7516
horte	-7517
isées	-7518
▁atta	-7519
▁cage	-7520
▁calé	-7521
▁coma	-7522
▁dise	-7523
▁orte	-7524
▁pomp	-7525
▁rose	-7526
apport	-7527
auberg	-7528
cation	-7529
ignore	-7530
inente	-7531
ission	-7532
iterai	-7533
lation	-7534
manche	-7535
occupe	-7536
ocions	-7537
oierai	-7538
ologue	-7539
ommagé	-7540
onnage	-7541
onneur	-7542
ontrez	-7543
othèse	-7544
oufflé	-7545
oulait	-7546
ourdie	-7547
ouvant	-7548
ouvrit	-7549
phonez	-7550
pilant	-7551
querie	-7552
raient	-7553
sement	-7554
souris	-7555
telles	-7556
terait	-7557
terdit	-7558
toppez	-7559
téréot	-7560
ueille	-7561
uisier	-7562
urance	-7563
venues	-7564
ynique	-7565
écoute	-7566
écrire	-7567
édales	-7568
époque	-7569
équipe	-7570
▁Adieu	-7571
▁Après	-7572
▁Autre	-7573
▁Avise	-7574
▁Aérez	-7575
▁Bande	-7576
▁Belle	-7577
▁Contr	-7578
▁Danse	-7579
▁Décid	-7580
▁Fumes	-7581
▁Leurs	-7582
▁Pardi	-7583
▁Pelez	-7584
▁Porte	-7585
▁Possè	-7586
▁Prête	-7587
▁Quant	-7588
▁Surfe	-7589
▁Virez	-7590
▁aboya	-7591
▁acqui	-7592
▁alibi	-7593
▁amère	-7594
▁arbre	-7595
▁avalé	-7596
▁avers	-7597
▁banqu	-7598
▁bayer	-7599
ets	-7600
oba	-7601
obt	-7602
uth	-7603
apis	-7604
dose	-7605
encr	-7606
flée	-7607
nose	-7608
rape	-7609
utte	-7610
▁Biz	-7611
▁Pig	-7612
▁and	-7613
agnat	-7614
agnol	-7615
athie	-7616
chose	-7617
inute	-7618
ordre	-7619
rette	-7620
tives	-7621
xante	-7622
âchez	-7623
▁Ajus	-7624
▁cinq	-7625
▁gâch	-7626
▁jure	-7627
asarde	-7628
essons	-7629
outils	-7630
rerons	-7631
tances	-7632
ypnose	-7633
▁Paris	-7634
▁Pigez	-7635
▁Quels	-7636
▁bigot	-7637
▁boite	-7638
▁brefs	-7639
▁bénit	-7640
▁cessé	-7641
▁chair	-7642
▁chand	-7643
▁chiot	-7644
▁collé	-7645
▁conçu	-7646
▁corri	-7647
▁coule	-7648
▁coups	-7649
▁crach	-7650
▁cédez	-7651
▁dissi	-7652
▁dorme	-7653
▁draps	-7654
▁délit	-7655
▁détri	-7656
▁entre	-7657
▁farce	-7658
▁figée	-7659
▁filet	-7660
▁fixez	-7661
▁floué	-7662
▁friss	-7663
▁fronc	-7664
▁frère	-7665
▁gavée	-7666
▁gifla	-7667
▁gnang	-7668
▁grain	-7669
▁guère	-7670
▁géant	-7671
▁gênez	-7672
▁hache	-7673
▁hissé	-7674
▁hurle	-7675
▁hâter	-7676
▁idées	-7677
▁imper	-7678
▁instr	-7679
▁jeans	-7680
▁joint	-7681
▁lance	-7682
▁lents	-7683
▁lirai	-7684
▁louve	-7685
▁lutte	-7686
▁magne	-7687
▁maire	-7688
▁maths	-7689
▁maçon	-7690
▁mises	-7691
▁mords	-7692
▁mêles	-7693
▁natto	-7694
▁nièce	-7695
▁noire	-7696
▁nomme	-7697
▁nourr	-7698
▁obéis	-7699
▁zè	-7700
allo	-7701
▁brè	-7702
▁eus	-7703
▁onc	-7704
deuse	-7705
ption	-7706
înmes	-7707
▁cash	-7708
▁diné	-7709
▁exal	-7710
▁gâté	-7711
▁mole	-7712
▁orph	-7713
▁retr	-7714
▁émue	-7715
angera	-7716
atastr	-7717
endule	-7718
garisé	-7719
lettes	-7720
onnera	-7721
▁Mords	-7722
▁Posez	-7723
▁agent	-7724
▁basse	-7725
▁bluff	-7726
▁chier	-7727
▁désir	-7728
▁fasse	-7729
▁finis	-7730
▁fruit	-7731
▁oncle	-7732
▁ouais	-7733
▁parla	-7734
▁parte	-7735
▁passi	-7736
▁pelle	-7737
▁pensé	-7738
▁perte	-7739
▁pigez	-7740
▁placé	-7741
▁plaie	-7742
▁plane	-7743
▁plané	-7744
▁plong	-7745
▁poche	-7746
▁poire	-7747
▁potes	-7748
▁poule	-7749
▁prouv	-7750
▁puait	-7751
▁pâtes	-7752
▁pétri	-7753
▁radic	-7754
▁raidi	-7755
▁reine	-7756
▁riait	-7757
▁roule	-7758
▁roulé	-7759
▁rusés	-7760
▁rêvez	-7761
▁sciée	-7762
▁scoop	-7763
▁solde	-7764
▁sushi	-7765
▁tabou	-7766
▁taire	-7767
▁tarte	-7768
▁tenez	-7769
▁thune	-7770
▁tomba	-7771
▁toupe	-7772
▁tueur	-7773
▁têtus	-7774
▁usage	-7775
▁venez	-7776
▁vibre	-7777
▁vieil	-7778
▁voile	-7779
▁vraie	-7780
▁végét	-7781
▁zèbre	-7782
▁époux	-7783
▁êtres	-7784
accepte	-7785
alentit	-7786
angerai	-7787
antions	-7788
ançaise	-7789
apprête	-7790
arienne	-7791
arrache	-7792
arrêtez	-7793
assieds	-7794
assures	-7795
attrape	-7796
avancez	-7797
caliers	-7798
cherais	-7799
ffér	-7800
lise	-7801
lium	-7802
oney	-7803
trau	-7804
érés	-7805
▁blo	-7806
avoue	-7807
omate	-7808
oyure	-7809
perts	-7810
turne	-7811
uminé	-7812
unité	-7813
▁Insc	-7814
▁Soit	-7815
▁abri	-7816
▁hélé	-7817
▁joie	-7818
▁sied	-7819
hélium	-7820
ondant	-7821
élérez	-7822
énique	-7823
▁anore	-7824
▁blême	-7825
▁croit	-7826
▁enfin	-7827
▁fière	-7828
▁jetez	-7829
▁laids	-7830
▁lâche	-7831
▁payai	-7832
▁plate	-7833
▁poney	-7834
▁prévu	-7835
▁puits	-7836
▁raque	-7837
▁sonné	-7838
▁venus	-7839
aimions	-7840
arrange	-7841
arrassé	-7842
chonner	-7843
conques	-7844
culaire	-7845
efforce	-7846
ellerai	-7847
emploie	-7848
endredi	-7849
enottez	-7850
enquiqu	-7851
enserai	-7852
envoyer	-7853
ersaire	-7854
essence	-7855
estomac	-7856
eureuse	-7857
fférent	-7858
idnappé	-7859
irmière	-7860
jection	-7861
laxonne	-7862
lements	-7863
lpitant	-7864
neilles	-7865
ochiste	-7866
otesque	-7867
ournons	-7868
rimades	-7869
ringale	-7870
ritères	-7871
rouille	-7872
unissez	-7873
utation	-7874
volants	-7875
vérifie	-7876
âchoire	-7877
éternue	-7878
▁Aimiez	-7879
▁Annule	-7880
▁Appuie	-7881
▁Balaie	-7882
▁Besoin	-7883
▁Cancer	-7884
▁Compte	-7885
▁Croque	-7886
▁Cuisez	-7887
▁Dormez	-7888
▁Encour	-7889
▁Enfuis	-7890
▁Envoie	-7891
▁Filmez	-7892
▁Freine	-7893
▁Idiote	-7894
▁Impecc	-7895
▁Inimag	-7896
▁Jamais	-7897
▁Mentez	-7898
▁Mordez	-7899
odé	-7900
iver	-7901
loie	-7902
lote	-7903
ular	-7904
▁Cul	-7905
▁mûr	-7906
▁nul	-7907
▁élo	-7908
abète	-7909
ignit	-7910
olète	-7911
onstr	-7912
ultes	-7913
versé	-7914
▁Char	-7915
▁Chat	-7916
▁cané	-7917
▁expl	-7918
▁gobé	-7919
▁imit	-7920
▁lamb	-7921
▁pète	-7922
▁rept	-7923
▁repu	-7924
▁tins	-7925
▁âmes	-7926
ançons	-7927
enflam	-7928
issent	-7929
olence	-7930
ugnant	-7931
▁Fumez	-7932
▁Tente	-7933
▁Verse	-7934
▁adieu	-7935
▁bénie	-7936
▁chanç	-7937
▁condu	-7938
▁films	-7939
▁invis	-7940
▁teins	-7941
▁tente	-7942
▁tripe	-7943
▁vente	-7944
insiste	-7945
ivernes	-7946
tirante	-7947
▁Change	-7948
▁Parles	-7949
▁Pioche	-7950
▁Presse	-7951
▁Promis	-7952
▁Prêtes	-7953
▁Prêtez	-7954
▁Quatre	-7955
▁Rejoue	-7956
▁Restes	-7957
▁Rompez	-7958
▁Sautez	-7959
▁Sellez	-7960
▁Serait	-7961
▁Simpli	-7962
▁Suisse	-7963
▁Surfez	-7964
▁Telles	-7965
▁Toyota	-7966
▁Versez	-7967
▁affolé	-7968
▁agitée	-7969
▁aidons	-7970
▁alliez	-7971
▁allure	-7972
▁amusés	-7973
▁animés	-7974
▁apparu	-7975
▁appela	-7976
▁apport	-7977
▁arabes	-7978
▁arriva	-7979
▁auberg	-7980
▁aurais	-7981
▁bagues	-7982
▁bailla	-7983
▁banque	-7984
▁basses	-7985
▁battez	-7986
▁battra	-7987
▁bleues	-7988
▁boueux	-7989
▁bourse	-7990
▁braves	-7991
▁brèves	-7992
▁buvant	-7993
▁bégaye	-7994
▁bétail	-7995
▁causes	-7996
▁chacun	-7997
▁charge	-7998
▁chrome	-7999
exé	-8000
igé	-8001
iref	-8002
ista	-8003
lexe	-8004
pion	-8005
▁épr	-8006
abitu	-8007
ceaux	-8008
ignis	-8009
isser	-8010
isses	-8011
issue	-8012
olite	-8013
▁Cire	-8014
▁Faut	-8015
▁figé	-8016
▁hall	-8017
▁post	-8018
▁prit	-8019
▁titu	-8020
▁trép	-8021
▁vexé	-8022
irefox	-8023
éraman	-8024
▁Dévis	-8025
▁aimez	-8026
▁anniv	-8027
▁autor	-8028
▁bouts	-8029
▁crève	-8030
▁durer	-8031
▁levés	-8032
▁noirs	-8033
▁parié	-8034
▁poses	-8035
▁posez	-8036
▁sensé	-8037
▁vitam	-8038
corpion	-8039
énavant	-8040
▁Aimais	-8041
▁Camouf	-8042
▁Vivons	-8043
▁bouffé	-8044
▁citron	-8045
▁cligne	-8046
▁connus	-8047
▁copine	-8048
▁couché	-8049
▁coupai	-8050
▁couper	-8051
▁couple	-8052
▁coupée	-8053
▁courte	-8054
▁craint	-8055
▁creusé	-8056
▁crevée	-8057
▁cupide	-8058
▁devins	-8059
▁diable	-8060
▁dirait	-8061
▁diriez	-8062
▁discut	-8063
▁dormis	-8064
▁dressa	-8065
▁dresse	-8066
▁débout	-8067
▁débrai	-8068
▁décalé	-8069
▁démodé	-8070
▁dérape	-8071
▁désire	-8072
▁détenu	-8073
▁ecchym	-8074
▁effrac	-8075
▁embête	-8076
▁empire	-8077
▁enrôlé	-8078
▁entrés	-8079
▁espèce	-8080
▁expiré	-8081
▁faudra	-8082
▁feriez	-8083
▁fiasco	-8084
▁fichus	-8085
▁finies	-8086
▁flaire	-8087
▁foules	-8088
▁frappa	-8089
▁frimer	-8090
▁froids	-8091
▁froncé	-8092
▁futile	-8093
▁fâchés	-8094
▁gagnez	-8095
▁galère	-8096
▁garage	-8097
▁giflée	-8098
▁glisse	-8099
êpe	-8100
etch	-8101
▁Nég	-8102
▁agi	-8103
omphe	-8104
talon	-8105
évent	-8106
▁Eniv	-8107
▁Sale	-8108
▁agit	-8109
▁céré	-8110
▁gave	-8111
▁judi	-8112
▁rote	-8113
▁épée	-8114
▁équi	-8115
ansion	-8116
effray	-8117
▁Cirez	-8118
▁Conte	-8119
▁Pleut	-8120
▁Rouge	-8121
▁agace	-8122
▁aidée	-8123
▁avion	-8124
▁baign	-8125
▁coton	-8126
▁détec	-8127
▁guêpe	-8128
▁hypoc	-8129
▁pelli	-8130
▁sauce	-8131
▁saufs	-8132
▁savon	-8133
▁écris	-8134
apparte	-8135
effraye	-8136
▁chiots	-8137
▁cérébr	-8138
▁empois	-8139
▁ennuis	-8140
▁freiné	-8141
▁grandi	-8142
▁grille	-8143
▁grogna	-8144
▁grondé	-8145
▁groupe	-8146
▁haleté	-8147
▁halluc	-8148
▁haussa	-8149
▁homard	-8150
▁improv	-8151
▁initié	-8152
▁intact	-8153
▁invite	-8154
▁lament	-8155
▁lequel	-8156
▁libéra	-8157
▁lundis	-8158
▁maladr	-8159
▁maland	-8160
▁marque	-8161
▁marrés	-8162
▁masque	-8163
▁mayeur	-8164
▁mentis	-8165
▁mentit	-8166
▁mettez	-8167
▁minces	-8168
▁moitié	-8169
▁montée	-8170
▁mordit	-8171
▁mourut	-8172
▁muniti	-8173
▁navire	-8174
▁neuves	-8175
▁nierai	-8176
▁noyons	-8177
▁oppose	-8178
▁opposé	-8179
▁oublia	-8180
▁oublie	-8181
▁panade	-8182
▁pareil	-8183
▁parlai	-8184
▁passes	-8185
▁passée	-8186
▁pathét	-8187
▁payais	-8188
▁payait	-8189
▁persév	-8190
▁photog	-8191
▁plaide	-8192
▁plante	-8193
▁plaqué	-8194
▁pleuve	-8195
▁plumer	-8196
▁poings	-8197
▁porter	-8198
▁portée	-8199
ctai	-8200
erns	-8201
▁DAB	-8202
▁Oct	-8203
▁héb	-8204
cteur	-8205
onges	-8206
▁airs	-8207
▁aise	-8208
▁boxe	-8209
▁espi	-8210
▁flam	-8211
▁géré	-8212
▁nagé	-8213
▁pria	-8214
amuses	-8215
croché	-8216
enfuit	-8217
ernent	-8218
excuse	-8219
itaine	-8220
▁Sèche	-8221
▁aboie	-8222
▁coude	-8223
▁gavés	-8224
▁moche	-8225
▁moqué	-8226
▁perro	-8227
▁promo	-8228
▁songe	-8229
▁teint	-8230
▁étape	-8231
esterns	-8232
obligez	-8233
▁Prions	-8234
▁acquit	-8235
▁attris	-8236
▁bêtise	-8237
▁crions	-8238
▁décide	-8239
▁esprit	-8240
▁heurté	-8241
▁hébété	-8242
▁jouets	-8243
▁lentes	-8244
▁maïeur	-8245
▁moches	-8246
▁mourez	-8247
▁plaign	-8248
▁posais	-8249
▁potage	-8250
▁pourri	-8251
▁poussé	-8252
▁poèmes	-8253
▁promet	-8254
▁prosél	-8255
▁prédit	-8256
▁prénom	-8257
▁prêtez	-8258
▁prêtre	-8259
▁ragote	-8260
▁ramait	-8261
▁recalé	-8262
▁recher	-8263
▁recule	-8264
▁remets	-8265
▁remués	-8266
▁reposa	-8267
▁repose	-8268
▁restes	-8269
▁rigolé	-8270
▁rondes	-8271
▁rougit	-8272
▁ruinée	-8273
▁réagit	-8274
▁récrée	-8275
▁réelle	-8276
▁répare	-8277
▁répète	-8278
▁réside	-8279
▁résolu	-8280
▁rêvent	-8281
▁saisis	-8282
▁sautez	-8283
▁sauves	-8284
▁secoue	-8285
▁serrés	-8286
▁sieste	-8287
▁solide	-8288
▁sortit	-8289
▁soucié	-8290
▁souper	-8291
▁source	-8292
▁sourds	-8293
▁stable	-8294
▁suivis	-8295
▁suivre	-8296
▁superf	-8297
▁surfer	-8298
▁survis	-8299
ollé	-8300
luche	-8301
oïque	-8302
▁Fiça	-8303
▁noté	-8304
▁pâte	-8305
▁relu	-8306
▁éloi	-8307
aidais	-8308
essayé	-8309
lantis	-8310
liquée	-8311
▁avisé	-8312
▁brûle	-8313
▁carpe	-8314
▁cents	-8315
▁crues	-8316
▁filai	-8317
▁flipe	-8318
▁joues	-8319
▁neufs	-8320
▁pluie	-8321
▁tenta	-8322
▁tirés	-8323
▁verse	-8324
▁verts	-8325
essayai	-8326
icacité	-8327
itement	-8328
▁Votons	-8329
▁admire	-8330
▁aurons	-8331
▁bourde	-8332
▁brûler	-8333
▁camion	-8334
▁camper	-8335
▁chaque	-8336
▁client	-8337
▁couard	-8338
▁frater	-8339
▁jouais	-8340
▁jouait	-8341
▁minuit	-8342
▁ordure	-8343
▁pincée	-8344
▁propos	-8345
▁raisin	-8346
▁représ	-8347
▁ruinés	-8348
▁sommet	-8349
▁sympas	-8350
▁tairai	-8351
▁talons	-8352
▁tenace	-8353
▁tenais	-8354
▁tenait	-8355
▁tennis	-8356
▁tenter	-8357
▁tentez	-8358
▁tentée	-8359
▁timbre	-8360
▁tirées	-8361
▁tombez	-8362
▁tonnes	-8363
▁toussa	-8364
▁tousse	-8365
▁toussé	-8366
▁trahis	-8367
▁traite	-8368
▁tranch	-8369
▁trésor	-8370
▁têtues	-8371
▁vaincu	-8372
▁valait	-8373
▁valeur	-8374
▁valise	-8375
▁veille	-8376
▁veillé	-8377
▁venait	-8378
▁venues	-8379
▁verras	-8380
▁verrez	-8381
▁vertes	-8382
▁villes	-8383
▁violon	-8384
▁vision	-8385
▁vivais	-8386
▁volume	-8387
▁Épouse	-8388
▁élevés	-8389
▁épousé	-8390
▁établi	-8391
▁étendu	-8392
▁étudia	-8393
▁évasif	-8394
admirais	-8395
aiderons	-8396
ajoutais	-8397
améliore	-8398
apporter	-8399
acha	-8400
cises	-8401
urtic	-8402
▁Pèle	-8403
▁pesé	-8404
▁soie	-8405
▁taud	-8406
▁yoga	-8407
chaîné	-8408
sifiée	-8409
tières	-8410
▁barré	-8411
▁botte	-8412
▁cuits	-8413
▁encre	-8414
▁longs	-8415
▁ombre	-8416
▁piges	-8417
▁poupe	-8418
▁quart	-8419
▁radin	-8420
▁singu	-8421
▁traqu	-8422
attacha	-8423
ertains	-8424
rigible	-8425
▁Bonnes	-8426
▁Décris	-8427
▁Pêcher	-8428
▁Répète	-8429
▁biaisé	-8430
▁centre	-8431
▁durcit	-8432
▁gamins	-8433
▁gratte	-8434
▁humain	-8435
▁peigne	-8436
▁recomm	-8437
▁siffla	-8438
▁soigné	-8439
▁taudis	-8440
▁vienne	-8441
▁vivrai	-8442
▁ébloui	-8443
attaquez	-8444
attendez	-8445
combrant	-8446
embrassa	-8447
emportes	-8448
emportez	-8449
encerais	-8450
entendis	-8451
entielle	-8452
entifiez	-8453
entrerai	-8454
espagnol	-8455
essayera	-8456
exprimer	-8457
habituel	-8458
ibernent	-8459
induisez	-8460
insistez	-8461
instinct	-8462
insultez	-8463
laxonnez	-8464
liquerai	-8465
organisé	-8466
quemment	-8467
réaliste	-8468
terrogez	-8469
turbable	-8470
téréotyp	-8471
écoulait	-8472
éventail	-8473
▁Affaire	-8474
▁Agissez	-8475
▁Ajustez	-8476
▁Annulez	-8477
▁Applaud	-8478
▁Attaque	-8479
▁Branche	-8480
▁Brossez	-8481
▁Changez	-8482
▁Console	-8483
▁Croquez	-8484
▁Dansons	-8485
▁Décidez	-8486
▁Détache	-8487
▁Emmenez	-8488
▁Emporte	-8489
▁Essaies	-8490
▁Existes	-8491
▁Existez	-8492
▁Faisait	-8493
▁Inscris	-8494
▁Inutile	-8495
▁Libérez	-8496
▁Liquide	-8497
▁Ouvrons	-8498
▁Parlons	-8499
âmer	-8500
élon	-8501
culée	-8502
venus	-8503
élère	-8504
▁hist	-8505
▁oses	-8506
▁pues	-8507
▁rame	-8508
▁émis	-8509
envole	-8510
ifiait	-8511
istrez	-8512
▁Celui	-8513
▁Tâche	-8514
▁cerfs	-8515
▁fichu	-8516
▁félon	-8517
▁méfie	-8518
▁poile	-8519
▁péter	-8520
▁vapes	-8521
équerre	-8522
▁Ajuste	-8523
▁Croyez	-8524
▁Enlève	-8525
▁Virons	-8526
▁appris	-8527
▁avides	-8528
▁baiser	-8529
▁blâmer	-8530
▁bénite	-8531
▁combat	-8532
▁craque	-8533
▁craqué	-8534
▁expert	-8535
▁finira	-8536
▁fumeur	-8537
▁gâchis	-8538
▁habite	-8539
▁larmes	-8540
▁licite	-8541
▁lisait	-8542
▁lisons	-8543
▁montre	-8544
▁mortel	-8545
▁mourra	-8546
▁obéira	-8547
▁photos	-8548
▁ricane	-8549
▁étroit	-8550
▁Piochez	-8551
▁Postule	-8552
▁Procure	-8553
▁Ramasse	-8554
▁Rejouez	-8555
▁Renonce	-8556
▁Repliez	-8557
▁Retenez	-8558
▁Retiens	-8559
▁Résides	-8560
▁Taisons	-8561
▁Touille	-8562
▁Vendons	-8563
▁accuser	-8564
▁acteurs	-8565
▁adorait	-8566
▁adultes	-8567
▁affolée	-8568
▁affûtée	-8569
▁agressé	-8570
▁aidions	-8571
▁aimions	-8572
▁alarmés	-8573
▁allâmes	-8574
▁amicaux	-8575
▁amusées	-8576
▁annulée	-8577
▁apparut	-8578
▁apprend	-8579
▁arrivez	-8580
▁asseyez	-8581
▁assieds	-8582
▁assoyez	-8583
▁avenant	-8584
▁baissai	-8585
▁balaise	-8586
▁balayer	-8587
▁basique	-8588
▁bateaux	-8589
▁battons	-8590
▁battrai	-8591
▁besoins	-8592
▁bluffer	-8593
▁bronché	-8594
▁brûlent	-8595
▁brûlées	-8596
▁bâiller	-8597
▁cadeaux	-8598
▁caféine	-8599
Égyp	-8600
âlée	-8601
▁AVC	-8602
▁aida	-8603
▁féli	-8604
▁murs	-8605
▁noix	-8606
▁serp	-8607
▁susp	-8608
aboyer	-8609
ective	-8610
Égypte	-8611
▁aidez	-8612
▁culot	-8613
▁frire	-8614
▁hâlée	-8615
▁patin	-8616
▁paumé	-8617
▁porta	-8618
ennuyez	-8619
espérez	-8620
laxonné	-8621
tionnée	-8622
ération	-8623
▁Taille	-8624
▁Voyons	-8625
▁active	-8626
▁agrand	-8627
▁arbres	-8628
▁bougea	-8629
▁cousue	-8630
▁couver	-8631
▁dévêts	-8632
▁flouée	-8633
▁lignes	-8634
▁patent	-8635
▁patine	-8636
▁pattes	-8637
▁paysan	-8638
▁portés	-8639
approche	-8640
immunité	-8641
rogrammé	-8642
▁Appuyez	-8643
▁Essuyez	-8644
▁Termine	-8645
▁anéanti	-8646
▁calculé	-8647
▁cassent	-8648
▁cassées	-8649
▁catastr	-8650
▁changés	-8651
▁charrie	-8652
▁chavira	-8653
▁chaviré	-8654
▁cheminé	-8655
▁chevaux	-8656
▁chiante	-8657
▁chichis	-8658
▁choisie	-8659
▁château	-8660
▁chèvres	-8661
▁cocufié	-8662
▁collant	-8663
▁commère	-8664
▁comptes	-8665
▁comptez	-8666
▁conditi	-8667
▁connait	-8668
▁connard	-8669
▁contref	-8670
▁couleur	-8671
▁courait	-8672
▁courent	-8673
▁coureur	-8674
▁courons	-8675
▁craquai	-8676
▁crevais	-8677
▁crevées	-8678
▁croisés	-8679
▁croyons	-8680
▁crétins	-8681
▁cultivé	-8682
▁cynique	-8683
▁dansait	-8684
▁danseur	-8685
▁dessine	-8686
▁dessins	-8687
▁dessiné	-8688
▁dessous	-8689
▁devenus	-8690
▁deviner	-8691
▁devions	-8692
▁diplôme	-8693
▁discute	-8694
▁discuté	-8695
▁dissipé	-8696
▁dorment	-8697
▁drapeau	-8698
▁dressai	-8699
cides	-8700
enfer	-8701
obéis	-8702
▁Iras	-8703
▁coût	-8704
▁cède	-8705
▁fuir	-8706
▁gèle	-8707
▁sali	-8708
enfant	-8709
enfuis	-8710
écûmes	-8711
▁bûmes	-8712
▁costu	-8713
▁coûté	-8714
▁eûmes	-8715
▁moisi	-8716
▁motif	-8717
▁rompu	-8718
▁sales	-8719
▁tapis	-8720
avertie	-8721
▁Libère	-8722
▁Roulez	-8723
▁acides	-8724
▁buvons	-8725
▁clairs	-8726
▁décoré	-8727
▁dérobé	-8728
▁gaules	-8729
▁givrés	-8730
▁morale	-8731
▁morose	-8732
▁mouton	-8733
▁prince	-8734
▁remède	-8735
▁rendus	-8736
▁requin	-8737
▁ricana	-8738
▁rougis	-8739
▁salade	-8740
▁sifflé	-8741
▁tricha	-8742
▁écouta	-8743
▁Ajoutez	-8744
▁Examine	-8745
▁Prouvez	-8746
▁Tournez	-8747
▁buvions	-8748
▁cachons	-8749
▁canular	-8750
▁costume	-8751
▁drogués	-8752
▁décidez	-8753
▁défendu	-8754
▁défense	-8755
▁dégoûte	-8756
▁déjeuné	-8757
▁délires	-8758
▁démarré	-8759
▁démence	-8760
▁démunie	-8761
▁dépêché	-8762
▁désirez	-8763
▁enfuyez	-8764
▁entêtée	-8765
▁espions	-8766
▁essayez	-8767
▁exagéré	-8768
▁faction	-8769
▁fasciné	-8770
▁fautive	-8771
▁fermier	-8772
▁fidèles	-8773
▁flancha	-8774
▁flasque	-8775
▁flingue	-8776
▁formons	-8777
▁fortuné	-8778
▁fraîche	-8779
▁froides	-8780
▁froissé	-8781
▁gagnera	-8782
▁gagneur	-8783
▁glousse	-8784
▁gobelet	-8785
▁golfeur	-8786
▁grandit	-8787
▁grimaça	-8788
▁grisant	-8789
▁guitare	-8790
▁habitez	-8791
▁idiotes	-8792
▁imaginé	-8793
▁immense	-8794
▁immonde	-8795
▁impasse	-8796
▁indésir	-8797
▁inexact	-8798
▁inspira	-8799
ollab	-8800
▁noya	-8801
▁Filme	-8802
▁Notez	-8803
▁aurai	-8804
▁dèche	-8805
▁hocha	-8806
▁hoche	-8807
▁jugez	-8808
▁mèche	-8809
aggrave	-8810
habille	-8811
▁Collab	-8812
▁Russie	-8813
▁acheta	-8814
▁aurait	-8815
▁boulet	-8816
▁cartes	-8817
▁casque	-8818
▁dirais	-8819
▁débats	-8820
▁décéda	-8821
▁dégueu	-8822
▁gamine	-8823
▁incité	-8824
▁plains	-8825
▁poison	-8826
▁sortis	-8827
▁tourné	-8828
▁varier	-8829
▁vendus	-8830
▁église	-8831
▁Appuyer	-8832
▁Démarre	-8833
▁Enfuyez	-8834
▁Engagez	-8835
▁Firefox	-8836
▁amandes	-8837
▁assurée	-8838
▁assurés	-8839
▁barbant	-8840
▁connues	-8841
▁décorée	-8842
▁goûtait	-8843
▁intérêt	-8844
▁inventé	-8845
▁luisant	-8846
▁mahjong	-8847
▁malhonn	-8848
▁malines	-8849
▁mangera	-8850
▁marchez	-8851
▁marrées	-8852
▁matures	-8853
▁mentait	-8854
▁mentaux	-8855
▁mentons	-8856
▁mettrai	-8857
▁mineurs	-8858
▁modeste	-8859
▁montres	-8860
▁morceau	-8861
▁mouches	-8862
▁mourras	-8863
▁muffins	-8864
▁méfiant	-8865
▁mélangé	-8866
▁nageons	-8867
▁normaux	-8868
▁obstiné	-8869
▁occuper	-8870
▁opposés	-8871
▁ordures	-8872
▁oublier	-8873
▁oubliez	-8874
▁parages	-8875
▁parents	-8876
▁parfois	-8877
▁parlais	-8878
▁partagé	-8879
▁partant	-8880
▁partent	-8881
▁partial	-8882
▁partiez	-8883
▁parvenu	-8884
▁pauvres	-8885
▁payerai	-8886
▁perdait	-8887
▁perçois	-8888
▁plainte	-8889
▁plaisez	-8890
▁planifi	-8891
▁plantés	-8892
▁pleuvra	-8893
▁plongée	-8894
▁ponchos	-8895
▁portail	-8896
▁portées	-8897
▁presser	-8898
▁pressés	-8899
ocié	-8900
année	-8901
aucun	-8902
▁Cinq	-8903
▁abîm	-8904
▁onze	-8905
▁pèse	-8906
▁rase	-8907
▁râle	-8908
▁râlé	-8909
▁scie	-8910
▁élue	-8911
adapté	-8912
excusa	-8913
▁Criss	-8914
▁jaune	-8915
▁raser	-8916
▁reçue	-8917
▁seras	-8918
▁échec	-8919
annique	-8920
▁abîmés	-8921
▁animal	-8922
▁bourgm	-8923
▁clouée	-8924
▁conçue	-8925
▁crevés	-8926
▁dressé	-8927
▁gavées	-8928
▁guérie	-8929
▁pièces	-8930
▁plombs	-8931
▁ratons	-8932
▁rousse	-8933
▁serait	-8934
▁serine	-8935
▁siroté	-8936
▁textos	-8937
▁témoin	-8938
▁vannée	-8939
approuve	-8940
▁Emballe	-8941
▁Grandis	-8942
▁affamés	-8943
▁associé	-8944
▁choquée	-8945
▁citrons	-8946
▁conclue	-8947
▁engagés	-8948
▁fiancée	-8949
▁fâchées	-8950
▁grasses	-8951
▁grondée	-8952
▁larguer	-8953
▁malades	-8954
▁motivés	-8955
▁orteils	-8956
▁prierai	-8957
▁promets	-8958
▁propane	-8959
▁précise	-8960
▁présage	-8961
▁psychop	-8962
▁puriste	-8963
▁pédales	-8964
▁pénétré	-8965
▁pétoche	-8966
▁quittée	-8967
▁raccour	-8968
▁radical	-8969
▁ramasse	-8970
▁rapides	-8971
▁rappela	-8972
▁rappelé	-8973
▁rebelle	-8974
▁rebrous	-8975
▁reculez	-8976
▁regards	-8977
▁rejetée	-8978
▁remuées	-8979
▁rencard	-8980
▁rendras	-8981
▁rendrez	-8982
▁rendues	-8983
▁rentrés	-8984
▁reparti	-8985
▁reporté	-8986
▁reposes	-8987
▁restons	-8988
▁retenti	-8989
▁revenus	-8990
▁revient	-8991
▁risquer	-8992
▁ronfler	-8993
▁ronronn	-8994
▁rouspét	-8995
▁réalisé	-8996
▁régimes	-8997
▁réparée	-8998
▁rétréci	-8999
idiot	-9000
fumeur	-9001
ignora	-9002
▁Jusqu	-9003
▁Roule	-9004
▁copié	-9005
▁prude	-9006
▁têtue	-9007
rigeons	-9008
▁Bandez	-9009
▁Cachez	-9010
▁Dansez	-9011
▁Formez	-9012
▁bronze	-9013
▁caisse	-9014
▁enlacé	-9015
▁filmer	-9016
▁lasses	-9017
▁rêvons	-9018
▁soirée	-9019
▁éclaté	-9020
▁égarés	-9021
ouvrirai	-9022
▁Défense	-9023
▁Pleurez	-9024
▁Rebrous	-9025
▁Viendra	-9026
▁boutons	-9027
▁brûlant	-9028
▁choisir	-9029
▁choisis	-9030
▁démenti	-9031
▁dévouée	-9032
▁enlacée	-9033
▁enlacés	-9034
▁espèces	-9035
▁facture	-9036
▁gloussa	-9037
▁gérerai	-9038
▁haleine	-9039
▁inspiré	-9040
▁naturel	-9041
▁ouverte	-9042
▁peindre	-9043
▁pensais	-9044
▁pension	-9045
▁raconté	-9046
▁réglais	-9047
▁réussir	-9048
▁réécrit	-9049
▁saigner	-9050
▁saignez	-9051
▁saurais	-9052
▁sauront	-9053
▁secouru	-9054
▁secouée	-9055
▁sembler	-9056
▁sentent	-9057
▁serinez	-9058
▁servait	-9059
▁sexiste	-9060
▁siennes	-9061
▁simples	-9062
▁sirènes	-9063
▁sorcier	-9064
▁sorties	-9065
▁soucies	-9066
▁souciez	-9067
▁soudeur	-9068
▁souvins	-9069
▁sportif	-9070
▁stoïque	-9071
▁stricts	-9072
▁suivait	-9073
▁suivant	-9074
▁suivies	-9075
▁surfeur	-9076
▁suspect	-9077
▁taquiné	-9078
▁tiennes	-9079
▁touchés	-9080
▁tournai	-9081
▁tourner	-9082
▁tournée	-9083
▁tremble	-9084
▁tremper	-9085
▁trempée	-9086
▁tricher	-9087
▁triches	-9088
▁tromper	-9089
▁trouble	-9090
▁troublé	-9091
▁trouvai	-9092
▁tuerons	-9093
▁tueront	-9094
▁téloche	-9095
▁vaincre	-9096
▁veillez	-9097
▁vendeur	-9098
▁vertige	-9099
nué	-9100
alco	-9101
▁nia	-9102
ectue	-9103
▁Pigé	-9104
▁dodo	-9105
▁jeta	-9106
▁stim	-9107
alcool	-9108
auffez	-9109
échoue	-9110
▁Jouis	-9111
▁acide	-9112
▁berna	-9113
▁douté	-9114
▁dénué	-9115
▁feras	-9116
▁force	-9117
▁punis	-9118
▁roche	-9119
▁selon	-9120
amnésie	-9121
emmerde	-9122
exagère	-9123
laçable	-9124
seignes	-9125
urgence	-9126
échappe	-9127
▁Décide	-9128
▁Relève	-9129
▁alités	-9130
▁forcez	-9131
▁hanche	-9132
▁levées	-9133
▁ligota	-9134
▁loucha	-9135
▁louché	-9136
▁loyale	-9137
▁pêchez	-9138
▁quitta	-9139
▁radote	-9140
▁requis	-9141
▁simule	-9142
adaptera	-9143
effectue	-9144
▁Octobre	-9145
▁achetés	-9146
▁attaché	-9147
▁coûtera	-9148
▁données	-9149
▁déplaît	-9150
▁exagère	-9151
▁fautifs	-9152
▁flanché	-9153
▁initiée	-9154
▁louerai	-9155
▁mesurer	-9156
▁moyenne	-9157
▁nagerai	-9158
▁oranges	-9159
▁pagayer	-9160
▁pareils	-9161
▁plaquée	-9162
▁poumons	-9163
▁radotez	-9164
▁rejoint	-9165
▁répéter	-9166
▁simuler	-9167
▁soupira	-9168
▁soupiré	-9169
▁suicide	-9170
▁supposé	-9171
▁vivante	-9172
▁vivants	-9173
▁voisins	-9174
▁voyages	-9175
▁Étudies	-9176
▁éblouie	-9177
▁éclatés	-9178
▁écraser	-9179
▁écrasée	-9180
▁écrasés	-9181
▁écrivez	-9182
▁écroulé	-9183
▁égalité	-9184
▁égarées	-9185
▁éloigné	-9186
▁élégant	-9187
▁éméchée	-9188
▁énervés	-9189
▁épuisée	-9190
▁épuisés	-9191
▁étendue	-9192
▁éternue	-9193
▁éthique	-9194
▁étudies	-9195
▁étudiez	-9196
acceptons	-9197
appelerai	-9198
approprié	-9199
hhh	-9200
mblé	-9201
ophe	-9202
oxer	-9203
immon	-9204
tchin	-9205
▁ahhh	-9206
▁cuir	-9207
▁dodu	-9208
▁hâlé	-9209
▁sash	-9210
▁tape	-9211
▁tofu	-9212
arcelé	-9213
oblige	-9214
volant	-9215
▁Boxer	-9216
▁Motus	-9217
▁Prêts	-9218
▁Tchin	-9219
▁daube	-9220
▁lutté	-9221
▁myope	-9222
▁resse	-9223
▁surex	-9224
bonjour	-9225
▁Ajoute	-9226
▁Endors	-9227
▁Engage	-9228
▁Motion	-9229
▁Ouvrir	-9230
▁biolog	-9231
▁congés	-9232
▁gracié	-9233
▁jubilé	-9234
▁lèvres	-9235
▁quatre	-9236
▁scores	-9237
▁sushis	-9238
▁Logique	-9239
▁Permets	-9240
▁Pleures	-9241
▁Relevez	-9242
▁Relâche	-9243
▁accoutu	-9244
▁aimeras	-9245
▁bouffon	-9246
▁bouffée	-9247
▁charger	-9248
▁décides	-9249
▁décidés	-9250
▁décédés	-9251
▁excusés	-9252
▁graciée	-9253
▁harcelé	-9254
▁jubilez	-9255
▁offensa	-9256
▁promené	-9257
▁quittés	-9258
▁rétabli	-9259
▁sashimi	-9260
▁toxique	-9261
▁tremblé	-9262
arriverai	-9263
asticoter	-9264
aubergine	-9265
avertirai	-9266
emménager	-9267
emprunter	-9268
encroûtes	-9269
essaierai	-9270
excuserez	-9271
ggestions	-9272
inquiéter	-9273
inviterai	-9274
organisés	-9275
oublierai	-9276
rectement	-9277
téréotypé	-9278
échauffer	-9279
étreignis	-9280
évanouira	-9281
▁Approche	-9282
▁Attaquez	-9283
▁Attendre	-9284
▁Avançons	-9285
▁Bougeons	-9286
▁Canadien	-9287
▁Certains	-9288
▁Cherchez	-9289
▁Consulte	-9290
▁Cuisinez	-9291
▁Divisons	-9292
▁Déchirez	-9293
▁Défendez	-9294
▁Démarrez	-9295
▁Démontez	-9296
▁Détourne	-9297
▁Emballez	-9298
▁Embauche	-9299
▁irru	-9300
ficiel	-9301
épousa	-9302
▁Juste	-9303
▁Romps	-9304
▁Vivra	-9305
▁ongle	-9306
▁pinça	-9307
▁ravie	-9308
▁texto	-9309
▁vanné	-9310
antisme	-9311
▁Barrez	-9312
▁Minute	-9313
▁Rougis	-9314
▁amendé	-9315
▁analph	-9316
▁barrée	-9317
▁brûlés	-9318
▁destin	-9319
▁fasses	-9320
▁flatté	-9321
▁haussé	-9322
▁inclus	-9323
▁libéré	-9324
▁melons	-9325
▁ongles	-9326
▁rompre	-9327
▁rusées	-9328
▁sidéré	-9329
▁tendit	-9330
▁vénère	-9331
▁éméché	-9332
insuline	-9333
▁Cherche	-9334
▁Cuisine	-9335
▁Freinez	-9336
▁Promets	-9337
▁Protège	-9338
▁accises	-9339
▁alitées	-9340
▁amendée	-9341
▁blondes	-9342
▁douteux	-9343
▁incluse	-9344
▁indices	-9345
▁informé	-9346
▁mélange	-9347
▁méthamp	-9348
▁ruinées	-9349
▁réformé	-9350
▁sidérée	-9351
▁soutien	-9352
▁Éloigne	-9353
terrestre	-9354
épouserai	-9355
▁Appelons	-9356
▁Capricor	-9357
▁Employez	-9358
▁Endormez	-9359
▁Entendez	-9360
▁Jardiner	-9361
▁Maîtrise	-9362
▁Monsieur	-9363
▁Musulman	-9364
▁Mélangez	-9365
▁Parvenez	-9366
▁Postulez	-9367
▁Pressons	-9368
▁Protégez	-9369
▁Préviens	-9370
▁Racontez	-9371
▁Ralentis	-9372
▁Recrutez	-9373
▁Refaites	-9374
▁Relâchez	-9375
▁Remettez	-9376
▁Repenses	-9377
▁Reposons	-9378
▁Reprends	-9379
▁Reprenez	-9380
▁Respirez	-9381
▁Risquons	-9382
▁Soutenez	-9383
▁Soutiens	-9384
▁Souvenez	-9385
▁Souviens	-9386
▁Séparons	-9387
▁Terminez	-9388
▁Touillez	-9389
▁abeilles	-9390
▁accident	-9391
▁achetées	-9392
▁acquitté	-9393
▁actuelle	-9394
▁affaibli	-9395
▁affamées	-9396
▁aiderons	-9397
▁aimerais	-9398
▁aimeriez	-9399
▁déchet	-9400
▁démuni	-9401
▁flippé	-9402
▁francs	-9403
▁Efforce	-9404
▁dévoués	-9405
▁enterré	-9406
▁expulsé	-9407
▁passade	-9408
▁vendues	-9409
▁Élargis	-9410
▁évanoui	-9411
▁Agrandis	-9412
▁Augmente	-9413
▁Demeurez	-9414
▁alarmant	-9415
▁alarmées	-9416
▁allongés	-9417
▁amicales	-9418
▁anguille	-9419
▁anéantie	-9420
▁appliqué	-9421
▁apprenez	-9422
▁apprêtés	-9423
▁arranger	-9424
▁arrivées	-9425
▁assoiffé	-9426
▁assurées	-9427
▁attaquée	-9428
▁atteinte	-9429
▁attendez	-9430
▁attendît	-9431
▁attrapés	-9432
▁attristé	-9433
▁aversion	-9434
▁balancez	-9435
▁barbarie	-9436
▁bargeots	-9437
▁blaguais	-9438
▁bonhomme	-9439
▁bouchers	-9440
▁bougeait	-9441
▁boulette	-9442
▁brimades	-9443
▁bruyants	-9444
▁brûlante	-9445
▁bénévole	-9446
▁bêtement	-9447
▁carottes	-9448
▁cartable	-9449
▁certains	-9450
▁cerveaux	-9451
▁chancela	-9452
▁chansons	-9453
▁chantait	-9454
▁chantent	-9455
▁charriez	-9456
▁chiottes	-9457
▁chocolat	-9458
▁châteaux	-9459
▁cléments	-9460
▁cocufiée	-9461
▁collecte	-9462
▁combattu	-9463
▁commença	-9464
▁complexe	-9465
▁comporte	-9466
▁comptant	-9467
▁comédien	-9468
▁continue	-9469
▁convenez	-9470
▁conviens	-9471
▁corbeaux	-9472
▁corrigez	-9473
▁corrigée	-9474
▁couillon	-9475
▁couinent	-9476
▁coureuse	-9477
▁courtise	-9478
▁craignez	-9479
▁croyable	-9480
▁cruelles	-9481
▁crédible	-9482
▁cultivée	-9483
▁célèbres	-9484
▁cérébral	-9485
▁danseuse	-9486
▁demandes	-9487
▁demandez	-9488
▁dentaire	-9489
▁dentiste	-9490
▁derniers	-9491
▁descends	-9492
▁destinée	-9493
▁devenues	-9494
▁dimanche	-9495
▁discussi	-9496
▁discutez	-9497
▁disparut	-9498
▁disposer	-9499
ccès	-9500
èzes	-9501
alibi	-9502
antip	-9503
froid	-9504
laudi	-9505
oalas	-9506
voqué	-9507
▁Papa	-9508
▁Stop	-9509
▁coca	-9510
▁céda	-9511
▁iPad	-9512
▁java	-9513
▁meug	-9514
▁osez	-9515
▁terr	-9516
▁zéro	-9517
atrice	-9518
elvète	-9519
honore	-9520
incita	-9521
iosité	-9522
joncté	-9523
losent	-9524
seyons	-9525
▁Règle	-9526
▁Vivez	-9527
▁bègue	-9528
▁nouba	-9529
▁plouc	-9530
▁queue	-9531
arnaque	-9532
arrière	-9533
océdons	-9534
▁Enfile	-9535
▁Rebond	-9536
▁Refais	-9537
▁Tracez	-9538
▁balles	-9539
▁blindé	-9540
▁calmée	-9541
▁coréen	-9542
▁enjeux	-9543
▁flairé	-9544
▁hésita	-9545
▁jubile	-9546
▁livide	-9547
▁neiger	-9548
▁nounou	-9549
▁pagode	-9550
▁pourvu	-9551
▁rédigé	-9552
▁saumon	-9553
▁succès	-9554
▁étoile	-9555
abstiens	-9556
atigable	-9557
hétamine	-9558
riétaire	-9559
▁Pressez	-9560
▁Veinard	-9561
▁anxieux	-9562
▁balèzes	-9563
▁bonbons	-9564
▁conjure	-9565
▁dispute	-9566
▁déclaré	-9567
▁déprime	-9568
▁détoner	-9569
▁emballé	-9570
▁emplois	-9571
▁grossis	-9572
▁prépare	-9573
▁recalée	-9574
▁terrain	-9575
culations	-9576
▁Asseyons	-9577
▁Imbécile	-9578
▁applaudi	-9579
▁condamné	-9580
▁courriel	-9581
▁disputée	-9582
▁distance	-9583
▁divorcés	-9584
▁dormirai	-9585
▁droguées	-9586
▁débarras	-9587
▁débattue	-9588
▁débutant	-9589
▁déchaîné	-9590
▁décidées	-9591
▁décliner	-9592
▁décontra	-9593
▁décédées	-9594
▁dégonflé	-9595
▁dégoutez	-9596
▁dégoûtes	-9597
▁délaissé	-9598
▁déloyaux	-9599
▁ténu	-9600
▁élab	-9601
aviron	-9602
hésite	-9603
▁Moins	-9604
▁bébés	-9605
▁dames	-9606
▁lycée	-9607
▁mésav	-9608
▁viral	-9609
embêter	-9610
observe	-9611
oumoune	-9612
écouter	-9613
énerves	-9614
▁Aidons	-9615
▁Buvons	-9616
▁Coupez	-9617
▁Mouche	-9618
▁Scotch	-9619
▁fuyiez	-9620
▁girafe	-9621
▁grippe	-9622
▁gérant	-9623
▁halète	-9624
▁lambin	-9625
▁ménage	-9626
▁novice	-9627
▁rêveur	-9628
▁saigne	-9629
▁squash	-9630
▁stress	-9631
▁tigres	-9632
▁tocade	-9633
atterrir	-9634
avancent	-9635
ceptible	-9636
ennuyais	-9637
entrique	-9638
tituteur	-9639
▁Amusons	-9640
▁Avertis	-9641
▁Creusez	-9642
▁Flotter	-9643
▁Informe	-9644
▁Joyeuse	-9645
▁Obtiens	-9646
▁Remonte	-9647
▁Taillez	-9648
▁agaçant	-9649
▁circons	-9650
▁croyais	-9651
▁dossier	-9652
▁flattés	-9653
▁jésuite	-9654
▁largeur	-9655
▁laveurs	-9656
▁lèverai	-9657
▁méditer	-9658
▁plierai	-9659
▁ralenti	-9660
▁requins	-9661
▁régnait	-9662
▁scorbut	-9663
▁violets	-9664
▁vitesse	-9665
▁Épousez	-9666
▁éclipsé	-9667
▁élaboré	-9668
▁établit	-9669
inctement	-9670
▁Apprenez	-9671
▁Assurons	-9672
▁Consolez	-9673
▁Dévissez	-9674
▁Possèdes	-9675
▁Recrutes	-9676
▁Redresse	-9677
▁Regardes	-9678
▁agresser	-9679
▁attardés	-9680
▁aviateur	-9681
▁bavarder	-9682
▁bilingue	-9683
▁conduira	-9684
▁démarrée	-9685
▁déprimés	-9686
▁dépêchée	-9687
▁désarmée	-9688
▁désastre	-9689
▁désirait	-9690
▁détestes	-9691
▁détourné	-9692
▁détritus	-9693
▁déverser	-9694
▁dévouées	-9695
▁efficace	-9696
▁empressé	-9697
▁emprunté	-9698
▁empêcher	-9699
odique	-9700
▁Sacré	-9701
▁épaté	-9702
exhorte	-9703
hypnose	-9704
▁Copiez	-9705
▁bizuth	-9706
▁crispé	-9707
▁déroba	-9708
▁magnat	-9709
▁médium	-9710
▁récits	-9711
▁soldat	-9712
Internet	-9713
acquiert	-9714
idnappée	-9715
interdis	-9716
étrangla	-9717
▁Baissez	-9718
▁Biscuit	-9719
▁Bizarre	-9720
▁Bonsoir	-9721
▁Dessine	-9722
▁Profite	-9723
▁Sortons	-9724
▁Stoppez	-9725
▁avertit	-9726
▁chauves	-9727
▁chômage	-9728
▁coulons	-9729
▁dépravé	-9730
▁fromage	-9731
▁gaufres	-9732
▁huîtres	-9733
▁malpoli	-9734
▁panneau	-9735
▁pompeux	-9736
▁révéler	-9737
▁syncope	-9738
▁travers	-9739
▁vacilla	-9740
acclamais	-9741
assurance	-9742
▁Contrôle	-9743
▁Examinez	-9744
▁Inconcev	-9745
▁Laquelle	-9746
▁Ratissez	-9747
▁banquier	-9748
▁cesserai	-9749
▁comédies	-9750
▁couchers	-9751
▁diamants	-9752
▁désordre	-9753
▁effondré	-9754
▁embrassa	-9755
▁enchanté	-9756
▁endurant	-9757
▁enflammé	-9758
▁enfoirée	-9759
▁engagées	-9760
▁engourdi	-9761
▁enlacées	-9762
▁enneigés	-9763
▁ennuyant	-9764
▁enseigne	-9765
▁enseigné	-9766
▁enterrée	-9767
▁entraîne	-9768
▁entraîné	-9769
▁essayons	-9770
▁excusées	-9771
▁expirait	-9772
▁expulsée	-9773
▁factures	-9774
▁faillite	-9775
▁fascinée	-9776
▁faudrait	-9777
▁fauteuil	-9778
▁flambant	-9779
▁flingues	-9780
▁flippant	-9781
▁fortunée	-9782
▁fracassé	-9783
▁fraîches	-9784
▁fredonne	-9785
▁furieuse	-9786
▁félicite	-9787
▁gagnante	-9788
▁gagnerez	-9789
▁gagneurs	-9790
▁gagnâmes	-9791
▁garantis	-9792
▁goberais	-9793
▁golfeuse	-9794
▁gourmand	-9795
▁grimaces	-9796
▁grincent	-9797
▁grognait	-9798
▁grouille	-9799
▁toupet	-9800
éteignit	-9801
▁Dévisse	-9802
▁Emploie	-9803
▁Saturne	-9804
▁bloquée	-9805
▁corrigé	-9806
▁décollé	-9807
▁experts	-9808
▁explosé	-9809
▁froncer	-9810
▁glisser	-9811
▁insista	-9812
▁pendule	-9813
▁poulets	-9814
▁sidérés	-9815
▁Épluche	-9816
▁éprouve	-9817
enflammai	-9818
expansion	-9819
objection	-9820
urticaire	-9821
▁Accélère	-9822
▁Atlantis	-9823
▁Enivrons	-9824
▁Menottez	-9825
▁Rattrape	-9826
▁Scorpion	-9827
▁autorisé	-9828
▁crachine	-9829
▁critères	-9830
▁décroché	-9831
▁exaltant	-9832
▁fringale	-9833
▁gnangnan	-9834
▁générale	-9835
▁géologue	-9836
▁gérerons	-9837
▁habillés	-9838
▁habitude	-9839
▁habituée	-9840
▁haïssait	-9841
▁hideuses	-9842
▁hongrois	-9843
▁honteuse	-9844
▁illuminé	-9845
▁imbécile	-9846
▁impulsif	-9847
▁indignée	-9848
▁informés	-9849
▁inquiète	-9850
▁insolent	-9851
▁insolite	-9852
▁instable	-9853
▁instruit	-9854
▁insultée	-9855
▁interdit	-9856
▁invitées	-9857
▁jubilons	-9858
▁jugeotte	-9859
▁lasagnes	-9860
▁lourdaud	-9861
▁mangeais	-9862
▁mangeras	-9863
▁mangerez	-9864
▁mangions	-9865
▁manquait	-9866
▁manquant	-9867
▁manquera	-9868
▁manquons	-9869
▁marchand	-9870
▁marrants	-9871
▁menteurs	-9872
▁mentîtes	-9873
▁meuglait	-9874
▁ministre	-9875
▁moelleux	-9876
▁monsieur	-9877
▁mouillée	-9878
▁musicien	-9879
▁mâchoire	-9880
▁méchants	-9881
▁méritais	-9882
▁nagerons	-9883
▁neigeait	-9884
▁nettoyée	-9885
▁normales	-9886
▁obsolète	-9887
▁obsèques	-9888
▁obéirons	-9889
▁obéissez	-9890
▁ordonnée	-9891
▁oreilles	-9892
▁orphelin	-9893
▁ouvertes	-9894
▁overdose	-9895
▁paniquez	-9896
▁pantalon	-9897
▁papillon	-9898
▁pardonna	-9899
▁inadapté	-9900
▁pardonne	-9901
▁parlerai	-9902
▁partiale	-9903
▁partions	-9904
▁parvenir	-9905
▁parvenue	-9906
▁pastiche	-9907
▁patience	-9908
▁patients	-9909
▁perdîmes	-9910
▁pinceaux	-9911
▁plaignez	-9912
▁plairait	-9913
▁plancher	-9914
▁plantées	-9915
▁pleurais	-9916
▁pleuriez	-9917
▁poissard	-9918
▁poisseux	-9919
▁policier	-9920
▁portâmes	-9921
▁positifs	-9922
▁positive	-9923
▁poursuit	-9924
▁poussent	-9925
▁pouvions	-9926
▁première	-9927
▁produire	-9928
▁	-9929
e	-9930
s	-9931
o	-9932
a	-9933
i	-9934
<	-9935
>	-9936
t	-9937
u	-9938
n	-9939
r	-9940
.	-9941
l	-9942
m	-9943
p	-9944
c	-9945
d	-9946
é	-9947
'	-9948
v	-9949
J	-9950
-	-9951
T	-9952
f	-9953
?	-9954
z	-9955
b	-9956
!	-9957
g	-9958
h	-9959
C	-9960
N	-9961
I	-9962
q	-9963
E	-9964
x	-9965
y	-9966
V	-9967
ê	-9968
j	-9969
à	-9970
A	-9971
P	-9972
L	-9973
S	-9974
è	-9975
Q	-9976
R	-9977
D	-9978
ç	-9979
,	-9980
M	-9981
F	-9982
O	-9983
Ç	-9984
’	-9985
î	-9986
Ê	-9987
B	-9988
â	-9989
ô	-9990
û	-9991
É	-9992
G	-9993
ù	-9994
ï	-9995
À	-9996
