<unk>	0
<s>	0
</s>	0
in	-0
at	-1
er	-2
);	-3
▁{	-4
▁}	-5
ata	-6
data	-7
re	-8
▁=	-9
st	-10
if	-11
▁data	-12
ce	-13
ar	-14
on	-15
int	-16
ad	-17
▁#	-18
en	-19
▁(	-20
se	-21
ch	-22
oo	-23
▁p	-24
lo	-25
le	-26
de	-27
ood	-28
or	-29
()	-30
pt	-31
good	-32
ing	-33
ine	-34
cept	-35
In	-36
▁if	-37
char	-38
IO	-39
xcept	-40
▁good	-41
St	-42
▁re	-43
ut	-44
Line	-45
▁pr	-46
ion	-47
▁e	-48
IN	-49
et	-50
ul	-51
ed	-52
am	-53
fer	-54
uf	-55
uffer	-56
▁t	-57
ro	-58
Buffer	-59
();	-60
("	-61
▁n	-62
");	-63
▁v	-64
▁st	-65
id	-66
def	-67
ic	-68
al	-69
▁print	-70
oid	-71
▁"	-72
ader	-73
▁*	-74
▁void	-75
put	-76
te	-77
▁s	-78
▁C	-79
▁c	-80
ck	-81
▁b	-82
end	-83
ream	-84
Re	-85
ct	-86
WE	-87
▁printLine	-88
ring	-89
log	-90
endif	-91
▁except	-92
ile	-93
hro	-94
hrow	-95
▁int	-96
▁w	-97
Input	-98
▁0	-99
ur	-100
ock	-101
▁f	-102
▁i	-103
10	-104
atic	-105
xception	-106
__	-107
ger	-108
Exception	-109
Stream	-110
ocket	-111
▁CWE	-112
ull	-113
ve	-114
▁null	-115
InputStream	-116
ss	-117
ra	-118
ort	-119
ult	-120
▁IO	-121
ase	-122
▁goodG	-123
erv	-124
ue	-125
ne	-126
▁O	-127
100	-128
..	-129
IT	-130
ndef	-131
!=	-132
ifndef	-133
MIT	-134
▁exceptIO	-135
mp	-136
LL	-137
▁OMIT	-138
arg	-139
▁char	-140
sult	-141
ry	-142
▁bad	-143
▁!=	-144
File	-145
▁static	-146
AR	-147
",	-148
it	-149
Buffered	-150
ET	-151
nd	-152
String	-153
ate	-154
▁m	-155
um	-156
ULL	-157
ble	-158
NULL	-159
OC	-160
-1	-161
AL	-162
▁L	-163
ri	-164
Le	-165
sh	-166
iz	-167
▁S	-168
able	-169
vel	-170
Level	-171
ber	-172
▁throw	-173
▁<	-174
cl	-175
▁throws	-176
sp	-177
lse	-178
umber	-179
▁0;	-180
OCK	-181
Reader	-182
▁reader	-183
ING	-184
ass	-185
atch	-186
all	-187
▁catch	-188
Number	-189
▁T	-190
OCKET	-191
▁try	-192
logger	-193
mport	-194
▁import	-195
ARN	-196
WARN	-197
WARNING	-198
clu	-199
clude	-200
include	-201
of	-202
our	-203
AD	-204
ource	-205
Socket	-206
▁arg	-207
nect	-208
onnect	-209
ub	-210
ize	-211
▁else	-212
ink	-213
wchar	-214
▁ne	-215
ror	-216
'\	-217
Er	-218
Error	-219
ig	-220
hrowable	-221
▁Throwable	-222
lic	-223
ist	-224
.");	-225
lose	-226
ain	-227
▁new	-228
ST	-229
orm	-230
em	-231
▁goodB	-232
ublic	-233
urn	-234
▁j	-235
';	-236
sing	-237
▁public	-238
ign	-239
av	-240
32	-241
[100	-242
onse	-243
sponse	-244
▁IN	-245
let	-246
ervlet	-247
▁NULL	-248
▁wchar	-249
un	-250
erf	-251
ava	-252
▁java	-253
ti	-254
vate	-255
IOException	-256
'\0	-257
'\0';	-258
[]	-259
Sink	-260
case	-261
stcase	-262
ak	-263
reak	-264
▁break	-265
ormat	-266
GO	-267
▁main	-268
que	-269
quest	-270
Inte	-271
Integer	-272
ray	-273
tt	-274
get	-275
OD	-276
▁==	-277
▁dataBuffer	-278
12	-279
close	-280
VAL	-281
ifdef	-282
OR	-283
AT	-284
Len	-285
MA	-286
xt	-287
BAD	-288
Fin	-289
GOOD	-290
()");	-291
▁String	-292
list	-293
low	-294
...");	-295
Call	-296
erflow	-297
shed	-298
▁OMITBAD	-299
Fini	-300
Calling	-301
()...");	-302
Finished	-303
▁OMITGOOD	-304
izeof	-305
";	-306
rite	-307
Servlet	-308
write	-309
ttp	-310
ice	-311
ervice	-312
an	-313
dest	-314
▁1	-315
4_	-316
bad	-317
listen	-318
▁string	-319
▁pri	-320
▁private	-321
Int	-322
Ov	-323
ace	-324
define	-325
Format	-326
are	-327
▁clo	-328
▁closing	-329
1_	-330
ent	-331
SOCKET	-332
CWE	-333
Overflow	-334
())	-335
▁readerBuffered	-336
5)	-337
writeLine	-338
lass	-339
add	-340
▁+	-341
ame	-342
BufferedReader	-343
rue	-344
▁_	-345
ation	-346
EN	-347
▁result	-348
ER	-349
▁response	-350
FI	-351
];	-352
onnection	-353
per	-354
ment	-355
▁);	-356
Data	-357
pl	-358
es	-359
LO	-360
reader	-361
Http	-362
UE	-363
ServletRe	-364
HttpServletRe	-365
▁source	-366
));	-367
NumberFormat	-368
cp	-369
Result	-370
-1]	-371
▁InputStream	-372
▁BufferedReader	-373
19	-374
igned	-375
_0	-376
signed	-377
turn	-378
▁return	-379
wor	-380
word	-381
assword	-382
▁&	-383
▁100	-384
cv	-385
WIN	-386
rand	-387
▁te	-388
-1);	-389
▁str	-390
▁2	-391
▁SOCKET	-392
▁stream	-393
ap	-394
me	-395
ID	-396
unsigned	-397
stcases	-398
ect	-399
std	-400
set	-401
▁'\0';	-402
True	-403
Ar	-404
ERR	-405
ERROR	-406
Array	-407
Ha	-408
sa	-409
SE	-410
uct	-411
VALID	-412
▁INVALID	-413
▁testcases	-414
IC	-415
DE	-416
read	-417
saData	-418
up	-419
yte	-420
Ret	-421
Return	-422
ix	-423
ixed	-424
ive	-425
Un	-426
rom	-427
cess	-428
3_	-429
len	-430
cpy	-431
cvResult	-432
==	-433
==5)	-434
*;	-435
.*;	-436
roper	-437
ou	-438
emset	-439
ack	-440
time	-441
place	-442
socket	-443
▁*)	-444
addr	-445
_1	-446
Source	-447
ATIC	-448
connect	-449
6_	-450
CL	-451
new	-452
▁sizeof	-453
▁0)	-454
Ben	-455
Benign	-456
▁fixed	-457
static	-458
MAIN	-459
1();	-460
1()	-461
▁srand	-462
2_	-463
CLU	-464
[])	-465
CLUDE	-466
▁argc	-467
▁argv	-468
testcase	-469
▁INCLUDE	-470
▁INCLUDEMAIN	-471
listenSocket	-472
▁request	-473
▁in	-474
ac	-475
loc	-476
lle	-477
result	-478
ON	-479
sizeof	-480
[100-1]	-481
utput	-482
FileInput	-483
accept	-484
▁service	-485
ge	-486
rypt	-487
string	-488
dataLen	-489
2()	-490
2();	-491
▁A	-492
service	-493
5_	-494
array	-495
▁dest	-496
0_	-497
ccess	-498
ot	-499
▁h	-500
ath	-501
alloc	-502
Returns	-503
He	-504
▁1;	-505
ject	-506
STATIC	-507
▁>	-508
\\	-509
ased	-510
om	-511
io	-512
Based	-513
CON	-514
PR	-515
op	-516
con	-517
age	-518
cs	-519
ql	-520
▁I	-521
VALUE	-522
Connection	-523
ith	-524
))	-525
il	-526
++	-527
▁Integer	-528
ong	-529
▁wcs	-530
CONST	-531
ruct	-532
▁File	-533
0]	-534
',	-535
),	-536
Con	-537
port	-538
FIL	-539
Hash	-540
alse	-541
args	-542
▁fin	-543
ey	-544
▁args	-545
AM	-546
ound	-547
[100];	-548
est	-549
▁recvResult	-550
▁password	-551
ir	-552
UT	-553
▁name	-554
rint	-555
▁to	-556
file	-557
MAX	-558
▁"";	-559
Init	-560
ally	-561
▁finally	-562
print	-563
▁for	-564
bal	-565
lobal	-566
ex	-567
(1	-568
++)	-569
replace	-570
alue	-571
wo	-572
ser	-573
▁l	-574
atement	-575
stan	-576
Sql	-577
▁exceptSql	-578
acceptSocket	-579
RE	-580
ken	-581
64_	-582
▁HttpServletRe	-583
IntLine	-584
▁printIntLine	-585
▁socket	-586
LOSE	-587
▁0,	-588
▁d	-589
stringNumber	-590
▁100-1);	-591
WS	-592
ReturnsTrue	-593
Byte	-594
▁CLOSE	-595
Instan	-596
sin	-597
printf	-598
Und	-599
stream	-600
▁dataLen	-601
▁wsaData	-602
▁size	-603
Case	-604
▁-	-605
VE	-606
global	-607
Key	-608
Five	-609
7_	-610
space	-611
▁namespace	-612
nt	-613
MIN	-614
dex	-615
FIVE	-616
Not	-617
190_	-618
▁memset	-619
[0]	-620
Statement	-621
to	-622
rep	-623
repare	-624
▁wh	-625
▁2;	-626
ract	-627
▁with	-628
Test	-629
▁u	-630
▁Class	-631
Access	-632
()).	-633
From	-634
▁-1	-635
▁class	-636
ook	-637
open	-638
ooki	-639
_4	-640
▁read	-641
▁reading	-642
9_	-643
Set	-644
NotF	-645
NotFound	-646
ws	-647
Path	-648
False	-649
upport	-650
TR	-651
50	-652
());	-653
Output	-654
-8	-655
UTF	-656
ationException	-657
gal	-658
llegal	-659
Proper	-660
bst	-661
bstract	-662
TestCase	-663
bstractTestCase	-664
▁testcasesupport	-665
▁while	-666
▁Illegal	-667
▁o	-668
CP	-669
)(	-670
ends	-671
▁ext	-672
▁extends	-673
env	-674
ties	-675
▁pack	-676
▁package	-677
▁ClassNotFound	-678
▁IllegalAccess	-679
Pare	-680
Parent	-681
▁Instan	-682
▁Instanti	-683
▁mainFrom	-684
▁mainFromParent	-685
▁is	-686
[100]	-687
▁'	-688
bject	-689
readLine	-690
▁FileInputStream	-691
32_	-692
AME	-693
repared	-694
reparedStatement	-695
▁streamFileInput	-696
inter	-697
Good	-698
text	-699
malloc	-700
ec	-701
ointer	-702
AN	-703
cat	-704
yst	-705
ystem	-706
FIN	-707
UR	-708
hort	-709
connectSocket	-710
ma	-711
ENAME	-712
FINAL	-713
tri	-714
FILENAME	-715
▁input	-716
TRUE	-717
tro	-718
rivate	-719
ree	-720
-8");	-721
fget	-722
Ints	-723
woInts	-724
oop	-725
ip	-726
LE	-727
80	-728
util	-729
ookie	-730
name	-731
iron	-732
ironment	-733
http	-734
par	-735
▁from	-736
▁javax	-737
win	-738
mem	-739
parse	-740
rect	-741
34_	-742
txt	-743
▁array	-744
ty	-745
Crypt	-746
QL	-747
Stack	-748
tr	-749
▁sock	-750
▁sockaddr	-751
▁WS	-752
121_	-753
INET	-754
wsaData	-755
▁wsaDataInit	-756
request	-757
AC	-758
Bad	-759
art	-760
eck	-761
lean	-762
Heap	-763
((	-764
TCP	-765
PRO	-766
Ptr	-767
else	-768
logg	-769
Imp	-770
122_	-771
Ch	-772
▁printW	-773
Struct	-774
BSink	-775
mo	-776
▁P	-777
source	-778
AA	-779
▁dataGood	-780
Object	-781
trim	-782
▁printWLine	-783
_6	-784
SS	-785
struct	-786
servlet	-787
goodG	-788
environment	-789
▁strlen	-790
move	-791
aile	-792
ailed	-793
▁wm	-794
▁wmemset	-795
▁failed	-796
parseInt	-797
password	-798
readerBuffered	-799
qu	-800
anf	-801
canf	-802
▁N	-803
load	-804
Improper	-805
lete	-806
8_	-807
SQL	-808
so	-809
"";	-810
▁stringNumber	-811
SQLException	-812
ver	-813
dap	-814
▁exception	-815
")	-816
delete	-817
HAR	-818
ADD	-819
▁Socket	-820
private	-821
▁format	-822
ByteArray	-823
pFile	-824
▁H	-825
lled	-826
Uncon	-827
trolled	-828
Uncontrolled	-829
AND	-830
129_	-831
SI	-832
logging	-833
Hand	-834
ORT	-835
PORT	-836
listener	-837
▁par	-838
streamFileInput	-839
GLO	-840
net	-841
BAL	-842
GLOBAL	-843
Long	-844
▁short	-845
(100	-846
arch	-847
do	-848
▁file	-849
AY	-850
▁value	-851
Value	-852
25	-853
irect	-854
(-1);	-855
exit	-856
▁using	-857
(-1);}	-858
ml	-859
alid	-860
▁dataGoodBuffer	-861
List	-862
▁5	-863
reate	-864
▁too	-865
191_	-866
Underflow	-867
ute	-868
WOR	-869
▁va	-870
check	-871
▁>=	-872
Handle	-873
inked	-874
inkedList	-875
fgets	-876
(2	-877
inet	-878
ib	-879
ByteArrayOutput	-880
(1);	-881
▁parsing	-882
Pro	-883
Context	-884
▁wcslen	-885
Des	-886
URL	-887
(100*	-888
Class	-889
KE	-890
One	-891
(2,	-892
▁ex	-893
▁connection	-894
▁perf	-895
▁perform	-896
▁mem	-897
▁delete	-898
Inject	-899
Injection	-900
!=5)	-901
Static	-902
▁&&	-903
Under	-904
alloca	-905
134_	-906
▁sw	-907
scanf	-908
[10	-909
▁case	-910
[50	-911
(&	-912
▁dataBad	-913
AP	-914
Pointer	-915
itch	-916
short	-917
Char	-918
ault	-919
Property	-920
▁struct	-921
woIntsStruct	-922
▁"/	-923
:\\	-924
▁switch	-925
DAP	-926
vers	-927
▁def	-928
▁default	-929
2;	-930
▁close	-931
PEN	-932
ory	-933
]);	-934
clare	-935
declare	-936
ATH	-937
as	-938
Desc	-939
▁buffer	-940
staticFive	-941
Tra	-942
*)	-943
▁B	-944
dataPtr	-945
chr	-946
ATE	-947
');	-948
System	-949
▁1,	-950
Of	-951
ery	-952
ALL	-953
▁listener	-954
▁output	-955
▁replace	-956
PATH	-957
recvResult	-958
WORD	-959
OCA	-960
ALLOCA	-961
▁};	-962
805_	-963
FILE	-964
izer	-965
kenizer	-966
IV	-967
▁free	-968
arge	-969
(),	-970
PRIV	-971
PRIVATE	-972
union	-973
▁resultSet	-974
ative	-975
Valid	-976
Index	-977
Validation	-978
▁0);	-979
ENV	-980
ector	-981
uccess	-982
▁pro	-983
Vector	-984
versal	-985
Traversal	-986
ari	-987
▁dataBadBuffer	-988
ariable	-989
▁IP	-990
ess	-991
▁exit	-992
▁3	-993
To	-994
Map	-995
ANDLE	-996
ulti	-997
Loop	-998
Start	-999
▁pFile	-1000
▁index	-1001
HashMap	-1002
Se	-1003
▁se	-1004
ply	-1005
ultiply	-1006
WR	-1007
▁-1;	-1008
multiply	-1009
essage	-1010
▁user	-1011
▁[]	-1012
erver	-1013
ARR	-1014
ARRAY	-1015
().	-1016
▁FILE	-1017
erverSocket	-1018
ost	-1019
next	-1020
Properties	-1021
▁connect	-1022
▁|	-1023
0);	-1024
_2	-1025
▁large	-1026
dows	-1027
▁do	-1028
_7	-1029
64	-1030
Lo	-1031
10;	-1032
Mo	-1033
(1)	-1034
tain	-1035
foo	-1036
sn	-1037
ncpy	-1038
01	-1039
User	-1040
sole	-1041
console	-1042
ys	-1043
▁;	-1044
▁(0);	-1045
tainer	-1046
xml	-1047
Variable	-1048
▁inputBuffer	-1049
unc	-1050
dSink	-1051
BufferdSink	-1052
InputStreamSink	-1053
▁listenSocket	-1054
sys	-1055
Message	-1056
getProperty	-1057
▁4	-1058
STR	-1059
▁acceptSocket	-1060
umer	-1061
▁std	-1062
ay	-1063
temp	-1064
aming	-1065
memcpy	-1066
goodB	-1067
Prov	-1068
CryptProv	-1069
opy	-1070
Copy	-1071
*)&	-1072
ons	-1073
Create	-1074
dataBuffer	-1075
perties	-1076
▁properties	-1077
memmove	-1078
el	-1079
ure	-1080
rit	-1081
leanup	-1082
▁1)	-1083
▁dataCopy	-1084
▁badSink	-1085
FAL	-1086
FALSE	-1087
[50-1]	-1088
▁AF	-1089
staticTrue	-1090
TO	-1091
▁byte	-1092
Va	-1093
VaSink	-1094
and	-1095
fam	-1096
ily	-1097
family	-1098
loop	-1099
ATA	-1100
▁ServerSocket	-1101
▁ht	-1102
MAKE	-1103
REAM	-1104
ADATA	-1105
▁SOCK	-1106
▁WSAC	-1107
AStart	-1108
STREAM	-1109
▁htons	-1110
AStartup	-1111
MAKEWORD	-1112
▁WSADATA	-1113
wsaDataInit	-1114
▁WSACleanup	-1115
ASE	-1116
▁BASE	-1117
▁BASEPATH	-1118
Qu	-1119
▁number	-1120
windows	-1121
intOne	-1122
▁LDAP	-1123
(5	-1124
▁||	-1125
_5	-1126
▁badSource	-1127
2),	-1128
▁NO	-1129
(2,2),	-1130
WSAStartup	-1131
BSource	-1132
▁5;	-1133
AF	-1134
PROTO	-1135
▁IPPROTO	-1136
ial	-1137
ting	-1138
ayload	-1139
▁recv	-1140
getInputStream	-1141
user	-1142
Two	-1143
path	-1144
▁k	-1145
PROV	-1146
[0]);	-1147
omment	-1148
th	-1149
GSink	-1150
▁at	-1151
_45_	-1152
=0	-1153
▁boo	-1154
▁boolean	-1155
ret	-1156
fscanf	-1157
▁Connection	-1158
lib	-1159
os	-1160
▁connectSocket	-1161
INT	-1162
STRING	-1163
ouble	-1164
riter	-1165
▁long	-1166
ction	-1167
kens	-1168
IP	-1169
sub	-1170
snprintf	-1171
▁/	-1172
long	-1173
badSink	-1174
▁6	-1175
▁username	-1176
▁OPEN	-1177
bin	-1178
rib	-1179
ttrib	-1180
ReturnsFalse	-1181
11	-1182
643_	-1183
Xpath	-1184
hCryptProv	-1185
crypt	-1186
1(	-1187
▁CHAR	-1188
[5	-1189
ipe	-1190
En	-1191
co	-1192
LinkedList	-1193
byte	-1194
inc	-1195
Or	-1196
eter	-1197
▁my	-1198
806_	-1199
2(	-1200
Bytes	-1201
gma	-1202
▁comment	-1203
].	-1204
▁environment	-1205
pra	-1206
pragma	-1207
▁'\	-1208
IST	-1209
ISTEN	-1210
▁6:	-1211
ITE	-1212
Query	-1213
ializ	-1214
ameter	-1215
AAAA	-1216
woIntsClass	-1217
URLConnection	-1218
▁System	-1219
YP	-1220
▁2,	-1221
▁3,	-1222
ere	-1223
OrFalse	-1224
▁of	-1225
out	-1226
ACK	-1227
▁LISTEN	-1228
buffer	-1229
loseHandle	-1230
▁out	-1231
RC	-1232
▁100*	-1233
SH	-1234
true	-1235
ResultSet	-1236
▁twoIntsStruct	-1237
yp	-1238
globalFive	-1239
LOG	-1240
BACK	-1241
BACKLOG	-1242
Loops	-1243
OfLoops	-1244
intTwo	-1245
->	-1246
▁false	-1247
CHAR	-1248
rc	-1249
+1	-1250
direct	-1251
ounds	-1252
max	-1253
▁memcpy	-1254
base	-1255
Union	-1256
▁myUnion	-1257
Uncheck	-1258
Unchecked	-1259
Name	-1260
_3	-1261
READ	-1262
tmp	-1263
Ref	-1264
▁cookie	-1265
WRITE	-1266
ncat	-1267
▁fclose	-1268
▁,	-1269
gth	-1270
use	-1271
ary	-1272
omain	-1273
Ldap	-1274
▁CloseHandle	-1275
RYP	-1276
100-	-1277
ition	-1278
start	-1279
.0	-1280
tcp	-1281
▁1);	-1282
length	-1283
utes	-1284
input	-1285
RYPT	-1286
▁G	-1287
GON	-1288
▁numberOfLoops	-1289
▁10;	-1290
Co	-1291
LongLine	-1292
(!	-1293
wer	-1294
umeric	-1295
54	-1296
▁con	-1297
hKey	-1298
org	-1299
Void	-1300
124_	-1301
127_	-1302
Underread	-1303
Underwrite	-1304
RESS	-1305
ADDRESS	-1306
▁strchr	-1307
▁7	-1308
(0	-1309
arameter	-1310
ype	-1311
irst	-1312
First	-1313
[50]	-1314
▁unsigned	-1315
Sources	-1316
fgetws	-1317
▁HANDLE	-1318
her	-1319
ple	-1320
"))	-1321
▁stdin	-1322
▁SRC	-1323
CRYPT	-1324
ample	-1325
ES	-1326
Success	-1327
Rand	-1328
ipher	-1329
bind	-1330
ecure	-1331
Header	-1332
hHash	-1333
url	-1334
XPath	-1335
xmlFile	-1336
Attrib	-1337
Hex	-1338
▁memmove	-1339
▁closesocket	-1340
pointer	-1341
Random	-1342
init	-1343
32")	-1344
▁ResultSet	-1345
lative	-1346
90_	-1347
sql	-1348
mand	-1349
ommand	-1350
AB	-1351
ERIC	-1352
▁ldap	-1353
pMessage	-1354
▁inputFile	-1355
▁outputFile	-1356
LdapConnection	-1357
example	-1358
typ	-1359
▁100;	-1360
ENERIC	-1361
wins	-1362
af	-1363
Hel	-1364
=0;	-1365
istd	-1366
unistd	-1367
bso	-1368
▁true	-1369
954	-1370
▁printLong	-1371
▁search	-1372
▁outputObject	-1373
!");	-1374
host	-1375
▁2);	-1376
inputBuffer	-1377
Naming	-1378
Free	-1379
src	-1380
)*	-1381
fileDesc	-1382
▁Crypt	-1383
▁Properties	-1384
23_	-1385
TE	-1386
▁dataVector	-1387
)]	-1388
OutputStream	-1389
getP	-1390
ash	-1391
bsol	-1392
bsolute	-1393
▁dataHashMap	-1394
▁dataLinkedList	-1395
uth	-1396
sec	-1397
HT	-1398
TP	-1399
Spl	-1400
113_	-1401
HTTP	-1402
Split	-1403
Response	-1404
Splitting	-1405
36_	-1406
Absolute	-1407
193_	-1408
6)	-1409
_12	-1410
▁strcat	-1411
▁wcscat	-1412
ithm	-1413
ww	-1414
dition	-1415
Relative	-1416
AES	-1417
urlConnection	-1418
▁TwoIntsClass	-1419
ely	-1420
▁saf	-1421
▁safely	-1422
Be	-1423
getenv	-1424
▁GET	-1425
▁GETENV	-1426
▁ar	-1427
etic	-1428
▁arithm	-1429
▁arithmetic	-1430
▁Array	-1431
squ	-1432
square	-1433
2.	-1434
Command	-1435
▁Cookie	-1436
cond	-1437
▁5)	-1438
NPR	-1439
INTF	-1440
NPRINTF	-1441
_34_	-1442
Second	-1443
gative	-1444
globalTrue	-1445
(5==5)	-1446
getParameter	-1447
_10	-1448
▁Object	-1449
...	-1450
Condition	-1451
Th	-1452
_61	-1453
▁wcschr	-1454
▁fileDesc	-1455
trol	-1456
ESS	-1457
Tokenizer	-1458
▁fopen	-1459
3;	-1460
▁SNPRINTF	-1461
Control	-1462
no	-1463
twoIntsStruct	-1464
▁g	-1465
▁wcscpy	-1466
60	-1467
\"	-1468
types	-1469
test	-1470
ecureRandom	-1471
▁50	-1472
2_32")	-1473
winsock	-1474
▁50-1);	-1475
GENERIC	-1476
Inf	-1477
▁a	-1478
▁strcpy	-1479
(3	-1480
uccessf	-1481
▁successf	-1482
CharVoid	-1483
Numeric	-1484
▁bounds	-1485
du	-1486
ang	-1487
oot	-1488
has	-1489
More	-1490
hasMore	-1491
SU	-1492
Private	-1493
▁key	-1494
pre	-1495
[10+1	-1496
HexChar	-1497
Reg	-1498
015	-1499
▁27	-1500
▁TCP	-1501
▁27015	-1502
hFile	-1503
uncPtr	-1504
ter	-1505
lang	-1506
▁accept	-1507
126_	-1508
Over	-1509
Overread	-1510
rary	-1511
Pipe	-1512
ibrary	-1513
ADDR	-1514
fixed	-1515
ully	-1516
▁successfully	-1517
oryContext	-1518
bConnection	-1519
ANY	-1520
▁INADDR	-1521
pa	-1522
arpa	-1523
netinet	-1524
DEF	-1525
ity	-1526
▁(5	-1527
/2	-1528
▁*)(	-1529
▁1),	-1530
256	-1531
81_	-1532
_01_	-1533
Tr	-1534
▁not	-1535
Trunc	-1536
Truncation	-1537
...)	-1538
fprintf	-1539
▁ST	-1540
56	-1541
Modu	-1542
Module	-1543
HexCharLine	-1544
01;	-1545
▁...)	-1546
privateFive	-1547
HANDLE	-1548
197_	-1549
▁negative	-1550
BConnection	-1551
▁intVariable	-1552
▁D	-1553
stdin	-1554
QueryString	-1555
getC	-1556
cor	-1557
Search	-1558
correct	-1559
oto	-1560
▁goto	-1561
der	-1562
Incorrect	-1563
retKey	-1564
▁XPath	-1565
▁xmlFile	-1566
used	-1567
▁passwordLen	-1568
ookies	-1569
getCookies	-1570
getQueryString	-1571
Writer	-1572
_41_	-1573
▁payload	-1574
▁F	-1575
GSource	-1576
wprintf	-1577
min	-1578
▁hFile	-1579
cpp	-1580
root	-1581
▁const	-1582
KEY	-1583
(1,	-1584
fig	-1585
▁LO	-1586
▁LOGON	-1587
[10]	-1588
(0,	-1589
Instance	-1590
_02_	-1591
_03_	-1592
_04_	-1593
_05_	-1594
_06_	-1595
_07_	-1596
_08_	-1597
_09_	-1598
_11_	-1599
_13_	-1600
_14_	-1601
_15_	-1602
_16_	-1603
_17_	-1604
_18_	-1605
erializ	-1606
▁7:	-1607
▁domain	-1608
Container	-1609
▁ByteArrayOutput	-1610
++;	-1611
▁STATIC	-1612
47	-1613
_10_	-1614
Info	-1615
-1,	-1616
ilen	-1617
ilename	-1618
1;	-1619
query	-1620
unction	-1621
Xml	-1622
/2))	-1623
Short	-1624
post	-1625
Function	-1626
_12_	-1627
com	-1628
▁sec	-1629
▁tokenizer	-1630
▁cookieSources	-1631
▁StringTokenizer	-1632
intPointer	-1633
Helper	-1634
pec	-1635
exec	-1636
▁U	-1637
trib	-1638
▁direct	-1639
OPEN	-1640
Type	-1641
▁inet	-1642
▁sink	-1643
Spec	-1644
ens	-1645
oi	-1646
Cipher	-1647
▁union	-1648
▁Create	-1649
is	-1650
ime	-1651
XX	-1652
▁atoi	-1653
▁id	-1654
▁temp	-1655
Public	-1656
PublicStatic	-1657
▁HCRYPT	-1658
="	-1659
Process	-1660
ARI	-1661
ABLE	-1662
VARI	-1663
VARIABLE	-1664
▁tokens	-1665
▁cre	-1666
Check	-1667
▁fscanf	-1668
▁FILENAME	-1669
Sens	-1670
itive	-1671
Sensitive	-1672
RAND	-1673
uld	-1674
00	-1675
>();	-1676
02;	-1677
▁all	-1678
HashT	-1679
▁attrib	-1680
HashTable	-1681
Attributes	-1682
▁dbConnection	-1683
▁exceptNaming	-1684
:/	-1685
retKeySpec	-1686
://	-1687
Password	-1688
Dere	-1689
dexOf	-1690
indexOf	-1691
ho	-1692
(50	-1693
(50*	-1694
(6)	-1695
lease	-1696
toString	-1697
Code	-1698
[50];	-1699
qui	-1700
Use	-1701
").	-1702
toLo	-1703
toLower	-1704
toLowerCase	-1705
VaSinkB	-1706
cookie	-1707
pHandle	-1708
▁FOPEN	-1709
[0].	-1710
privateTrue	-1711
fopen	-1712
8;	-1713
double	-1714
='	-1715
ASH	-1716
Dest	-1717
606_	-1718
IPE	-1719
▁';	-1720
[10+1]	-1721
getD	-1722
Library	-1723
RD	-1724
RDWR	-1725
_22_	-1726
▁)	-1727
▁(100	-1728
▁URL	-1729
)(100-	-1730
253_	-1731
crypted	-1732
roy	-1733
Destroy	-1734
Unsigned	-1735
▁-1)	-1736
▁Con	-1737
LDAP	-1738
structCharVoid	-1739
payload	-1740
urity	-1741
home	-1742
getDBConnection	-1743
Ex	-1744
Unable	-1745
▁Container	-1746
7)	-1747
URI	-1748
void	-1749
CRE	-1750
CREAT	-1751
[10];	-1752
auth	-1753
loat	-1754
InputSource	-1755
ext	-1756
IREAD	-1757
IWRITE	-1758
Mem	-1759
ultip	-1760
stdout	-1761
40	-1762
code	-1763
▁log	-1764
Time	-1765
▁sm	-1766
▁small	-1767
stringtest	-1768
fixedstringtest	-1769
With	-1770
CESS	-1771
Cookie	-1772
252_	-1773
▁login	-1774
15_	-1775
lication	-1776
▁0))	-1777
size	-1778
testcases	-1779
Release	-1780
token	-1781
32();	-1782
IDER	-1783
PROVIDER	-1784
act	-1785
CreateFile	-1786
Log	-1787
▁statement	-1788
IB	-1789
ORM	-1790
Memory	-1791
RS	-1792
RSA	-1793
▁multip	-1794
▁multiplication	-1795
oKey	-1796
nextInt	-1797
quire	-1798
proper	-1799
properties	-1800
bas	-1801
basic	-1802
security	-1803
lect	-1804
▁th	-1805
LT	-1806
▁100-1,	-1807
UTE	-1808
▁token	-1809
▁(100-	-1810
='"	-1811
Loc	-1812
jsp	-1813
▁"'	-1814
()='"	-1815
xPath	-1816
author	-1817
▁(5==5)	-1818
Location	-1819
▁inputXml	-1820
▁Injection	-1821
▁InputSource	-1822
<10;	-1823
4);	-1824
▁3954	-1825
▁39544);	-1826
addCookie	-1827
▁<=	-1828
▁root	-1829
YTE	-1830
BData	-1831
▁intPointer	-1832
select	-1833
resultSet	-1834
comm	-1835
lear	-1836
execute	-1837
prepare	-1838
executeQuery	-1839
prepareStatement	-1840
AU	-1841
AULT	-1842
DEFAULT	-1843
▁(*	-1844
ls	-1845
connection	-1846
▁CryptDestroy	-1847
ence	-1848
▁base	-1849
_81_	-1850
▁baseObject	-1851
ated	-1852
LEn	-1853
LEnco	-1854
URLEnco	-1855
URLEncoder	-1856
_44_	-1857
ilter	-1858
pLdapConnection	-1859
▁pLdapConnection	-1860
OS	-1861
_31_	-1862
_32_	-1863
database	-1864
PropertiesFile	-1865
search	-1866
table	-1867
Serializ	-1868
staticFalse	-1869
FileInputStream	-1870
CCESS	-1871
4;	-1872
preinc	-1873
postinc	-1874
+");	-1875
ATTR	-1876
NORM	-1877
IBUTE	-1878
NORMAL	-1879
▁Vector	-1880
▁HashMap	-1881
ATTRIBUTE	-1882
Serialized	-1883
▁CreateFile	-1884
▁LinkedList	-1885
Tx	-1886
19_	-1887
Win	-1888
319_	-1889
Clear	-1890
Cleartext	-1891
qr	-1892
▁(!	-1893
ans	-1894
▁os	-1895
Enumer	-1896
Values	-1897
answer	-1898
▁Naming	-1899
irContext	-1900
▁osCommand	-1901
▁tempClass	-1902
Enumeration	-1903
als	-1904
UnsignedLine	-1905
123	-1906
SUCCESS	-1907
▁dataArray	-1908
▁pointer	-1909
Lock	-1910
▁writer	-1911
Env	-1912
Environment	-1913
▁100,	-1914
(10	-1915
▁8;	-1916
▁dataContainer	-1917
addHeader	-1918
setHeader	-1919
▁2)	-1920
Fact	-1921
Factory	-1922
www	-1923
3);	-1924
(3954	-1925
(39543);	-1926
ero	-1927
getString	-1928
")).	-1929
_22	-1930
ALW	-1931
AYS	-1932
/")).	-1933
ALWAYS	-1934
openConnection	-1935
▁URLConnection	-1936
▁urlConnection	-1937
Global	-1938
free	-1939
filename	-1940
(*	-1941
passwordLen	-1942
42	-1943
ape	-1944
cape	-1945
ll	-1946
Resource	-1947
beros	-1948
erberos	-1949
};	-1950
▁{0	-1951
qrt	-1952
ldap	-1953
▁query	-1954
Dec	-1955
▁PIPE	-1956
▁co	-1957
▁hash	-1958
▁and	-1959
▁10	-1960
MOD	-1961
▁{0};	-1962
▁sourceLen	-1963
getWriter	-1964
encrypted	-1965
ab	-1966
"/	-1967
[1	-1968
Thread	-1969
SecureRandom	-1970
ast	-1971
US	-1972
../	-1973
("../	-1974
common	-1975
config	-1976
Decrypt	-1977
dataRef	-1978
▁dataRef	-1979
valid	-1980
NG	-1981
▁M	-1982
Beh	-1983
avi	-1984
avior	-1985
Behavior	-1986
ined	-1987
Undef	-1988
Undefined	-1989
')	-1990
▁INT	-1991
charFirst	-1992
▁Long	-1993
1234	-1994
▁open	-1995
▁hHash	-1996
igest	-1997
ference	-1998
LI	-1999
LIMIT	-2000
▁++	-2001
sqrt	-2002
▁SH	-2003
▁double	-2004
Math	-2005
Invalid	-2006
ALG	-2007
▁CALG	-2008
▁where	-2009
iss	-2010
unionType	-2011
newInstance	-2012
▁SecureRandom	-2013
PUT	-2014
Run	-2015
funcPtr	-2016
▁funcPtr	-2017
75	-2018
XSS	-2019
ln	-2020
println	-2021
▁users	-2022
VaSinkG	-2023
ead	-2024
val	-2025
▁SQL	-2026
=0");	-2027
sg	-2028
esCipher	-2029
▁linkedList	-2030
758_	-2031
=\"	-2032
563_	-2033
Unused	-2034
▁final	-2035
ubt	-2036
raction	-2037
ubtraction	-2038
_21_	-2039
.1	-2040
.1"	-2041
127	-2042
.0.0	-2043
▁"127	-2044
.0.0.1"	-2045
▁"127.0.0.1"	-2046
unionFirst	-2047
unionSecond	-2048
Runtime	-2049
▁getenv	-2050
hel	-2051
getBytes	-2052
-8"	-2053
▁load	-2054
hModule	-2055
▁hModule	-2056
▁created	-2057
ert	-2058
03;	-2059
CO	-2060
CH	-2061
Cl	-2062
▁Short	-2063
emp	-2064
▁logg	-2065
▁logged	-2066
Hashtable	-2067
114_	-2068
HASH	-2069
msg	-2070
_42_	-2071
Auth	-2072
badSource	-2073
SHA	-2074
ialization	-2075
83	-2076
badData	-2077
INPUT	-2078
ide	-2079
▁type	-2080
▁crypt	-2081
▁ULO	-2082
AAAAAAAA	-2083
NET	-2084
WORK	-2085
LOGON	-2086
Logon	-2087
NETWORK	-2088
LogonUser	-2089
▁be	-2090
256,	-2091
_256,	-2092
▁subtraction	-2093
Attribute	-2094
_61_	-2095
((10	-2096
▁-2;	-2097
EW	-2098
wb	-2099
▁ULONG	-2100
AG	-2101
encode	-2102
Ac	-2103
▁destLen	-2104
Domain	-2105
unused	-2106
ecretKeySpec	-2107
ONG	-2108
format	-2109
exist	-2110
10))	-2111
bounds	-2112
tokens	-2113
▁(10))	-2114
local	-2115
▁hKey	-2116
exists	-2117
Initialization	-2118
_51	-2119
_52	-2120
_53	-2121
_54	-2122
▁"&	-2123
="))	-2124
Token	-2125
sWith	-2126
Tokens	-2127
▁"&");	-2128
getValue	-2129
nextToken	-2130
substring	-2131
tokenizer	-2132
startsWith	-2133
cookieSources	-2134
hasMoreTokens	-2135
LLONG	-2136
_67	-2137
_68	-2138
▁";	-2139
_66	-2140
Kerberos	-2141
[256	-2142
▁strncpy	-2143
39	-2144
abs	-2145
Digest	-2146
▁PRIVATE	-2147
hash	-2148
▁passwordBuffer	-2149
Red	-2150
Redirect	-2151
▁CryptRelease	-2152
send	-2153
ient	-2154
Acquire	-2155
839_	-2156
Temp	-2157
▁Byte	-2158
▁strncat	-2159
▁wcsncat	-2160
68	-2161
)))	-2162
_72	-2163
_73	-2164
_74	-2165
Ext	-2166
localhost	-2167
Double	-2168
api	-2169
▁7;	-2170
▁PUT	-2171
ld	-2172
_71	-2173
_75	-2174
tainerOne	-2175
StructLine	-2176
▁printStructLine	-2177
76	-2178
BYTE	-2179
ABC	-2180
/"	-2181
\\"	-2182
476_	-2183
Dereference	-2184
dow	-2185
(0)	-2186
NO	-2187
msgfree	-2188
▁filter	-2189
▁ifstream	-2190
▁ofstream	-2191
▁searchSuccess	-2192
▁connectSuccess	-2193
ipal	-2194
incipal	-2195
ener	-2196
TwoIntsClass	-2197
BeDecrypt	-2198
BeDecrypted	-2199
[2	-2200
cn	-2201
761_	-2202
EM	-2203
Nam	-2204
Named	-2205
NamedPipe	-2206
getA	-2207
loads	-2208
getAll	-2209
isFile	-2210
uploads	-2211
▁Attrib	-2212
▁answer	-2213
▁process	-2214
▁Hashtable	-2215
▁allValues	-2216
▁attribute	-2217
▁DirContext	-2218
▁attributes	-2219
▁searchResult	-2220
▁allAttributes	-2221
NamingException	-2222
>");	-2223
ax	-2224
getInstance	-2225
▁42;	-2226
▁wcsncpy	-2227
▁PROV	-2228
CryptAcquire	-2229
lement	-2230
RT	-2231
▁(3	-2232
427_	-2233
Element	-2234
str	-2235
69	-2236
▁(6)	-2237
globalFalse	-2238
32\\	-2239
(5!=5)	-2240
CE	-2241
Op	-2242
Open	-2243
enti	-2244
▁aesCipher	-2245
snwprintf	-2246
▁Kerberos	-2247
690_	-2248
Deref	-2249
99	-2250
▁Cipher	-2251
5;	-2252
ern	-2253
ernal	-2254
figur	-2255
Setting	-2256
Configur	-2257
External	-2258
Configuration	-2259
690	-2260
istry	-2261
Registry	-2262
▁keyName	-2263
▁was	-2264
DEFG	-2265
denti	-2266
ABCDEFG	-2267
dentials	-2268
▁"\\	-2269
Could	-2270
▁URLEncoder	-2271
▁".	-2272
▁could	-2273
▁(7)	-2274
▁PUTENV	-2275
▁cryptoKey	-2276
Oper	-2277
▁pHandle	-2278
▁badStatic	-2279
br	-2280
ach	-2281
STEM	-2282
▁the	-2283
ous	-2284
▁"./	-2285
Sy	-2286
dataGood	-2287
dataGoodBuffer	-2288
Der	-2289
Synt	-2290
orary	-2291
Syntax	-2292
URISyntax	-2293
unt	-2294
Derive	-2295
DeriveKey	-2296
Hello	-2297
oor	-2298
hPipe	-2299
entic	-2300
Authentic	-2301
Authentication	-2302
▁SecretKeySpec	-2303
▁secretKeySpec	-2304
pect	-2305
pected	-2306
-8"));	-2307
▁SE	-2308
by	-2309
vprintf	-2310
vfprintf	-2311
vsnprintf	-2312
78_	-2313
(7)	-2314
Ass	-2315
UF	-2316
66	-2317
("<	-2318
prev	-2319
ENH	-2320
▁MS	-2321
61	-2322
fe	-2323
Unsa	-2324
Unsafe	-2325
lection	-2326
470_	-2327
Reflection	-2328
ator	-2329
[2]	-2330
Mut	-2331
ARCH	-2332
Gener	-2333
Mutex	-2334
▁SEARCH	-2335
issing	-2336
AGE	-2337
MESS	-2338
MESSAGE	-2339
Missing	-2340
BadSource	-2341
▁database	-2342
Client	-2343
Pri	-2344
Size	-2345
class	-2346
ici	-2347
icious	-2348
680_	-2349
Bu	-2350
Buil	-2351
Builder	-2352
▁secret	-2353
▁dataGoodG	-2354
fput	-2355
lock	-2356
orld	-2357
hello	-2358
fstream	-2359
ifstream	-2360
ofstream	-2361
ers	-2362
▁ENV	-2363
▁NEW	-2364
vapi	-2365
RegCreate	-2366
At	-2367
wscanf	-2368
voidSecond	-2369
▁structCharVoid	-2370
for	-2371
[5];	-2372
▁LLONG	-2373
Har	-2374
Hard	-2375
og	-2376
Es	-2377
Uti	-2378
Utils	-2379
Escape	-2380
EscapeUtils	-2381
▁DWORD	-2382
ServerSocket	-2383
intVariable	-2384
(5);	-2385
▁100-	-2386
▁world	-2387
]"	-2388
ts	-2389
||	-2390
lit	-2391
("||	-2392
()";	-2393
eval	-2394
ssum	-2395
uate	-2396
▁"//	-2397
split	-2398
users	-2399
▁"']"	-2400
▁pass	-2401
secret	-2402
stants	-2403
▁1.");	-2404
▁Assum	-2405
▁xPath	-2406
("||");	-2407
evaluate	-2408
newXPath	-2409
▁Numeric	-2410
Constants	-2411
▁Assuming	-2412
▁expected	-2413
cookieSink	-2414
▁cookieSink	-2415
▁XPathFactory	-2416
▁XPathConstants	-2417
output	-2418
exe	-2419
▁filename	-2420
04;	-2421
AAAAAAAAAA	-2422
MODE	-2423
▁pipe	-2424
▁Password	-2425
WA	-2426
WAIT	-2427
rincipal	-2428
".	-2429
▁typedef	-2430
Station	-2431
action	-2432
random	-2433
Coded	-2434
▁head	-2435
Temporary	-2436
27	-2437
Priv	-2438
▁BUF	-2439
Privile	-2440
Af	-2441
After	-2442
▁set	-2443
▁((	-2444
dataVector	-2445
▁"(	-2446
>(5);	-2447
HashData	-2448
▁serializ	-2449
CreateHash	-2450
toByteArray	-2451
writeObject	-2452
containerOne	-2453
outputObject	-2454
CryptHashData	-2455
▁ObjectOutput	-2456
▁serialization	-2457
CryptCreateHash	-2458
41	-2459
▁stdThread	-2460
▁staticFive	-2461
▁staticTrue	-2462
*2	-2463
▁fre	-2464
uri	-2465
▁URI	-2466
▁uri	-2467
Uninit	-2468
▁staticFalse	-2469
(5)	-2470
▁de	-2471
NAME	-2472
dataBad	-2473
dataBadBuffer	-2474
[100*2	-2475
dataArray	-2476
▁HCRYPTPROV	-2477
▁hCryptProv	-2478
hashData	-2479
ph	-2480
ogra	-2481
phic	-2482
ographic	-2483
83_	-2484
_06	-2485
_07	-2486
_09	-2487
dataHashMap	-2488
dataContainer	-2489
dataLinkedList	-2490
dataSerialized	-2491
▁dataSerialized	-2492
(""	-2493
aring	-2494
_16	-2495
_17	-2496
We	-2497
advapi	-2498
cre	-2499
sscanf	-2500
variable	-2501
hut	-2502
416_	-2503
▁encrypted	-2504
▁HCRYPTHASH	-2505
YSTEM	-2506
The	-2507
Operation	-2508
Desk	-2509
cryptoKey	-2510
+1)*	-2511
[10+1];	-2512
((10+1)*	-2513
false	-2514
▁payloadBytes	-2515
system	-2516
▁SHRT	-2517
OF	-2518
Generator	-2519
erson	-2520
▁10)	-2521
89	-2522
USKey	-2523
13	-2524
Windows	-2525
addCookieServlet	-2526
addHeaderServlet	-2527
setHeaderServlet	-2528
large	-2529
▁RAND	-2530
▁HASH	-2531
404_	-2532
Shut	-2533
down	-2534
Shutdown	-2535
COM	-2536
617_	-2537
Reach	-2538
Assert	-2539
Assertion	-2540
Reachable	-2541
▁badVaSinkB	-2542
Vio	-2543
Viol	-2544
Violation	-2545
omic	-2546
▁W	-2547
272_	-2548
Least	-2549
Privilege	-2550
▁library	-2551
cm	-2552
84_	-2553
cmd	-2554
▁dir	-2555
▁ha	-2556
398_	-2557
Poor	-2558
Qual	-2559
Quality	-2560
err	-2561
XXXX	-2562
▁get	-2563
mm	-2564
Tri	-2565
_01	-2566
mmed	-2567
Trimmed	-2568
CryptDeriveKey	-2569
Sig	-2570
SigAt	-2571
SigAtomic	-2572
wa	-2573
Imperson	-2574
HCRYPT	-2575
▁ERROR	-2576
addition	-2577
OP	-2578
▁float	-2579
601_	-2580
For	-2581
itFor	-2582
As	-2583
Man	-2584
(10*	-2585
toChar	-2586
toCharArray	-2587
GData	-2588
LogonUserA	-2589
Stor	-2590
Storage	-2591
45	-2592
strlen	-2593
ERT	-2594
▁ASS	-2595
▁ASSERT	-2596
Read	-2597
escape	-2598
escapeXml	-2599
▁HCRYPTKEY	-2600
▁CryptDestroyKey	-2601
)((	-2602
Exp	-2603
XT	-2604
TEXT	-2605
ULE	-2606
oad	-2607
▁Free	-2608
▁HMOD	-2609
▁Load	-2610
▁freed	-2611
▁loaded	-2612
▁HMODULE	-2613
▁dataBytes	-2614
▁FreeLibrary	-2615
▁LoadLibrary	-2616
MessageDigest	-2617
▁Runtime	-2618
getRuntime	-2619
Leak	-2620
thread	-2621
Encrypt	-2622
hUser	-2623
▁HKEY	-2624
▁hPipe	-2625
toBeDecrypted	-2626
75_	-2627
ABCDEFGH	-2628
ignal	-2629
pi	-2630
▁have	-2631
▁match	-2632
SYSTEM	-2633
top	-2634
(3);	-2635
▁getting	-2636
pipe	-2637
▁fprintf	-2638
iv	-2639
_33	-2640
_33;	-2641
stdarg	-2642
CreateProcess	-2643
▁squ	-2644
▁addition	-2645
▁squaring	-2646
▁256	-2647
ivide	-2648
36	-2649
Wh	-2650
512	-2651
INST	-2652
INSTAN	-2653
▁parameter	-2654
'",	-2655
(1+	-2656
415_	-2657
(3));	-2658
ED	-2659
Mana	-2660
river	-2661
Manager	-2662
riverManager	-2663
SUM	-2664
▁src	-2665
665_	-2666
BPrivate	-2667
▁x	-2668
284_	-2669
Final	-2670
▁FALSE	-2671
StringTokenizer	-2672
▁or	-2673
[256];	-2674
▁badPrivate	-2675
▁badPublicStatic	-2676
equ	-2677
401_	-2678
quired	-2679
Comp	-2680
OL	-2681
equals	-2682
crypto	-2683
username	-2684
_02	-2685
_03	-2686
_04	-2687
_05	-2688
_08	-2689
_11	-2690
_13	-2691
_14	-2692
_15	-2693
▁dataGoodB	-2694
ecut	-2695
dec	-2696
postdec	-2697
/";	-2698
▁printf	-2699
8)	-2700
32.	-2701
privateFalse	-2702
▁StringBuilder	-2703
690");	-2704
Impersonate	-2705
▁");	-2706
ND	-2707
▁CreateFileA	-2708
▁CreateFileW	-2709
Pre	-2710
run	-2711
▁payloadLen	-2712
SRC	-2713
dout	-2714
▁opened	-2715
▁stdout	-2716
▁pipeName	-2717
assert	-2718
wcs	-2719
tempFile	-2720
Principal	-2721
_43	-2722
_43;	-2723
ClassObject	-2724
secure	-2725
.",	-2726
=";	-2727
▁unionFirst	-2728
▁unionSecond	-2729
▁BYTE	-2730
▁MAX	-2731
▁UINT	-2732
LogonUserW	-2733
Handl	-2734
error	-2735
37	-2736
\\";	-2737
COP	-2738
[25	-2739
123456	-2740
Ad	-2741
Next	-2742
Prev	-2743
MAND	-2744
COMMAND	-2745
im	-2746
_62	-2747
▁"<	-2748
_62;	-2749
BVaSink	-2750
▁badVaSink	-2751
la	-2752
fread	-2753
▁credentials	-2754
131_	-2755
FileName	-2756
▁Se	-2757
--	-2758
BT	-2759
)",	-2760
REE	-2761
COPE	-2762
SUBT	-2763
SCOPE	-2764
[250]	-2765
[256]	-2766
filter	-2767
unbind	-2768
SUBTREE	-2769
▁256-1,	-2770
▁LDAPMessage	-2771
searchSuccess	-2772
connectSuccess	-2773
swscanf	-2774
fwprintf	-2775
▁MessageDigest	-2776
▁message	-2777
ptor	-2778
Descri	-2779
Descriptor	-2780
BStatic	-2781
LOOP	-2782
▁E	-2783
Cryptographic	-2784
,"	-2785
:3	-2786
Ct	-2787
DO	-2788
)";	-2789
ACT	-2790
Ctx	-2791
IAL	-2792
ORY	-2793
jnd	-2794
sun	-2795
("",	-2796
:389	-2797
Cata	-2798
DOWS	-2799
FACT	-2800
INIT	-2801
ialD	-2802
jndi	-2803
▁Pro	-2804
▁")";	-2805
▁Init	-2806
▁Value	-2807
▁found	-2808
:389");	-2809
CONTEXT	-2810
Catalog	-2811
FACTORY	-2812
INITIAL	-2813
LdapCtx	-2814
WINDOWS	-2815
forName	-2816
waitFor	-2817
▁Search	-2818
▁thread	-2819
▁Process	-2820
allValues	-2821
osCommand	-2822
▁InitialD	-2823
setCatalog	-2824
▁Attribute	-2825
▁Attributes	-2826
SearchResult	-2827
dbConnection	-2828
allAttributes	-2829
getAttributes	-2830
▁SearchResult	-2831
LdapCtxFactory	-2832
tempClassObject	-2833
directoryContext	-2834
▁tempClassObject	-2835
259_	-2836
parseShort	-2837
--;	-2838
Em	-2839
KeyEx	-2840
><	-2841
FileOutput	-2842
ded	-2843
Race	-2844
ASS	-2845
ASSWORD	-2846
ly	-2847
MP	-2848
Emb	-2849
Mal	-2850
506_	-2851
Embed	-2852
▁count	-2853
Embedded	-2854
Malicious	-2855
[1];	-2856
▁has	-2857
▁EOF	-2858
ialized	-2859
24	-2860
[0	-2861
[0];	-2862
GVaSink	-2863
▁fwprintf	-2864
▁KerberosKey	-2865
StructSigAtomic	-2866
doFinal	-2867
us	-2868
457_	-2869
Uninitialized	-2870
ff	-2871
RegC	-2872
TEST	-2873
lash	-2874
lashIn	-2875
TestKey	-2876
RegClose	-2877
lashInString	-2878
Get	-2879
Insecure	-2880
payloadBytes	-2881
▁unionType	-2882
miss	-2883
mission	-2884
Expos	-2885
Exposure	-2886
EC	-2887
urre	-2888
remove	-2889
▁BAD	-2890
▁linkedListNext	-2891
▁linkedListPrev	-2892
toHex	-2893
badStatic	-2894
hd	-2895
ust	-2896
PIPE	-2897
Ins	-2898
▁badData	-2899
Desktop	-2900
fre	-2901
FER	-2902
▁per	-2903
\">");	-2904
This	-2905
wcslen	-2906
USER	-2907
Signal	-2908
Handler	-2909
float	-2910
_31	-2911
fwrite	-2912
▁Secure	-2913
eroMemory	-2914
cast	-2915
urrent	-2916
_41	-2917
_45	-2918
)(100	-2919
▁wprintf	-2920
▁dBConnection	-2921
_21	-2922
▁hel	-2923
▁helper	-2924
▁messageDigest	-2925
Inside	-2926
FileTime	-2927
credentials	-2928
49	-2929
writer	-2930
▁BUFSI	-2931
Comment	-2932
▁Output	-2933
▁OutputStream	-2934
_42	-2935
dll	-2936
missions	-2937
▁permissions	-2938
INK	-2939
((10)*	-2940
math	-2941
value	-2942
wgetenv	-2943
▁printLongLine	-2944
sendRedirect	-2945
5";	-2946
Without	-2947
\0	-2948
▁ac	-2949
\0",	-2950
▁KEY	-2951
▁"5";	-2952
Testing	-2953
▁toBeDecrypted	-2954
▁100);	-2955
▁assert	-2956
▁doubleNumber	-2957
FileNotFound	-2958
▁test	-2959
48	-2960
Su	-2961
Direct	-2962
Informat	-2963
Information	-2964
AYLO	-2965
AYLOAD	-2966
▁vprintf	-2967
▁vfprintf	-2968
▁vwprintf	-2969
vsnwprintf	-2970
▁vfwprintf	-2971
▁vsnprintf	-2972
freopen	-2973
zero	-2974
number	-2975
pty	-2976
1234!	-2977
▁20	-2978
▁(5!=5)	-2979
▁GENERIC	-2980
32"	-2981
64,	-2982
alc	-2983
364_	-2984
426_	-2985
Untr	-2986
form	-2987
usted	-2988
Untrusted	-2989
4,	-2990
rv	-2991
count	-2992
intext	-2993
winsrv	-2994
▁redirect	-2995
empty	-2996
UN	-2997
OUR	-2998
▁classTwo	-2999
▁tmp	-3000
version	-3001
BPublicStatic	-3002
▁PASSWORD	-3003
377_	-3004
over	-3005
type	-3006
naming	-3007
overrun	-3008
▁hashData	-3009
▁*>	-3010
negative	-3011
Directory	-3012
▁tempFile	-3013
▁keyGenerator	-3014
▁lock	-3015
▁org	-3016
(40	-3017
img	-3018
=\""	-3019
(404,	-3020
▁"\">");	-3021
sendError	-3022
▁Parameter	-3023
▁exceptURISyntax	-3024
17	-3025
SET	-3026
vert	-3027
ug	-3028
ran	-3029
2-1);	-3030
[100*2];	-3031
[100*2-1]	-3032
▁100*2-1);	-3033
▁20;	-3034
DoubleLine	-3035
▁printDoubleLine	-3036
CN	-3037
)];	-3038
CNd	-3039
64();	-3040
▁GOOD	-3041
▁SCNd	-3042
ENT	-3043
charVoid	-3044
▁charVoid	-3045
IntClass	-3046
512_	-3047
Compare	-3048
369_	-3049
Divide	-3050
omb	-3051
5");	-3052
▁<<	-3053
▁privateFive	-3054
▁privateTrue	-3055
Float	-3056
Conversion	-3057
▁privateFalse	-3058
ep	-3059
Dup	-3060
675_	-3061
Duplic	-3062
Duplicate	-3063
Operations	-3064
546_	-3065
Susp	-3066
Suspicious	-3067
Pla	-3068
EX	-3069
INF	-3070
EXCL	-3071
cryptoKeyLen	-3072
▁stdThreadLock	-3073
ied	-3074
coded	-3075
CryptDecrypt	-3076
ses	-3077
Clas	-3078
uninit	-3079
Classes	-3080
-8"),	-3081
▁MK	-3082
▁writerBuffered	-3083
Window	-3084
▁BUFFER	-3085
Locked	-3086
kerberos	-3087
Plaintext	-3088
mk	-3089
)));	-3090
-1),	-3091
▁*));	-3092
▁setTime	-3093
ress	-3094
getConnection	-3095
▁DriverManager	-3096
FL	-3097
▁0.0	-3098
46	-3099
Add	-3100
▁list	-3101
59	-3102
Text	-3103
▁Float	-3104
stringTrimmed	-3105
▁stringTrimmed	-3106
Write	-3107
ating	-3108
rename	-3109
RegOpen	-3110
SHRegCreate	-3111
RegCreateKeyEx	-3112
SHRegCreateUSKey	-3113
urrentTime	-3114
▁put	-3115
Address	-3116
Ent	-3117
Enter	-3118
Sec	-3119
05;	-3120
Payload	-3121
wc	-3122
KeyGenerator	-3123
two	-3124
abc	-3125
putc	-3126
puts	-3127
OURCE	-3128
▁charArray	-3129
[1]);	-3130
GoodSink	-3131
numberOfLoops	-3132
linkedList	-3133
alend	-3134
alendar	-3135
CryptEncrypt	-3136
26_	-3137
BeEn	-3138
head	-3139
dataBytes	-3140
BeEncrypted	-3141
▁LoadLibraryA	-3142
▁LoadLibraryW	-3143
▁encryptedLen	-3144
NEW	-3145
HCRYPTHASH	-3146
▁streamOutput	-3147
CES	-3148
TYP	-3149
TYPE	-3150
aved	-3151
▁hUser	-3152
1234!";	-3153
Connect	-3154
LIMITED	-3155
alcHash	-3156
READMODE	-3157
avedHash	-3158
INSTANCES	-3159
UNLIMITED	-3160
▁CreateNamedPipe	-3161
XXXXX	-3162
DECRYPT	-3163
aesCipher	-3164
ABCDEFGHABCDEFGH	-3165
oe	-3166
fputc	-3167
fputs	-3168
putchar	-3169
BufferedWriter	-3170
Reference	-3171
81	-3172
▁intArray	-3173
_32	-3174
mit	-3175
Cre	-3176
ECK	-3177
CHECK	-3178
)(100.0	-3179
▁big	-3180
range	-3181
my	-3182
▁RE	-3183
quiring	-3184
")),	-3185
123_	-3186
What	-3187
Where	-3188
▁100)	-3189
-8")),	-3190
▁bytes	-3191
)+	-3192
Doe	-3193
▁XXXXX	-3194
nextLong	-3195
parseByte	-3196
parseLong	-3197
helper	-3198
▁200	-3199
_81	-3200
591_	-3201
▁(5)	-3202
Improperly	-3203
nam	-3204
170_	-3205
parseFloat	-3206
CreateNamedPipe	-3207
15");	-3208
▁TR	-3209
▁CRYPT	-3210
badPrivate	-3211
486_	-3212
▁lib	-3213
▁badStruct	-3214
ObjectOutput	-3215
▁containerOne	-3216
1234!");	-3217
FIR	-3218
FLAG	-3219
▁SHA	-3220
FIRST	-3221
INSTANCE	-3222
ME	-3223
▁sn	-3224
Execut	-3225
ritable	-3226
Readable	-3227
▁snprintf	-3228
▁swprintf	-3229
Executable	-3230
OOL	-3231
*)(	-3232
we	-3233
▁execut	-3234
mpt	-3235
tempt	-3236
UninitArray	-3237
▁dataUninitArray	-3238
ION	-3239
SHRT	-3240
ints	-3241
twoints	-3242
▁TRUE	-3243
CED	-3244
ANCED	-3245
ENHANCED	-3246
BytesLine	-3247
▁printBytesLine	-3248
)/	-3249
[(	-3250
10_	-3251
CUR	-3252
now	-3253
sed	-3254
Root	-3255
))-1]	-3256
threadA	-3257
threadB	-3258
▁hMutex	-3259
hProcess	-3260
Connected	-3261
▁RegClose	-3262
WinStation	-3263
▁fConnected	-3264
▁RegCloseKey	-3265
pret	-3266
▁*>(	-3267
interpret	-3268
▁tmpData	-3269
quiredSize	-3270
upported	-3271
ents	-3272
▁BOOL	-3273
▁system	-3274
CURR	-3275
CURRENT	-3276
321_	-3277
lf	-3278
pp	-3279
▁y	-3280
Arg	-3281
Self	-3282
supported	-3283
▁:	-3284
▁(8)	-3285
Wr	-3286
11_	-3287
Wrong	-3288
ession	-3289
.\\	-3290
\\.\\	-3291
td	-3292
390_	-3293
Action	-3294
▁KeyGenerator	-3295
511_	-3296
Bomb	-3297
Logic	-3298
▁secure	-3299
▁secureRandom	-3300
▁BufferedWriter	-3301
▁99	-3302
256_	-3303
58	-3304
Way	-3305
"(	-3306
77	-3307
sA	-3308
sW	-3309
775_	-3310
Print	-3311
creen	-3312
initA	-3313
initW	-3314
▁charArraySink	-3315
digest	-3316
/2);	-3317
<(10	-3318
▁10*	-3319
wopen	-3320
<(10/2);	-3321
Act	-3322
773_	-3323
Active	-3324
CloseHandle	-3325
FF	-3326
"),	-3327
USE	-3328
wincrypt	-3329
errno	-3330
hMutex	-3331
stdThread	-3332
ified	-3333
doubleNumber	-3334
Date	-3335
Signed	-3336
NamedPipeClient	-3337
DES	-3338
▁badGlobal	-3339
000	-3340
▁(;	-3341
Ph	-3342
Lif	-3343
key	-3344
666_	-3345
Lifet	-3346
Phase	-3347
edText	-3348
Lifetime	-3349
▁convert	-3350
principal	-3351
▁principal	-3352
twointsclass	-3353
▁requiredSize	-3354
▁convertedText	-3355
02	-3356
ssion	-3357
KEYSET	-3358
▁context	-3359
▁hashing	-3360
NEWKEYSET	-3361
▁creating	-3362
▁acquiring	-3363
▁cryptographic	-3364
▁CryptDeriveKey	-3365
UP	-3366
▁NMP	-3367
▁NMPWAIT	-3368
325_	-3369
Step	-3370
popen	-3371
Required	-3372
▁cout	-3373
NL	-3374
▁UNL	-3375
[(100	-3376
▁UNLINK	-3377
▁decode	-3378
ible	-3379
spec	-3380
▁10000	-3381
▁Th	-3382
▁Thread	-3383
▁object	-3384
99]	-3385
[99]	-3386
badGlobal	-3387
MO	-3388
MOVE	-3389
AsUser	-3390
RENAME	-3391
WindowStation	-3392
fo	-3393
▁Print	-3394
intArray	-3395
▁PAYLOAD	-3396
▁PrintWriter	-3397
pd	-3398
510_	-3399
Trapd	-3400
Trapdoor	-3401
myString	-3402
▁reinterpret	-3403
app	-3404
▁intOne	-3405
alt	-3406
Last	-3407
rant	-3408
currentTime	-3409
directory	-3410
250	-3411
ind	-3412
versed	-3413
versedString	-3414
SecretKeySpec	-3415
Username	-3416
Unsupported	-3417
▁-1.0	-3418
De	-3419
IME	-3420
-512	-3421
-512");	-3422
tents	-3423
▁WE	-3424
▁WEOF	-3425
(8)	-3426
wfopen	-3427
kerberosKey	-3428
passwordAuth	-3429
driverManager	-3430
fore	-3431
Unc	-3432
entence	-3433
▁objects	-3434
lw	-3435
INFO	-3436
shlw	-3437
▁num	-3438
▁PATH	-3439
ToRead	-3440
shlwapi	-3441
Before	-3442
226_	-3443
ared	-3444
Uncle	-3445
Uncleared	-3446
LastError	-3447
MD	-3448
123456"	-3449
codedPayload	-3450
li	-3451
pc	-3452
Bet	-3453
Typ	-3454
328_	-3455
681_	-3456
ween	-3457
Types	-3458
Revers	-3459
Between	-3460
Security	-3461
Reversible	-3462
tial	-3463
partial	-3464
▁path	-3465
Al	-3466
ico	-3467
▁ent	-3468
▁3);	-3469
wldap	-3470
putenv	-3471
Winldap	-3472
▁putenv	-3473
SystemRoot	-3474
Structure	-3475
▁toBeEncrypted	-3476
▁cryptoKeyBuffer	-3477
▁zero	-3478
Please	-3479
▁enter	-3480
OneIntClass	-3481
)'	-3482
pu	-3483
0],	-3484
49]	-3485
[15	-3486
myp	-3487
▁*;	-3488
49);	-3489
PROC	-3490
atus	-3491
back	-3492
push	-3493
▁HUS	-3494
690";	-3495
UCHAR	-3496
[149]	-3497
[150],	-3498
mypipe	-3499
▁149);	-3500
PROCESS	-3501
▁HUSKEY	-3502
▁calcHash	-3503
▁hashSize	-3504
AsFileTime	-3505
▁savedHash	-3506
▁SHRegClose	-3507
SlashInString	-3508
serviceClient	-3509
toBeDecryptedLen	-3510
▁SHRegCloseUSKey	-3511
▁&)	-3512
63	-3513
▁myString	-3514
▁helperGood	-3515
53	-3516
SER	-3517
UINT	-3518
AsBytes	-3519
lv	-3520
HER	-3521
_18	-3522
lvl	-3523
IPHER	-3524
OrOne	-3525
submit	-3526
▁error	-3527
relative	-3528
▁secretKey	-3529
relativePath	-3530
▁newDirectory	-3531
ache	-3532
apache	-3533
commons	-3534
DEST	-3535
Argum	-3536
STEMP	-3537
▁MKSTEMP	-3538
payloadLen	-3539
▁bm	-3540
789	-3541
244_	-3542
FULL	-3543
Insp	-3544
_01;	-3545
domain	-3546
ection	-3547
0123456	-3548
0123456789	-3549
Inspection	-3550
CreateMutex	-3551
FIX	-3552
"\\	-3553
StringBuilder	-3554
dw	-3555
963	-3556
964	-3557
Bro	-3558
NAM	-3559
327_	-3560
Assign	-3561
Broken	-3562
Crypto	-3563
bug	-3564
ugh	-3565
LSocket	-3566
inttypes	-3567
ACCESS	-3568
▁PC	-3569
▁writ	-3570
▁POPEN	-3571
▁PCLOSE	-3572
▁writing	-3573
-1;	-3574
bs	-3575
sax	-3576
SINK	-3577
▁abs	-3578
xpath	-3579
▁SOURCE	-3580
▁val	-3581
bm	-3582
_02;	-3583
_03;	-3584
_04;	-3585
_05;	-3586
_06;	-3587
_07;	-3588
_08;	-3589
_09;	-3590
_10;	-3591
_11;	-3592
_12;	-3593
_13;	-3594
_14;	-3595
_15;	-3596
_16;	-3597
_17;	-3598
_18;	-3599
▁CRE	-3600
▁CREATE	-3601
Screen	-3602
qw	-3603
sl	-3604
SIG	-3605
▁ft	-3606
BadSink	-3607
BVaSinkB	-3608
GVaSinkG	-3609
qwResult	-3610
▁longNumber	-3611
XXXXXX	-3612
dified	-3613
+1;	-3614
goodLock	-3615
getOutputStream	-3616
Session	-3617
ould	-3618
gener	-3619
generate	-3620
▁0");	-3621
ENCRYPT	-3622
USERNAME	-3623
command	-3624
▁execution	-3625
00,	-3626
App	-3627
NEC	-3628
TED	-3629
xff	-3630
▁des	-3631
CONNEC	-3632
CharInt	-3633
PAYLOAD	-3634
cBuffer	-3635
iHeader	-3636
tempted	-3637
CONNECTED	-3638
HCRYPTKEY	-3639
HCRYPTPROV	-3640
▁intUnsigned	-3641
fclose	-3642
▁access	-3643
▁Get	-3644
mktemp	-3645
fwscanf	-3646
ToEncrypt	-3647
▁0:	-3648
create	-3649
▁*)&	-3650
▁rand	-3651
▁action	-3652
Rpc	-3653
Inst	-3654
abcdef	-3655
GetTemp	-3656
Instead	-3657
SHRegOpen	-3658
RegCreateKey	-3659
RegOpenKeyEx	-3660
RpcImpersonate	-3661
SHRegOpenUSKey	-3662
GetTempFileName	-3663
cy	-3664
></	-3665
erg	-3666
▁em	-3667
ency	-3668
road	-3669
▁broad	-3670
▁emerg	-3671
hashValue	-3672
▁broadcast	-3673
▁emergency	-3674
▁hashValue	-3675
streamFileOutput	-3676
oin	-3677
▁One	-3678
after	-3679
▁classOne	-3680
▁OneIntClass	-3681
▁by	-3682
dulo	-3683
ACP	-3684
POS	-3685
ToM	-3686
▁WC	-3687
▁-1,	-3688
▁Wide	-3689
COMPOS	-3690
CharToM	-3691
GoodLock	-3692
ITECHECK	-3693
ultiByte	-3694
▁WideCharToM	-3695
COMPOSITECHECK	-3696
00,0	-3697
PRNG	-3698
msgBuffer	-3699
20	-3700
Non	-3701
▁1024	-3702
ant	-3703
▁20000	-3704
▁intFive	-3705
▁this	-3706
▁reversedString	-3707
▁bind	-3708
charLine	-3709
▁printWcharLine	-3710
TEMP	-3711
▁MKTEMP	-3712
57	-3713
Rele	-3714
▁port	-3715
IntValue	-3716
passwords	-3717
▁sentence	-3718
getPassword	-3719
ImpersonateSelf	-3720
rd	-3721
ssw	-3722
num	-3723
▁bytesToRead	-3724
1");	-3725
_31;	-3726
_32;	-3727
_44	-3728
hod	-3729
250-	-3730
256-	-3731
_41;	-3732
_44;	-3733
_45;	-3734
ways	-3735
ethod	-3736
Generic	-3737
_34	-3738
_34;	-3739
▁host	-3740
84	-3741
fus	-3742
843_	-3743
Confus	-3744
hostInfo	-3745
Confusion	-3746
▁"\\\\.\\	-3747
▁charString	-3748
128	-3749
MAP	-3750
2");	-3751
ITMAP	-3752
▁sprintf	-3753
▁bmiHeader	-3754
_21;	-3755
▁passwordVector	-3756
SIGINT	-3757
▁signal	-3758
Argument	-3759
Inet	-3760
charString	-3761
KC	-3762
unl	-3763
391_	-3764
467_	-3765
Reli	-3766
ance	-3767
stemp	-3768
attrib	-3769
unlink	-3770
Service	-3771
strncpy	-3772
DateTime	-3773
Reliance	-3774
"15");	-3775
▁"15");	-3776
Cred	-3777
▁helperBad	-3778
writeString	-3779
dBConnection	-3780
vP	-3781
Chars	-3782
ETIME	-3783
encoded	-3784
FILETIME	-3785
vParameter	-3786
▁charFirst	-3787
vParameterSpec	-3788
Sw	-3789
459_	-3790
Inco	-3791
Incomp	-3792
Switch	-3793
Cleanup	-3794
Assigning	-3795
Comparing	-3796
Incomplete	-3797
","	-3798
+",	-3799
setW	-3800
▁are	-3801
▁freopen	-3802
▁Readable	-3803
▁Writable	-3804
setReadable	-3805
setWritable	-3806
▁Executable	-3807
setExecutable	-3808
Catch	-3809
fault	-3810
▁would	-3811
Always	-3812
divide	-3813
▁2.0	-3814
00];	-3815
[200];	-3816
▁CryptEncrypt	-3817
)-	-3818
DC	-3819
bi	-3820
gr	-3821
si	-3822
2",	-3823
ART	-3824
ATI	-3825
NON	-3826
OLD	-3827
OPT	-3828
REG	-3829
VOL	-3830
Wel	-3831
▁4,	-3832
▁Wa	-3833
▁pi	-3834
▁si	-3835
)-1,	-3836
Sing	-3837
_42;	-3838
_61;	-3839
come	-3840
gram	-3841
ktop	-3842
▁REG	-3843
,100-	-3844
ARTUP	-3845
ATILE	-3846
ATION	-3847
hDesk	-3848
FINITE	-3849
INFORM	-3850
OPTION	-3851
REGSET	-3852
Single	-3853
▁Close	-3854
▁Files	-3855
▁hDesk	-3856
Example	-3857
GoodApp	-3858
Program	-3859
Welcome	-3860
hThread	-3861
realloc	-3862
▁status	-3863
VOLATILE	-3864
ktopName	-3865
removeme	-3866
▁Connect	-3867
▁PROCESS	-3868
▁STARTUP	-3869
▁WaitFor	-3870
▁indexOf	-3871
▁threadA	-3872
▁threadB	-3873
)(100-1),	-3874
gGoodLock	-3875
▁INFINITE	-3876
▁SHREGSET	-3877
▁fileName	-3878
▁wStation	-3879
▁attempted	-3880
INFORMATION	-3881
charPointer	-3882
hWinStation	-3883
▁successful	-3884
GetLastError	-3885
SingleObject	-3886
▁CreateMutex	-3887
▁STARTUPINFO	-3888
▁desktopName	-3889
▁hWinStation	-3890
slashInString	-3891
▁wStationName	-3892
▁slashInString	-3893
stdThreadCreate	-3894
Tran	-3895
exception	-3896
1);	-3897
▁length	-3898
▁6;	-3899
▁1:	-3900
▁create	-3901
helperGood	-3902
FIXED	-3903
SOURCE	-3904
▁Calendar	-3905
▁listen	-3906
▁method	-3907
▁decrypted	-3908
>"	-3909
Dir	-3910
▁ta	-3911
10\"	-3912
▁Sec	-3913
Block	-3914
bindex	-3915
▁"1234	-3916
▁alloc	-3917
=\"10\"	-3918
TempFile	-3919
byteArray	-3920
zeroOrOne	-3921
▁tabindex	-3922
▁SecretKey	-3923
▁allocated	-3924
▁temporary	-3925
generateKey	-3926
▁stringValue	-3927
createTempFile	-3928
UnsupportedOper	-3929
API	-3930
▁time	-3931
Modified	-3932
classTwo	-3933
Expre	-3934
▁USER	-3935
OfBytes	-3936
Expression	-3937
OfBytesRead	-3938
:"	-3939
Sum	-3940
()));	-3941
DIB	-3942
hdc	-3943
lon	-3944
putwc	-3945
ContextW	-3946
95	-3947
.123	-3948
9580	-3949
168	-3950
("19	-3951
168.	-3952
("192.	-3953
("192.168.	-3954
23	-3955
Ye	-3956
Year	-3957
_22;	-3958
gh	-3959
▁end	-3960
hostname	-3961
PF	-3962
LISTEN	-3963
EP	-3964
ha	-3965
ill	-3966
Creds	-3967
▁PUTS	-3968
690"))	-3969
calloc	-3970
▁REMOVE	-3971
▁RENAME	-3972
shedCreds	-3973
shedCredsAsBytes	-3974
():	-3975
▁fis	-3976
123456";	-3977
systemProperty	-3978
▁stringIntValue	-3979
sem	-3980
534_	-3981
535_	-3982
Shel	-3983
dere	-3984
Debug	-3985
Shell	-3986
based	-3987
deref	-3988
logic	-3989
icolon	-3990
semicolon	-3991
▁charBuffer	-3992
LP	-3993
HexW	-3994
(10);	-3995
HexChars	-3996
HexWChars	-3997
newDirectory	-3998
▁decodeHexChars	-3999
▁decodeHexWChars	-4000
ow	-4001
igh	-4002
396_	-4003
leep	-4004
▁cryptoKeyLen	-4005
).	-4006
▁SYSTEM	-4007
▁USERNAME	-4008
goodfilename	-4009
AAAAAAAAAAAAAAAA	-4010
01)	-4011
00001)	-4012
▁0.000001)	-4013
Thir	-4014
GoodSource	-4015
ange	-4016
ranted	-4017
"\\\\.\\	-4018
▁granted	-4019
HE	-4020
▁Re	-4021
BITMAP	-4022
rcClient	-4023
admin	-4024
▁decodedPayload	-4025
HKC	-4026
HKCU	-4027
PUTS	-4028
REMOVE	-4029
fputwc	-4030
fputws	-4031
SNPRINTF	-4032
putwchar	-4033
LockCreate	-4034
▁newPassword	-4035
Sub	-4036
entrant	-4037
contents	-4038
▁contents	-4039
▁old	-4040
modulo	-4041
goodInt	-4042
goodChar	-4043
goodShort	-4044
tmpData	-4045
On	-4046
FFFF	-4047
date	-4048
Third	-4049
tmpnam	-4050
tempnam	-4051
▁qwResult	-4052
ild	-4053
588_	-4054
Child	-4055
Attempt	-4056
▁executing	-4057
▁can	-4058
tol	-4059
▁SS	-4060
ombs	-4061
stombs	-4062
▁SSLSocket	-4063
Default	-4064
wputenv	-4065
▁(0	-4066
omput	-4067
omputer	-4068
setTime	-4069
encryptedLen	-4070
toBeEncrypted	-4071
LF	-4072
],	-4073
ok	-4074
rb	-4075
wM	-4076
BUF	-4077
DUP	-4078
LEX	-4079
Par	-4080
RLF	-4081
cmp	-4082
▁6,	-4083
▁HP	-4084
▁dw	-4085
)-1;	-4086
ADER	-4087
▁2),	-4088
▁den	-4089
▁see	-4090
Param	-4091
▁CRLF	-4092
▁atof	-4093
BUFFER	-4094
DUPLEX	-4095
HEADER	-4096
ToSelf	-4097
Transl	-4098
client	-4099
memcmp	-4100
stderr	-4101
▁UCHAR	-4102
GetHash	-4103
HASHVAL	-4104
▁denied	-4105
PASSWORD	-4106
calcHash	-4107
cryption	-4108
hashSize	-4109
badStruct	-4110
savedHash	-4111
Translated	-4112
vertToSelf	-4113
▁WSAStartup	-4114
▁decryption	-4115
CryptGetHash	-4116
▁currentTime	-4117
CreateProcessA	-4118
▁serviceClient	-4119
wcscpy	-4120
placement	-4121
UM	-4122
Exit	-4123
decodedPayload	-4124
ptr	-4125
ENCE	-4126
▁errno	-4127
ENTENCE	-4128
▁session	-4129
1.	-4130
bytes	-4131
▁calendar	-4132
5.	-4133
105.	-4134
23",	-4135
_67_	-4136
105.23",	-4137
-9	-4138
Ca	-4139
Ob	-4140
["	-4141
]*	-4142
zA	-4143
("/	-4144
("[	-4145
0-9	-4146
Obj	-4147
▁"]	-4148
("</	-4149
464_	-4150
Sent	-4151
inel	-4152
0-9]*	-4153
getEn	-4154
match	-4155
CIPHER	-4156
acters	-4157
▁/>");	-4158
▁Input	-4159
byteKey	-4160
matches	-4161
oryName	-4162
▁CIPHER	-4163
0-9]*"))	-4164
Addition	-4165
Sentinel	-4166
▁byteKey	-4167
▁"1234");	-4168
getEncoded	-4169
▁characters	-4170
▁writerPrint	-4171
▁directoryName	-4172
Sc	-4173
468_	-4174
Scal	-4175
Scaling	-4176
18	-4177
append	-4178
33	-4179
78	-4180
LD	-4181
6];	-4182
Dro	-4183
Lay	-4184
TOC	-4185
TOU	-4186
Une	-4187
ges	-4188
old	-4189
▁MD	-4190
▁mk	-4191
188_	-4192
194_	-4193
195_	-4194
273_	-4195
366_	-4196
367_	-4197
469_	-4198
475_	-4199
Sign	-4200
Unex	-4201
mine	-4202
pped	-4203
vant	-4204
▁OLD	-4205
Deter	-4206
[16];	-4207
abcde	-4208
licit	-4209
Extens	-4210
Layout	-4211
Within	-4212
Dropped	-4213
mkstemp	-4214
Relevant	-4215
Determine	-4216
Extension	-4217
Privileges	-4218
Unexpected	-4219
▁voidThird	-4220
Subtraction	-4221
badfilename	-4222
▁voidSecond	-4223
CreateDesktop	-4224
acceptService	-4225
ft	-4226
0\\	-4227
961	-4228
EMP	-4229
Max	-4230
cod	-4231
map	-4232
▁32	-4233
9644	-4234
ized	-4235
sion	-4236
▁-5;	-4237
▁TMP	-4238
DWORD	-4239
Encod	-4240
▁TEMP	-4241
9580\\	-4242
9640\\	-4243
▁TMPNAM	-4244
Encoding	-4245
▁TEMPNAM	-4246
Thro	-4247
Through	-4248
338_	-4249
526_	-4250
Same	-4251
Weak	-4252
Variables	-4253
ught	-4254
▁":"	-4255
getUser	-4256
▁DEFAULT	-4257
getUserName	-4258
getStringBuilder	-4259
stu	-4260
▁DO	-4261
135_	-4262
imax	-4263
opqr	-4264
qrtl	-4265
Change	-4266
intmax	-4267
▁sqrtl	-4268
imaxabs	-4269
opqrstu	-4270
▁DOMAIN	-4271
477_	-4272
ABCD	-4273
Obso	-4274
▁msg	-4275
1234!"	-4276
Finalize	-4277
Obsolete	-4278
bmScreen	-4279
Functions	-4280
▁msgBuffer	-4281
▁recBuffer	-4282
SENTENCE	-4283
▁structCharInt	-4284
[1]	-4285
▁an	-4286
Advapi	-4287
▁admin	-4288
176_	-4289
Unico	-4290
Unicode	-4291
Handling	-4292
:<	-4293
ew	-4294
-1)	-4295
586_	-4296
Happ	-4297
▁New	-4298
Happy	-4299
▁Year	-4300
▁100-1)	-4301
▁divide	-4302
Creation	-4303
Explicit	-4304
▁Session	-4305
removemegood	-4306
▁oldPassword	-4307
Host	-4308
calc	-4309
pture	-4310
HelperClass	-4311
Fixed	-4312
sssion	-4313
update	-4314
▁cipher	-4315
▁passwordCopy	-4316
writerBuffered	-4317
ializationVector	-4318
▁your	-4319
▁block	-4320
ng	-4321
135	-4322
▁prints	-4323
▁errorString	-4324
ail	-4325
(*((	-4326
stat	-4327
▁sig	-4328
return	-4329
ultiple	-4330
CipherText	-4331
▁threadOne	-4332
StringToEncrypt	-4333
▁stringToEncrypt	-4334
ssl	-4335
usr	-4336
Salt	-4337
salt	-4338
SSLSocket	-4339
▁threadTwo	-4340
encodedPayload	-4341
1,	-4342
315_	-4343
CompareFileTime	-4344
ted	-4345
+1];	-4346
▁run	-4347
Multiple	-4348
classOne	-4349
be	-4350
tmpl	-4351
block	-4352
tains	-4353
▁tmpl	-4354
▁contains	-4355
OK	-4356
lm	-4357
lx	-4358
+1)	-4359
+1,	-4360
vas	-4361
_68_	-4362
vasink	-4363
▁define	-4364
structCharInt	-4365
▁passwordArray	-4366
structSigAtomic	-4367
▁passwordHashMap	-4368
Off	-4369
recv	-4370
MemDC	-4371
▁here	-4372
0000);	-4373
mpScreen	-4374
recBuffer	-4375
db	-4376
Del	-4377
483_	-4378
imit	-4379
▁endl	-4380
Delimit	-4381
Delimitation	-4382
beg	-4383
sls	-4384
▁::	-4385
"));	-4386
iter	-4387
▁ssl	-4388
690".	-4389
begin	-4390
▁ssls	-4391
iterator	-4392
▁sslSocket	-4393
▁sslsSocket	-4394
▁GetLastError	-4395
tu	-4396
wh	-4397
▁R	-4398
upt	-4399
irtu	-4400
upted	-4401
while	-4402
Interr	-4403
irtual	-4404
▁Exception	-4405
Interrupted	-4406
):	-4407
dir	-4408
Seed	-4409
const	-4410
mkdir	-4411
Secure	-4412
Reentrant	-4413
InetSocket	-4414
"\	-4415
dot	-4416
Only	-4417
RYPTO	-4418
never	-4419
BadOnly	-4420
Virtual	-4421
▁CRYPTO	-4422
▁locked	-4423
VirtualLock	-4424
(128	-4425
LOCK	-4426
There	-4427
(100);	-4428
(128);	-4429
five	-4430
mail	-4431
▁(250	-4432
▁(256	-4433
)(250-	-4434
)(256-	-4435
▁(250-	-4436
▁(256-	-4437
getClass	-4438
bStatic	-4439
helperBad	-4440
current	-4441
passwordVector	-4442
00;	-4443
DAY	-4444
Dan	-4445
ERS	-4446
INE	-4447
LOC	-4448
Low	-4449
Opt	-4450
dwH	-4451
▁8)	-4452
Args	-4453
COND	-4454
HOUR	-4455
MACH	-4456
NGLO	-4457
pInt	-4458
▁(60	-4459
ADMIN	-4460
ITERS	-4461
LOCAL	-4462
dwLow	-4463
▁puts	-4464
Danger	-4465
MINUTE	-4466
NGLONG	-4467
SECOND	-4468
dwHigh	-4469
MACHINE	-4470
▁remove	-4471
▁rename	-4472
▁unlink	-4473
pIntArgs	-4474
Dangerous	-4475
LPFILETIME	-4476
dwLowDateTime	-4477
dwHighDateTime	-4478
3";	-4479
Byp	-4480
566_	-4481
Prim	-4482
oriz	-4483
Bypass	-4484
Primary	-4485
Authoriz	-4486
Authorization	-4487
67	-4488
ij	-4489
478_	-4490
481_	-4491
482_	-4492
484_	-4493
605_	-4494
615_	-4495
Bind	-4496
Omit	-4497
Port	-4498
Binds	-4499
Break	-4500
binary	-4501
Omitted	-4502
Operator	-4503
OA	-4504
tc	-4505
.0;	-4506
▁"7	-4507
▁>>	-4508
(0);	-4509
OAEP	-4510
SERV	-4511
▁5.0;	-4512
Unlock	-4513
strtol	-4514
wcstombs	-4515
charArray	-4516
▁FILETIME	-4517
reversedString	-4518
▁structSigAtomic	-4519
nable	-4520
getSession	-4521
ca	-4522
InetAddress	-4523
0,	-4524
vw	-4525
wD	-4526
xy	-4527
▁!	-4528
("0	-4529
1";	-4530
1[]	-4531
ACH	-4532
STA	-4533
ijk	-4534
lmn	-4535
xyz	-4536
▁cl	-4537
)-1]	-4538
/');	-4539
DESK	-4540
HARE	-4541
Noth	-4542
Send	-4543
ffff	-4544
wDay	-4545
▁*)"	-4546
▁99*	-4547
▁99;	-4548
▁DET	-4549
)-1);	-4550
ACHED	-4551
SHARE	-4552
debug	-4553
ghijk	-4554
itmap	-4555
vwxyz	-4556
▁5");	-4557
▁99);	-4558
▁HWIN	-4559
TimeTo	-4560
ToHash	-4561
etUser	-4562
intSum	-4563
▁HDESK	-4564
Nothing	-4565
toPrint	-4566
▁client	-4567
▁intTwo	-4568
(20000);	-4569
Creating	-4570
ghijklmn	-4571
▁HWINSTA	-4572
▁Station	-4573
▁realloc	-4574
▁station	-4575
▁toPrint	-4576
Substring	-4577
hdcWindow	-4578
▁DETACHED	-4579
▁creation	-4580
▁intSigned	-4581
opqrstuvwxyz	-4582
▁stringHello	-4583
Impersonation	-4584
▁CloseDesktop	-4585
▁CreateMutexA	-4586
▁CreateMutexW	-4587
▁RevertToSelf	-4588
▁STARTUPINFOA	-4589
▁STARTUPINFOW	-4590
▁SystemTimeTo	-4591
DesktopExample	-4592
StationExample	-4593
abcdefghijklmn	-4594
▁CreateDesktop	-4595
RegCreateKeyExA	-4596
RegCreateKeyExW	-4597
newgoodfilename	-4598
gStructSigAtomic	-4599
▁bytesTranslated	-4600
IL	-4601
OM	-4602
mote	-4603
0";	-4604
IDE	-4605
▁2:	-4606
rans	-4607
work	-4608
▁equ	-4609
trans	-4610
▁"0";	-4611
▁"1";	-4612
▁Http	-4613
network	-4614
.123.123	-4615
transfer	-4616
passwordPtr	-4617
▁HttpSession	-4618
▁passwordMap	-4619
▁passwordList	-4620
12,	-4621
337	-4622
cwe	-4623
▁(1	-4624
▁me	-4625
337);	-4626
_512,	-4627
Caught	-4628
remote	-4629
▁1337);	-4630
calendar	-4631
goodFile	-4632
valGoodSink	-4633
(42	-4634
24;	-4635
:</	-4636
Now	-4637
esn	-4638
ful	-4639
tex	-4640
▁as	-4641
'></	-4642
(2);	-4643
379_	-4644
pres	-4645
will	-4646
▁/><	-4647
▁Log	-4648
'>");	-4649
(42);	-4650
Login	-4651
doesn	-4652
ented	-4653
▁/></	-4654
395");	-4655
Secret	-4656
ialize	-4657
istand	-4658
▁1024;	-4659
▁equal	-4660
Illegal	-4661
getHost	-4662
getName	-4663
▁20000)	-4664
▁20000;	-4665
▁Logger	-4666
▁logger	-4667
▁repres	-4668
doesntex	-4669
sentence	-4670
▁Strings	-4671
▁command	-4672
▁opening	-4673
ClassRoot	-4674
neverwill	-4675
secureDir	-4676
▁sesssion	-4677
Successful	-4678
▁byteArray	-4679
▁zeroOrOne	-4680
bytesToRead	-4681
▁InetSocket	-4682
streamOutput	-4683
▁represented	-4684
SecretMessage	-4685
currentThread	-4686
▁StringBuffer	-4687
doesntexistand	-4688
getInetAddress	-4689
▁calendarCheck	-4690
IllegalArgument	-4691
▁IvParameterSpec	-4692
▁UnsupportedOper	-4693
▁ivParameterSpec	-4694
Sor	-4695
not	-4696
one	-4697
Sorry	-4698
▁cont	-4699
▁Please	-4700
nse	-4701
red	-4702
570_	-4703
571_	-4704
pired	-4705
▁lice	-4706
Reinit	-4707
Locking	-4708
▁100-1;	-4709
▁cannot	-4710
▁contact	-4711
▁expired	-4712
▁goodObj	-4713
▁license	-4714
▁support	-4715
▁myStruct	-4716
fileXXXXXX	-4717
Reinitialize	-4718
▁mo	-4719
stde	-4720
stdexcept	-4721
KerberosKey	-4722
linkedListNext	-4723
linkedListPrev	-4724
.7	-4725
147	-4726
483	-4727
643	-4728
300;	-4729
590_	-4730
▁1.7	-4731
Expir	-4732
▁2147	-4733
483643	-4734
Expiration	-4735
structType	-4736
▁2147483643	-4737
!"	-4738
mess	-4739
message	-4740
Is	-4741
My	-4742
▁*,	-4743
400_	-4744
Exha	-4745
IsMy	-4746
cated	-4747
reset	-4748
▁STAT	-4749
▁bOpt	-4750
▁salt	-4751
BadInt	-4752
Length	-4753
access	-4754
badInt	-4755
ustion	-4756
badChar	-4757
badLock	-4758
IsMySalt	-4759
UserInfo	-4760
badShort	-4761
▁ftAccess	-4762
▁ftCreate	-4763
Exhaustion	-4764
▁ftModified	-4765
ThisIsMySalt	-4766
quiredLength	-4767
catedUsername	-4768
BU	-4769
Na	-4770
ANT	-4771
BUG	-4772
LAT	-4773
NaN	-4774
ODO	-4775
aes	-4776
ENTR	-4777
HACK	-4778
TODO	-4779
coun	-4780
null	-4781
FIXME	-4782
LATER	-4783
sleep	-4784
ENTRANT	-4785
counter	-4786
mportant	-4787
BP	-4788
22_	-4789
(100-	-4790
strcpy	-4791
getStringBad	-4792
▁FD	-4793
gets	-4794
▁DEST	-4795
GoodInt	-4796
▁FDOPEN	-4797
iostream	-4798
ShortLine	-4799
▁printShortLine	-4800
30	-4801
dc	-4802
pb	-4803
Bmp	-4804
dic	-4805
ten	-4806
Writ	-4807
hDIB	-4808
▁hdc	-4809
BmpSize	-4810
Written	-4811
fHeader	-4812
pbitmap	-4813
hdcMemDC	-4814
hbmScreen	-4815
▁rcClient	-4816
BITMAPINFO	-4817
BytesWritten	-4818
IG	-4819
PC	-4820
255	-4821
DFL	-4822
▁ED	-4823
idth	-4824
sert	-4825
▁RPC	-4826
▁SIG	-4827
▁cin	-4828
Relea	-4829
▁EDOM	-4830
insert	-4831
▁intSum	-4832
Acquiring	-4833
Releasing	-4834
intSecond	-4835
▁hostInfo	-4836
Destroying	-4837
▁charArraySource	-4838
BC	-4839
CBC	-4840
▁999	-4841
▁Number	-4842
NUM	-4843
ces	-4844
32_3	-4845
screen	-4846
▁8	-4847
▁un	-4848
mage	-4849
▁fwrite	-4850
▁intBad	-4851
▁intGood	-4852
▁libraryName	-4853
bot	-4854
▁on	-4855
832_	-4856
intBuffer	-4857
▁intBuffer	-4858
▁en	-4859
sslSocket	-4860
3]	-4861
[4	-4862
[3]	-4863
Fail	-4864
SetC	-4865
[4];	-4866
NameA	-4867
tting	-4868
Failure	-4869
▁modulo	-4870
▁setting	-4871
▁computer	-4872
SetComputer	-4873
charArraySink	-4874
SetComputerNameA	-4875
62	-4876
dotdot	-4877
charBuffer	-4878
LEEP	-4879
▁SLEEP	-4880
ulation	-4881
ref	-4882
▁*(	-4883
667_	-4884
▁Random	-4885
dif	-4886
dify	-4887
Super	-4888
){	-4889
5,	-4890
DN	-4891
HO	-4892
|_	-4893
Alg	-4894
DNS	-4895
pla	-4896
rpc	-4897
ups	-4898
..."	-4899
196_	-4900
222_	-4901
223_	-4902
242_	-4903
247_	-4904
479_	-4905
480_	-4906
587_	-4907
620_	-4908
685_	-4909
688_	-4910
780_	-4911
785_	-4912
HOST	-4913
Look	-4914
That	-4915
▁(!*	-4916
▁Run	-4917
00000	-4918
Algor	-4919
Decis	-4920
Inher	-4921
Manip	-4922
Sized	-4923
Sleep	-4924
Unver	-4925
acces	-4926
byref	-4927
clear	-4928
ently	-4929
freed	-4930
▁Sink	-4931
modify	-4932
▁ADMIN	-4933
▁WRITE	-4934
Lookups	-4935
aString	-4936
created	-4937
▁malloc	-4938
▁mktemp	-4939
Decision	-4940
Omission	-4941
accessed	-4942
charData	-4943
modified	-4944
▁aString	-4945
▁gBadInt	-4946
▁mkstemp	-4947
Algorithm	-4948
Arguments	-4949
doubleNaN	-4950
important	-4951
plaintext	-4952
▁Runnable	-4953
▁charData	-4954
Assignment	-4955
Inherently	-4956
StructLong	-4957
Unverified	-4958
"0123456789	-4959
removemebad	-4960
▁myUserInfo	-4961
Manipulation	-4962
▁"0123456789	-4963
▁staticString	-4964
newbadfilename	-4965
oldbadfilename	-4966
requiredLength	-4967
▁acceptService	-4968
oldgoodfilename	-4969
WIDE	-4970
▁32)	-4971
9644\\	-4972
9644");	-4973
AbstractTestCase	-4974
fn	-4975
yn	-4976
!",	-4977
ssue	-4978
chron	-4979
ynchron	-4980
fnXXXXXX	-4981
ynchronized	-4982
2);	-4983
OUN	-4984
OUNT	-4985
STAT	-4986
▁NUM	-4987
▁TIME	-4988
▁COUNT	-4989
mperson	-4990
longNumber	-4991
mpersonate	-4992
38	-4993
65	-4994
Bit	-4995
Per	-4996
Wnd	-4997
209_	-4998
382_	-4999
MAIL	-5000
Null	-5001
ight	-5002
Trace	-5003
▁oper	-5004
Height	-5005
hostby	-5006
▁hostent	-5007
SecretKey	-5008
FILEHEADER	-5009
StackTrace	-5010
▁bmfHeader	-5011
▁bmpScreen	-5012
▁dwBmpSize	-5013
▁gethostby	-5014
NullPointer	-5015
DataInputStream	-5016
printStackTrace	-5017
BITMAPINFOHEADER	-5018
uff	-5019
setInt	-5020
capture	-5021
hh	-5022
"\"	-5023
).\	-5024
fis	-5025
5000	-5026
▁"\"	-5027
▁FLT	-5028
sport	-5029
mkdirs	-5030
setMax	-5031
5000));	-5032
▁goodInt	-5033
▁goodChar	-5034
▁goodLock	-5035
▁goodShort	-5036
intGoodSink	-5037
etUserChange	-5038
▁intGoodSink	-5039
▁valGoodSink	-5040
▁sentenceAsBytes	-5041
Id	-5042
Image	-5043
goodXXXXXX	-5044
AW	-5045
ag	-5046
aw	-5047
pr	-5048
wn	-5049
(("	-5050
(32	-5051
12_	-5052
AWT	-5053
BER	-5054
You	-5055
_63	-5056
_64	-5057
_65	-5058
awt	-5059
ies	-5060
))->	-5061
Mess	-5062
etim	-5063
libs	-5064
prng	-5065
▁app	-5066
ached	-5067
aging	-5068
ories	-5069
▁been	-5070
▁down	-5071
▁only	-5072
▁prng	-5073
▁shut	-5074
(32));	-5075
NUMBER	-5076
etimes	-5077
ometimes	-5078
▁reached	-5079
▁tempInt	-5080
Messaging	-5081
nextDouble	-5082
▁operation	-5083
generateSeed	-5084
▁application	-5085
▁directories	-5086
▁unsupported	-5087
fx	-5088
vo	-5089
rel	-5090
ices	-5091
quir	-5092
▁+"\	-5093
▁nfx	-5094
▁uid	-5095
▁invo	-5096
▁Squir	-5097
▁intRand	-5098
▁Squirrel	-5099
▁invoices	-5100
▁requested	-5101
reinterpret	-5102
▁NumberFormat	-5103
byteCipherText	-5104
▁byteCipherText	-5105
00);	-5106
pclose	-5107
▁popen	-5108
▁pclose	-5109
SSLSocketFactory	-5110
▁badVaSinkG	-5111
▁passwordGood	-5112
▁Bad	-5113
intRand	-5114
672_	-5115
Base	-5116
rcmp	-5117
strcmp	-5118
Hardcoded	-5119
ol	-5120
50-	-5121
Dead	-5122
_51_	-5123
_52_	-5124
_53_	-5125
_54_	-5126
_63_	-5127
_64_	-5128
_65_	-5129
_66_	-5130
olat	-5131
getDe	-5132
▁250-	-5133
▁256-	-5134
▁volat	-5135
▁volatile	-5136
▁0\	-5137
▁init	-5138
getDefault	-5139
3,	-5140
xf	-5141
64)	-5142
ULO	-5143
UNC	-5144
Val	-5145
▁-=	-5146
▁NI	-5147
ATED	-5148
usri	-5149
▁(((	-5150
▁(24	-5151
▁128	-5152
▁Set	-5153
1003_	-5154
135_4	-5155
putws	-5156
xFFFF	-5157
▁(128	-5158
▁(512	-5159
▁32);	-5160
▁stat	-5161
▁trun	-5162
00000)	-5163
64)100	-5164
UNCATED	-5165
badFile	-5166
▁tmpnam	-5167
▁bOptLen	-5168
▁tempnam	-5169
ULONGLONG	-5170
xFFFFFFFF	-5171
▁gGoodInt	-5172
▁hostname	-5173
valBadSink	-5174
▁ULONGLONG	-5175
GetFileTime	-5176
voidPointer	-5177
64)10000000)	-5178
▁SetFileTime	-5179
▁unionStructLong	-5180
()))	-5181
▁random	-5182
)&	-5183
blem	-5184
▁Reentrant	-5185
twointsStruct	-5186
▁ReentrantLock	-5187
9,	-5188
GP	-5189
\'	-5190
bf	-5191
ek	-5192
ev	-5193
wH	-5194
(2*	-5195
12;	-5196
40;	-5197
Got	-5198
[5]	-5199
fff	-5200
▁5,	-5201
▁7,	-5202
▁8,	-5203
▁9,	-5204
▁ID	-5205
▁St	-5206
▁al	-5207
▁wc	-5208
▁|=	-5209
".",	-5210
+(2*	-5211
10";	-5212
1020	-5213
DESe	-5214
OfWe	-5215
SIGN	-5216
TIME	-5217
aken	-5218
endA	-5219
evil	-5220
hWnd	-5221
illi	-5222
onth	-5223
wMin	-5224
▁(*(	-5225
▁12;	-5226
▁5))	-5227
▁NET	-5228
▁dwS	-5229
▁tri	-5230
'/');	-5231
(".",	-5232
3040;	-5233
LPSTR	-5234
Width	-5235
conds	-5236
getId	-5237
ouldn	-5238
wHour	-5239
wYear	-5240
xffff	-5241
▁GetC	-5242
▁NERR	-5243
▁flow	-5244
("0");	-5245
("1");	-5246
("2");	-5247
DESede	-5248
OfWeek	-5249
SERVER	-5250
STATUS	-5251
dicate	-5252
illise	-5253
pleDes	-5254
status	-5255
substr	-5256
wMonth	-5257
▁"10";	-5258
▁'/');	-5259
▁2008;	-5260
▁World	-5261
▁alter	-5262
▁fgets	-5263
▁taken	-5264
AppendA	-5265
AsUserA	-5266
AsUserW	-5267
fffffff	-5268
shouldn	-5269
valueOf	-5270
wMinute	-5271
wSecond	-5272
▁BITMAP	-5273
▁Global	-5274
▁Status	-5275
▁badObj	-5276
▁select	-5277
▁strtol	-5278
bmHeight	-5279
izeofDIB	-5280
lpbitmap	-5281
wMillise	-5282
▁control	-5283
10203040;	-5284
Attempted	-5285
FloatLine	-5286
REENTRANT	-5287
WriteFile	-5288
bmpScreen	-5289
intSigned	-5290
▁indicate	-5291
▁wcstombs	-5292
DirectoryA	-5293
SystemTime	-5294
wDayOfWeek	-5295
xfffffffff	-5296
▁Condition	-5297
▁desCipher	-5298
▁hbmScreen	-5299
▁hdcWindow	-5300
▁intSecond	-5301
▁tripleDes	-5302
PathAppendA	-5303
astModified	-5304
▁GetCurrent	-5305
▁SYSTEMTIME	-5306
AAAAAAAAAAAA	-5307
Impersonated	-5308
RevertToSelf	-5309
▁dwSizeofDIB	-5310
RegCreateKeyA	-5311
RegCreateKeyW	-5312
RegOpenKeyExA	-5313
RegOpenKeyExW	-5314
getStringGood	-5315
wMilliseconds	-5316
▁selectResult	-5317
CreateProcessW	-5318
WindowStationA	-5319
WindowStationW	-5320
dwBytesWritten	-5321
▁GetSystemTime	-5322
▁gethostbyaddr	-5323
SHRegOpenUSKeyA	-5324
SHRegOpenUSKeyW	-5325
bytesTranslated	-5326
stringSubstring	-5327
▁CreateDesktopA	-5328
▁CreateDesktopW	-5329
▁printFloatLine	-5330
BITMAPFILEHEADER	-5331
ConnectNamedPipe	-5332
FileOutputStream	-5333
GetTempFileNameA	-5334
GetTempFileNameW	-5335
serviceClientLen	-5336
▁stringSubstring	-5337
▁tripleDesCipher	-5338
07	-5339
df	-5340
ome	-5341
▁ch	-5342
(202	-5343
asdf	-5344
anged	-5345
email	-5346
▁some	-5347
(2020,	-5348
▁changed	-5349
Transport	-5350
123.123.123	-5351
passwordArray	-5352
123.123.123.123	-5353
1:	-5354
2:	-5355
An	-5356
cc	-5357
|1	-5358
-07	-5359
-13	-5360
-50	-5361
395	-5362
41:	-5363
<><	-5364
='8	-5365
Age	-5366
EST	-5367
KCS	-5368
_1/	-5369
_2/	-5370
_3/	-5371
cid	-5372
say	-5373
▁In	-5374
("20	-5375
:41:	-5376
=\"/	-5377
PKCS	-5378
Padd	-5379
_1\\	-5380
_2\\	-5381
_3\\	-5382
ater	-5383
▁"</	-5384
▁dif	-5385
▁gre	-5386
▁how	-5387
▁occ	-5388
-50):	-5389
00");	-5390
10-07	-5391
<><()	-5392
ental	-5393
login	-5394
ssues	-5395
urred	-5396
▁Main	-5397
▁line	-5398
▁same	-5399
▁send	-5400
▁text	-5401
▁than	-5402
395"))	-5403
FINEST	-5404
Logger	-5405
OnExit	-5406
Submit	-5407
_3/");	-5408
cipher	-5409
enting	-5410
ferent	-5411
▁incid	-5412
▁still	-5413
▁valid	-5414
='8'></	-5415
Convert	-5416
Padding	-5417
_3\\");	-5418
▁10:41:	-5419
▁Double	-5420
▁issues	-5421
10-07-13	-5422
isSecure	-5423
sayHello	-5424
▁"1234",	-5425
▁greater	-5426
▁problem	-5427
▁sending	-5428
(15000));	-5429
getLogger	-5430
intRandom	-5431
setMaxAge	-5432
▁occurred	-5433
dbpassword	-5434
dbusername	-5435
preventing	-5436
▁different	-5437
▁intRandom	-5438
calendarNow	-5439
getHostName	-5440
helperClass	-5441
parseDouble	-5442
stringValue	-5443
▁incidental	-5444
("2010-07-13	-5445
deleteOnExit	-5446
isSuccessful	-5447
▁10:41:00");	-5448
▁calendarNow	-5449
▁helperClass	-5450
calendarCheck	-5451
directoryName	-5452
messageDigest	-5453
▁isSuccessful	-5454
getHostAddress	-5455
stringIntValue	-5456
helperClassRoot	-5457
sentenceAsBytes	-5458
▁systemProperty	-5459
▁IllegalArgument	-5460
▁helperClassRoot	-5461
Ne	-5462
cip	-5463
397_	-5464
obot	-5465
▁300	-5466
Inter	-5467
Throw	-5468
Capture	-5469
cipient	-5470
Internet	-5471
internet	-5472
Throwable	-5473
▁streamInput	-5474
InternetAddress	-5475
imp	-5476
_01.	-5477
ough	-5478
(200);	-5479
Destin	-5480
▁enough	-5481
Destination	-5482
▁conversion	-5483
requiredSize	-5484
countRef	-5485
▁countRef	-5486
833_	-5487
with	-5488
Deadlock	-5489
cted	-5490
tected	-5491
9580");	-5492
▁IOException	-5493
ReentrantLock	-5494
1_0	-5495
Mode	-5496
atoi	-5497
▁BadClass	-5498
fin	-5499
ite	-5500
ctor	-5501
join	-5502
▁});	-5503
(100,	-5504
32_01_	-5505
32_02_	-5506
32_03_	-5507
32_04_	-5508
32_05_	-5509
32_06_	-5510
32_07_	-5511
32_08_	-5512
32_09_	-5513
32_10_	-5514
32_11_	-5515
32_12_	-5516
32_13_	-5517
32_14_	-5518
32_15_	-5519
32_16_	-5520
32_17_	-5521
32_18_	-5522
vector	-5523
▁dataMap	-5524
▁dataList	-5525
DriverManager	-5526
REENTRANTLOCK	-5527
▁range	-5528
createSocket	-5529
2)	-5530
NI	-5531
bo	-5532
throw	-5533
dotdotdot	-5534
▁REENTRANT	-5535
▁synchronized	-5536
final	-5537
▁write	-5538
badXXXXXX	-5539
CR	-5540
HK	-5541
LM	-5542
rt	-5543
xe	-5544
-5;	-5545
2[]	-5546
4")	-5547
Bin	-5548
Pot	-5549
dce	-5550
xfb	-5551
▁15	-5552
▁fd	-5553
+1);	-5554
-1];	-5555
676_	-5556
835_	-5557
BASE	-5558
CRET	-5559
Four	-5560
HKLM	-5561
aryA	-5562
trun	-5563
Infin	-5564
ToBin	-5565
catch	-5566
rpcrt	-5567
▁serv	-5568
Fourth	-5569
atomic	-5570
caught	-5571
rpcdce	-5572
signal	-5573
▁fread	-5574
MAXHOST	-5575
MAXSERV	-5576
Potenti	-5577
SetInfo	-5578
charPtr	-5579
getsock	-5580
wmktemp	-5581
wremove	-5582
wrename	-5583
▁ACCESS	-5584
▁SECRET	-5585
▁badInt	-5586
▁fdopen	-5587
HOSTNAME	-5588
Infinite	-5589
TestPipe	-5590
ftAccess	-5591
ftCreate	-5592
▁1000000	-5593
▁bOptVal	-5594
▁badChar	-5595
▁badLock	-5596
TRUNCATED	-5597
ToBinaryA	-5598
shortData	-5599
▁badShort	-5600
▁servInfo	-5601
ftModified	-5602
intBadSink	-5603
▁gGoodLock	-5604
▁shortData	-5605
CryptString	-5606
Potentially	-5607
getsockname	-5608
▁intBadSink	-5609
▁valBadSink	-5610
▁Impersonate	-5611
etUserSetInfo	-5612
▁intBadNumber	-5613
acceptServiceLen	-5614
▁staticStringBad	-5615
#/	-5616
Fs	-5617
GU	-5618
Yy	-5619
#/>	-5620
.".	-5621
asn	-5622
gle	-5623
goo	-5624
FsYy	-5625
leGU	-5626
▁"23	-5627
▁1));	-5628
▁date	-5629
30.123	-5630
google	-5631
unlock	-5632
▁encodedPayload	-5633
("192.168.30.123	-5634
GB	-5635
GD	-5636
ms	-5637
!".	-5638
2";	-5639
5),	-5640
536	-5641
Clr	-5642
Mas	-5643
RGB	-5644
Unp	-5645
[65	-5646
dig	-5647
els	-5648
ght	-5649
son	-5650
▁De	-5651
)(65	-5652
329_	-5653
336_	-5654
378_	-5655
395_	-5656
523_	-5657
533_	-5658
539_	-5659
549_	-5660
572_	-5661
584_	-5662
597_	-5663
598_	-5664
613_	-5665
614_	-5666
698_	-5667
759_	-5668
760_	-5669
Mask	-5670
PerM	-5671
Pers	-5672
Simp	-5673
bott	-5674
conf	-5675
left	-5676
▁HDC	-5677
▁HGD	-5678
535),	-5679
536];	-5680
BitCo	-5681
Perms	-5682
Unpro	-5683
Using	-5684
acter	-5685
biClr	-5686
digit	-5687
right	-5688
uffic	-5689
▁0,0,	-5690
▁MAIL	-5691
▁hDIB	-5692
Compat	-5693
Predic	-5694
Server	-5695
Simple	-5696
Unsalt	-5697
arison	-5698
biSize	-5699
bottom	-5700
charAt	-5701
hostIP	-5702
istent	-5703
ixDate	-5704
Finally	-5705
Masking	-5706
biBitCo	-5707
bmWidth	-5708
elsPerM	-5709
▁Delete	-5710
Insuffic	-5711
Unsalted	-5712
[65536];	-5713
)(65535),	-5714
DataInput	-5715
bmiHeader	-5716
getSimple	-5717
▁hdcMemDC	-5718
▁lpbitmap	-5719
Comparison	-5720
Compatible	-5721
Persistent	-5722
biBitCount	-5723
▁throwable	-5724
Predictable	-5725
PrintWriter	-5726
Unprotected	-5727
elsPerMeter	-5728
insecureDir	-5729
Insufficient	-5730
lastModified	-5731
getSimpleName	-5732
▁DeleteObject	-5733
▁payloadLength	-5734
▁dwBytesWritten	-5735
123.123.123.123"	-5736
▁DataInputStream	-5737
▁streamDataInput	-5738
0)	-5739
GE	-5740
Gen	-5741
SEQ	-5742
Shh	-5743
▁ER	-5744
+2);	-5745
ANGE	-5746
Mill	-5747
Rect	-5748
Shhh	-5749
this	-5750
▁EIL	-5751
))));	-5752
Range	-5753
width	-5754
▁LONG	-5755
▁spec	-5756
Failed	-5757
Millis	-5758
sender	-5759
▁stuff	-5760
▁EILSEQ	-5761
▁ERANGE	-5762
CryptGen	-5763
gGoodInt	-5764
▁invalid	-5765
charStack	-5766
▁charStack	-5767
▁specified	-5768
intUnsigned	-5769
▁impersonate	-5770
NetUserChange	-5771
CryptGenRandom	-5772
▁NetUserChange	-5773
Bo	-5774
Dr	-5775
dy	-5776
jp	-5777
(")	-5778
2))	-5779
617	-5780
jpg	-5781
▁ro	-5782
▁up	-5783
(256	-5784
383_	-5785
5001	-5786
Body	-5787
[]);	-5788
tine	-5789
▁url	-5790
617".	-5791
Drink	-5792
angle	-5793
force	-5794
https	-5795
image	-5796
▁".\\	-5797
▁"2";	-5798
▁(");	-5799
▁Oval	-5800
▁cast	-5801
(256);	-5802
getCre	-5803
▁15001	-5804
▁30000	-5805
▁Robot	-5806
▁clean	-5807
▁robot	-5808
<><()",	-5809
Threads	-5810
VoidPtr	-5811
invalid	-5812
▁screen	-5813
Negative	-5814
getBlock	-5815
myStruct	-5816
sesssion	-5817
▁Invalid	-5818
▁enforce	-5819
▁timeout	-5820
Recipient	-5821
Sometimes	-5822
ationTime	-5823
blockSize	-5824
nextBytes	-5825
setSecure	-5826
sometimes	-5827
▁15001));	-5828
▁Ovaltine	-5829
▁absolute	-5830
▁cleaning	-5831
DateFormat	-5832
getMessage	-5833
imeMessage	-5834
invalidate	-5835
▁blockSize	-5836
▁exceptAWT	-5837
errorString	-5838
getAbsolute	-5839
structFirst	-5840
▁stringGood	-5841
AWTException	-5842
getBlockSize	-5843
synchronized	-5844
▁Interrupted	-5845
▁enforcement	-5846
BufferedImage	-5847
▁Invalidating	-5848
▁exceptAddress	-5849
getAbsolutePath	-5850
getCreationTime	-5851
AddressException	-5852
▁InternetAddress	-5853
▁exceptMessaging	-5854
wpopen	-5855
wsystem	-5856
oss	-5857
ibly	-5858
▁20)	-5859
stdio	-5860
▁poss	-5861
BVaSinkG	-5862
GVaSinkB	-5863
▁possibly	-5864
▁passwordBad	-5865
▁passwordGoodB	-5866
▁passwordGoodG	-5867
passwordHashMap	-5868
[2];	-5869
▁WIDE	-5870
Bow	-5871
getc	-5872
▁map	-5873
(1000);	-5874
▁vector	-5875
charArraySource	-5876
method	-5877
▁badClassObject	-5878
1)	-5879
135_45_	-5880
methods	-5881
finalize	-5882
shortBuffer	-5883
▁shortBuffer	-5884
level	-5885
stringGood	-5886
▁HelperClass	-5887
1_1	-5888
32_45_	-5889
intGood	-5890
609_	-5891
Checked	-5892
Issue	-5893
ClassIssue	-5894
dd	-5895
cur	-5896
dup	-5897
intBad	-5898
helperBow	-5899
passwordMap	-5900
passwordRef	-5901
cryptoKeyPtr	-5902
passwordList	-5903
▁passwordRef	-5904
▁passwordVoidPtr	-5905
2,	-5906
26	-5907
▁(...)	-5908
)1	-5909
+2	-5910
8,	-5911
91	-5912
oa	-5913
xc	-5914
*)0	-5915
26,	-5916
42;	-5917
49,	-5918
50,	-5919
5};	-5920
620	-5921
6};	-5922
73,	-5923
80;	-5924
98,	-5925
AAA	-5926
non	-5927
opt	-5928
xdd	-5929
▁02	-5930
▁SO	-5931
▁Sm	-5932
)119	-5933
1003	-5934
600)	-5935
9163	-5936
BOOL	-5937
[20]	-5938
agma	-5939
antt	-5940
bOpt	-5941
fabs	-5942
info	-5943
ntoa	-5944
sets	-5945
▁SOL	-5946
+2));	-5947
REUSE	-5948
SizeT	-5949
_1003	-5950
getws	-5951
netdb	-5952
tcpip	-5953
zFile	-5954
▁gets	-5955
▁putc	-5956
00000;	-5957
LPBYTE	-5958
anttld	-5959
netapi	-5960
object	-5961
ockopt	-5962
▁1003,	-5963
▁Smith	-5964
▁fputc	-5965
▁fputs	-5966
▁putwc	-5967
▁scanf	-5968
400000;	-5969
NUMERIC	-5970
bOptVal	-5971
gBadInt	-5972
getname	-5973
wtmpnam	-5974
wunlink	-5975
▁fgetws	-5976
▁fputwc	-5977
▁fputws	-5978
▁pragma	-5979
▁sscanf	-5980
▁wscanf	-5981
)1199163	-5982
Calendar	-5983
nonexist	-5984
testuser	-5985
wtempnam	-5986
▁charPtr	-5987
▁fwscanf	-5988
▁putchar	-5989
▁swscanf	-5990
REUSEADDR	-5991
SizeTLine	-5992
▁putwchar	-5993
charFourth	-5994
myUserInfo	-5995
setsockopt	-5996
statBuffer	-5997
▁TRUNCATED	-5998
▁charThird	-5999
NUMERICSERV	-6000
getnameinfo	-6001
loadLibrary	-6002
structChars	-6003
▁charFourth	-6004
▁charSecond	-6005
▁objectGood	-6006
▁statBuffer	-6007
)1199163600)	-6008
▁structChars	-6009
NetUserSetInfo	-6010
badClassObject	-6011
nonexistanttld	-6012
unionStructLong	-6013
▁NetUserSetInfo	-6014
▁RpcImpersonate	-6015
▁printSizeTLine	-6016
▁requiredLength	-6017
▁ImpersonateSelf	-6018
*5	-6019
+=	-6020
-2	-6021
4*	-6022
43	-6023
5]	-6024
6]	-6025
97	-6026
Bl	-6027
CT	-6028
DB	-6029
GH	-6030
Gd	-6031
QU	-6032
XP	-6033
eb	-6034
mt	-6035
!--	-6036
(25	-6037
(56	-6038
(60	-6039
(80	-6040
),&	-6041
*)*	-6042
*60	-6043
-->	-6044
/2]	-6045
01,	-6046
02,	-6047
03,	-6048
04,	-6049
353	-6050
365	-6051
409	-6052
64(	-6053
64.	-6054
64;	-6055
737	-6056
Blt	-6057
COL	-6058
CPT	-6059
Gdi	-6060
IOB	-6061
ORS	-6062
ROM	-6063
WND	-6064
__3	-6065
ade	-6066
bmp	-6067
cei	-6068
har	-6069
its	-6070
mtp	-6071
nes	-6072
▁"\	-6073
▁16	-6074
▁4)	-6075
▁BI	-6076
▁DB	-6077
▁TO	-6078
()];	-6079
(112	-6080
*24*	-6081
*5);	-6082
+1),	-6083
+=2)	-6084
-->"	-6085
-2.0	-6086
/2];	-6087
0297	-6088
05};	-6089
45";	-6090
Bits	-6091
COPY	-6092
DATA	-6093
GHND	-6094
HELO	-6095
QUIT	-6096
RCPT	-6097
SEED	-6098
Used	-6099
[409	-6100
biXP	-6101
biYP	-6102
ings	-6103
ived	-6104
smtp	-6105
▁"".	-6106
▁*((	-6107
▁123	-6108
▁16)	-6109
▁31)	-6110
▁32;	-6111
▁DIB	-6112
▁joe	-6113
())).	-6114
(25);	-6115
(56);	-6116
(80);	-6117
Alloc	-6118
Inact	-6119
[255]	-6120
bfOff	-6121
biPla	-6122
codec	-6123
doing	-6124
erval	-6125
gmail	-6126
recei	-6127
▁Char	-6128
▁FROM	-6129
▁HGDI	-6130
▁HWND	-6131
▁Math	-6132
▁RECT	-6133
▁SEED	-6134
▁hWnd	-6135
▁more	-6136
("<!--	-6137
(112);	-6138
(60*60	-6139
-2.0):	-6140
BitBlt	-6141
Bitmap	-6142
COLORS	-6143
DIBits	-6144
[4096]	-6145
bfSize	-6146
bfType	-6147
biClrI	-6148
biComp	-6149
decode	-6150
iveInt	-6151
▁"0297	-6152
▁16));	-6153
▁GetDC	-6154
▁after	-6155
*24*365	-6156
biWidth	-6157
library	-6158
ression	-6159
setLast	-6160
setSeed	-6161
▁HGDIOB	-6162
▁Select	-6163
▁hostIP	-6164
▁things	-6165
(30000);	-6166
biHeight	-6167
biPlanes	-6168
floatNaN	-6169
receiver	-6170
response	-6171
unixDate	-6172
▁(-2.0):	-6173
▁123-->"	-6174
▁HBITMAP	-6175
▁Release	-6176
▁SRCCOPY	-6177
<><()"));	-6178
Character	-6179
GetClient	-6180
GetDIBits	-6181
GetObject	-6182
bfOffBits	-6183
biClrUsed	-6184
bmfHeader	-6185
decrypted	-6186
dwBmpSize	-6187
▁15000));	-6188
▁unixDate	-6189
GlobalLock	-6190
INFOHEADER	-6191
decodeBase	-6192
▁Character	-6193
▁ReleaseDC	-6194
*24*365*5);	-6195
InactiveInt	-6196
biSizeImage	-6197
libraryName	-6198
▁GetDesktop	-6199
▁GlobalFree	-6200
CompatibleDC	-6201
selectResult	-6202
▁GlobalAlloc	-6203
GetClientRect	-6204
biCompression	-6205
payloadLength	-6206
▁GlobalUnlock	-6207
▁SelectObject	-6208
▁lastModified	-6209
ClassIssueGood	-6210
biClrImportant	-6211
▁gethostbyname	-6212
IvParameterSpec	-6213
biXPelsPerMeter	-6214
biYPelsPerMeter	-6215
setLastModified	-6216
CompatibleBitmap	-6217
InactiveInterval	-6218
decryptedPayload	-6219
21_	-6220
61_	-6221
:80	-6222
▁ca	-6223
isAl	-6224
...";	-6225
Never	-6226
Robot	-6227
▁Rect	-6228
▁Tran	-6229
▁done	-6230
100));	-6231
32_22_	-6232
:80");	-6233
always	-6234
mageIO	-6235
setSub	-6236
135_34_	-6237
ImageIO	-6238
imageio	-6239
isAlive	-6240
session	-6241
setFrom	-6242
setText	-6243
tempInt	-6244
▁"...";	-6245
▁30000;	-6246
(10000);	-6247
Multiply	-6248
runnable	-6249
▁ImageIO	-6250
▁Message	-6251
▁capture	-6252
Rectangle	-6253
correctly	-6254
recipient	-6255
threadOne	-6256
▁runnable	-6257
openStream	-6258
setSubject	-6259
▁Rectangle	-6260
▁Transport	-6261
▁formatted	-6262
(100,100));	-6263
MimeMessage	-6264
messageBody	-6265
streamInput	-6266
addRecipient	-6267
createScreen	-6268
▁MimeMessage	-6269
▁incorrectly	-6270
▁messageBody	-6271
RecipientType	-6272
screenCapture	-6273
ServletBadOnly	-6274
▁BufferedImage	-6275
▁screenCapture	-6276
▁OK	-6277
▁we	-6278
32_34_	-6279
ipFile	-6280
▁2000)	-6281
▁Sleep	-6282
▁zFile	-6283
▁usleep	-6284
▁SENTENCE	-6285
▁printing	-6286
member	-6287
▁structFirst	-6288
▁Good	-6289
TH	-6290
nc	-6291
▁3;	-6292
▁bo	-6293
561_	-6294
585_	-6295
674_	-6296
Back	-6297
Sync	-6298
_72;	-6299
_73;	-6300
_74;	-6301
atof	-6302
Empty	-6303
Recur	-6304
locks	-6305
135_61	-6306
32_41_	-6307
THREAD	-6308
strdup	-6309
▁bower	-6310
BadClass	-6311
implicit	-6312
Recursion	-6313
concurrent	-6314
▁helperAdd	-6315
▁dataVoidPtr	-6316
▁helperMultiply	-6317
▁intSecureRandom	-6318
UID	-6319
eld	-6320
zip	-6321
Vers	-6322
ield	-6323
▁1];	-6324
▁ser	-6325
ionUID	-6326
ialVers	-6327
function	-6328
▁FileReader	-6329
▁readerFile	-6330
▁serialVers	-6331
bra	-6332
▁su	-6333
562_	-6334
less	-6335
135_3	-6336
32_61	-6337
clone	-6338
minus	-6339
▁Date	-6340
Thirty	-6341
braces	-6342
▁super	-6343
Derived	-6344
without	-6345
parameter	-6346
▁GoodClass	-6347
DerivedClass	-6348
▁FileNotFound	-6349
line	-6350
lone	-6351
▁[]>	-6352
▁level	-6353
▁protected	-6354
Serializable	-6355
ONE	-6356
buf	-6357
581_	-6358
764_	-6359
765_	-6360
bare	-6361
call	-6362
curs	-6363
5_01_	-6364
5_02_	-6365
5_03_	-6366
5_04_	-6367
5_05_	-6368
5_06_	-6369
5_07_	-6370
5_08_	-6371
5_09_	-6372
5_10_	-6373
5_11_	-6374
5_12_	-6375
5_13_	-6376
5_14_	-6377
5_15_	-6378
5_16_	-6379
5_17_	-6380
5_18_	-6381
Clone	-6382
Locks	-6383
Model	-6384
equal	-6385
▁256;	-6386
32_21_	-6387
32_31_	-6388
32_32_	-6389
32_42_	-6390
32_44_	-6391
32_61_	-6392
_01();	-6393
recurs	-6394
▁FINAL	-6395
▁intId	-6396
135_01_	-6397
135_02_	-6398
135_03_	-6399
135_04_	-6400
135_05_	-6401
135_06_	-6402
135_07_	-6403
135_08_	-6404
135_09_	-6405
135_10_	-6406
135_11_	-6407
135_12_	-6408
135_13_	-6409
135_14_	-6410
135_15_	-6411
135_16_	-6412
135_17_	-6413
135_18_	-6414
135_21_	-6415
135_31_	-6416
135_32_	-6417
135_41_	-6418
135_42_	-6419
135_44_	-6420
135_61_	-6421
BGlobal	-6422
Unlocks	-6423
dataMap	-6424
dataList	-6425
recursive	-6426
readString	-6427
▁helperBow	-6428
▁readString	-6429
▁passwordPtr	-6430
helperBowBack	-6431
▁cryptoKeyCopy	-6432
intSecureRandom	-6433
▁BadDerivedClass	-6434
▁exceptThrowable	-6435
Field	-6436
ructor	-6437
▁Clone	-6438
▁Error	-6439
BaseClass	-6440
readerFile	-6441
ivedClassObject	-6442
TW	-6443
56)	-6444
TWO	-6445
580_	-6446
CURS	-6447
isRe	-6448
1());	-6449
▁256)	-6450
CURSION	-6451
IdValid	-6452
Objects	-6453
quested	-6454
▁[]>();	-6455
structor	-6456
▁dataPtr	-6457
▁isError	-6458
▁theDate	-6459
intThirty	-6460
stringBad	-6461
CharString	-6462
▁stringBad	-6463
ipException	-6464
isRequested	-6465
helperBowBad	-6466
intBadNumber	-6467
helperBowGood	-6468
▁BadBaseClass	-6469
▁helperAddBad	-6470
SessionIdValid	-6471
▁helperAddGood	-6472
00)	-6473
▁(2	-6474
582_	-6475
three	-6476
single	-6477
▁exist	-6478
▁global	-6479
hashCode	-6480
▁staticGlobal	-6481
0;	-6482
;)	-6483
=(	-6484
LY	-6485
62;	-6486
Hij	-6487
the	-6488
1(10	-6489
491_	-6490
500_	-6491
568_	-6492
772_	-6493
NotS	-6494
ONLY	-6495
Unca	-6496
bers	-6497
boun	-6498
ries	-6499
▁30;	-6500
▁imp	-6501
▁ptr	-6502
1_01_	-6503
1_02_	-6504
1_03_	-6505
1_04_	-6506
1_05_	-6507
1_06_	-6508
1_07_	-6509
1_08_	-6510
1_09_	-6511
1_10_	-6512
1_11_	-6513
1_12_	-6514
1_13_	-6515
1_14_	-6516
1_15_	-6517
1_16_	-6518
1_17_	-6519
1_18_	-6520
2_01_	-6521
2_02_	-6522
2_03_	-6523
2_04_	-6524
2_05_	-6525
2_06_	-6526
2_07_	-6527
2_08_	-6528
2_09_	-6529
2_10_	-6530
2_11_	-6531
2_12_	-6532
2_13_	-6533
2_14_	-6534
2_15_	-6535
2_16_	-6536
2_17_	-6537
2_18_	-6538
first	-6539
infin	-6540
izing	-6541
lines	-6542
▁call	-6543
▁does	-6544
▁seed	-6545
1(10);	-6546
Hijack	-6547
IntBad	-6548
before	-6549
public	-6550
unboun	-6551
▁5000)	-6552
Members	-6553
getTime	-6554
lements	-6555
theDate	-6556
▁GLOBAL	-6557
▁exists	-6558
▁strdup	-6559
▁wcsdup	-6560
READONLY	-6561
Uncaught	-6562
infinite	-6563
multiple	-6564
ptrArray	-6565
▁calling	-6566
▁entries	-6567
▁longSum	-6568
helperAdd	-6569
unbounded	-6570
▁finalize	-6571
▁operator	-6572
FileReader	-6573
destructor	-6574
finalizing	-6575
globalGood	-6576
objectGood	-6577
▁CloneNotS	-6578
▁RECURSION	-6579
▁classname	-6580
▁intThirty	-6581
▁objectBad	-6582
constructor	-6583
objectArray	-6584
▁implements	-6585
cryptoKeyRef	-6586
▁InetAddress	-6587
▁inetAddress	-6588
▁initialized	-6589
▁stringInput	-6590
ClassIssueBad	-6591
charStringLen	-6592
▁cryptoKeyRef	-6593
▁passwordHash	-6594
helperMultiply	-6595
▁charStringLen	-6596
▁helperBowBack	-6597
▁ptrCharString	-6598
helperBowBackBad	-6599
HU	-6600
3()	-6601
4()	-6602
5()	-6603
RED	-6604
Uns	-6605
isf	-6606
▁(&	-6607
▁3)	-6608
499_	-6609
HUND	-6610
Link	-6611
▁1))	-6612
▁11;	-6613
▁Not	-6614
▁add	-6615
▁use	-6616
2());	-6617
3());	-6618
4());	-6619
5());	-6620
Unsat	-6621
1()");	-6622
getInt	-6623
isfied	-6624
▁field	-6625
HUNDRED	-6626
Problem	-6627
setDate	-6628
▁[]>(5);	-6629
▁address	-6630
BadObject	-6631
▁function	-6632
▁variable	-6633
GoodObject	-6634
isfiedLink	-6635
▁BadObject	-6636
▁Cloneable	-6637
▁intNumber	-6638
Initialized	-6639
getIntArray	-6640
▁GoodObject	-6641
staticGlobal	-6642
UnsatisfiedLink	-6643
▁NotSerializable	-6644
▁staticGlobalBad	-6645
(;	-6646
3(	-6647
4(	-6648
44	-6649
5(	-6650
::	-6651
By	-6652
(((	-6653
4";	-6654
Equ	-6655
▁ip	-6656
()};	-6657
(;;)	-6658
111_	-6659
248_	-6660
440_	-6661
579_	-6662
600_	-6663
607_	-6664
Addr	-6665
LONG	-6666
[0]:	-6667
[1].	-6668
cont	-6669
copy	-6670
oper	-6671
▁10,	-6672
▁2))	-6673
▁31;	-6674
▁5);	-6675
▁der	-6676
)+1];	-6677
32_33	-6678
32_43	-6679
32_62	-6680
getBy	-6681
getRe	-6682
leted	-6683
▁(;;)	-6684
▁1234	-6685
▁bool	-6686
135_33	-6687
135_43	-6688
135_62	-6689
32_33;	-6690
32_43;	-6691
32_62;	-6692
Equals	-6693
Really	-6694
[0]));	-6695
assign	-6696
ddress	-6697
▁clone	-6698
135_33;	-6699
135_43;	-6700
135_62;	-6701
Mutable	-6702
content	-6703
getDate	-6704
isError	-6705
longMax	-6706
uIntBad	-6707
virtual	-6708
▁12345;	-6709
▁equals	-6710
▁native	-6711
Expected	-6712
getHello	-6713
moteAddr	-6714
operator	-6715
serializ	-6716
▁longMax	-6717
▁myClone	-6718
▁setDate	-6719
▁uIntBad	-6720
Completed	-6721
RECURSION	-6722
getByName	-6723
globalBad	-6724
ipAddress	-6725
objectBad	-6726
printData	-6727
▁hashCode	-6728
Destructor	-6729
alculation	-6730
assignment	-6731
getAddress	-6732
▁badObject	-6733
▁ipAddress	-6734
▁printData	-6735
▁supported	-6736
Constructor	-6737
inetAddress	-6738
stringInput	-6739
▁globalFive	-6740
▁goodObject	-6741
▁initialize	-6742
▁readObject	-6743
▁setMessage	-6744
getAttribute	-6745
helperAddBad	-6746
printMembers	-6747
printMessage	-6748
secureRandom	-6749
serializable	-6750
setAttribute	-6751
▁objectArray	-6752
contentEquals	-6753
getRemoteAddr	-6754
helperAddGood	-6755
ptrCharString	-6756
▁helperBowBad	-6757
▁printMembers	-6758
▁printMessage	-6759
▁helperBowGood	-6760
BadDerivedClass	-6761
▁objectBadFirst	-6762
longSecureRandom	-6763
staticGlobalGood	-6764
▁baseClassObject	-6765
▁objectBadSecond	-6766
)"	-6767
93	-6768
NE	-6769
No	-6770
.";	-6771
.10	-6772
1("	-6773
2("	-6774
41;	-6775
505	-6776
925	-6777
How	-6778
NIT	-6779
amo	-6780
dra	-6781
oSu	-6782
▁("	-6783
▁()	-6784
▁ag	-6785
-1))	-6786
1,2,	-6787
1850	-6788
1_01	-6789
1_02	-6790
1_03	-6791
1_04	-6792
1_05	-6793
1_06	-6794
1_07	-6795
1_08	-6796
1_09	-6797
1_10	-6798
1_11	-6799
1_12	-6800
1_13	-6801
1_14	-6802
1_15	-6803
1_16	-6804
1_17	-6805
2619	-6806
2_01	-6807
2_02	-6808
2_03	-6809
2_04	-6810
2_05	-6811
2_06	-6812
2_07	-6813
2_08	-6814
2_09	-6815
2_10	-6816
2_11	-6817
2_12	-6818
2_13	-6819
2_14	-6820
2_15	-6821
2_16	-6822
2_17	-6823
3();	-6824
3,4,	-6825
4();	-6826
5();	-6827
5_01	-6828
5_02	-6829
5_03	-6830
5_04	-6831
5_05	-6832
5_06	-6833
5_07	-6834
5_08	-6835
5_09	-6836
5_10	-6837
5_11	-6838
5_12	-6839
5_13	-6840
5_14	-6841
5_15	-6842
5_16	-6843
5_17	-6844
draw	-6845
erst	-6846
from	-6847
mult	-6848
▁(0)	-6849
▁(1)	-6850
▁01,	-6851
▁22;	-6852
▁7);	-6853
▁ONE	-6854
▁amo	-6855
▁but	-6856
▁don	-6857
▁len	-6858
▁und	-6859
▁you	-6860
.10",	-6861
32_01	-6862
92593	-6863
iline	-6864
oSuch	-6865
▁01);	-6866
▁3)->	-6867
185041	-6868
32_01;	-6869
NITest	-6870
NoData	-6871
clared	-6872
▁(200)	-6873
▁Field	-6874
▁again	-6875
▁tests	-6876
▁{1,2,	-6877
3,4,5};	-6878
39.10",	-6879
5052619	-6880
erstood	-6881
missing	-6882
reflect	-6883
▁792593	-6884
▁NoSuch	-6885
▁amount	-6886
▁modify	-6887
InMillis	-6888
Starting	-6889
ializing	-6890
▁entered	-6891
▁getDate	-6892
▁runTest	-6893
badString	-6894
multiline	-6895
printName	-6896
setAccess	-6897
▁READONLY	-6898
▁Serializ	-6899
▁getHello	-6900
▁withdraw	-6901
goodString	-6902
reflection	-6903
stringLine	-6904
stringTrue	-6905
▁badString	-6906
▁printName	-6907
Calculation	-6908
calculation	-6909
claredField	-6910
initialized	-6911
stringFalse	-6912
▁contructor	-6913
▁globalTrue	-6914
▁goodString	-6915
▁stringLine	-6916
▁stringTrue	-6917
▁understood	-6918
BadBaseClass	-6919
Initializing	-6920
intThirtyOne	-6921
passwordHash	-6922
▁NoSuchField	-6923
▁calculation	-6924
▁getPassword	-6925
▁globalFalse	-6926
▁setPassword	-6927
▁stringFalse	-6928
▁writeObject	-6929
5052619185041	-6930
isInitialized	-6931
setAccessible	-6932
▁ObjectStream	-6933
▁SQLException	-6934
▁Serializable	-6935
▁intThirtyOne	-6936
▁{1,2,3,4,5};	-6937
objectBadFirst	-6938
▁isInitialized	-6939
getTimeInMillis	-6940
objectBadSecond	-6941
staticGlobalBad	-6942
getDeclaredField	-6943
""	-6944
"&	-6945
"<	-6946
">	-6947
"]	-6948
&"	-6949
&&	-6950
'>	-6951
(-	-6952
(4	-6953
*"	-6954
+)	-6955
,0	-6956
,2	-6957
-0	-6958
-5	-6959
."	-6960
.*	-6961
.3	-6962
/'	-6963
//	-6964
0"	-6965
0'	-6966
0*	-6967
0+	-6968
0-	-6969
0/	-6970
05	-6971
15	-6972
2-	-6973
22	-6974
29	-6975
2\	-6976
3\	-6977
5"	-6978
5}	-6979
6"	-6980
6,	-6981
71	-6982
7;	-6983
8"	-6984
9*	-6985
9.	-6986
:\	-6987
;;	-6988
;}	-6989
</	-6990
<1	-6991
<<	-6992
<=	-6993
>=	-6994
>>	-6995
AE	-6996
AI	-6997
AK	-6998
AS	-6999
)=	-7000
1]	-7001
4]	-7002
5*	-7003
55	-7004
72	-7005
AX	-7006
Ab	-7007
BA	-7008
CD	-7009
CK	-7010
CU	-7011
DA	-7012
DI	-7013
DR	-7014
DW	-7015
Da	-7016
EA	-7017
EE	-7018
EH	-7019
FA	-7020
FG	-7021
FR	-7022
FS	-7023
Fa	-7024
Fi	-7025
Fo	-7026
Fr	-7027
Fu	-7028
Go	-7029
HA	-7030
HM	-7031
HW	-7032
Ht	-7033
IR	-7034
IW	-7035
IX	-7036
Il	-7037
KS	-7038
KT	-7039
Ke	-7040
LA	-7041
LC	-7042
LG	-7043
LU	-7044
Li	-7045
MI	-7046
MS	-7047
Mi	-7048
NA	-7049
NC	-7050
NF	-7051
NK	-7052
NM	-7053
NT	-7054
NU	-7055
NV	-7056
NY	-7057
Nu	-7058
OE	-7059
OH	-7060
OO	-7061
Om	-7062
PA	-7063
PE	-7064
PM	-7065
PT	-7066
PU	-7067
PY	-7068
Pa	-7069
Pi	-7070
Pt	-7071
Pu	-7072
RI	-7073
RN	-7074
RO	-7075
RR	-7076
RY	-7077
Ru	-7078
SA	-7079
SL	-7080
SO	-7081
SQ	-7082
Sa	-7083
So	-7084
Sq	-7085
TB	-7086
TF	-7087
TG	-7088
TL	-7089
TT	-7090
TU	-7091
Te	-7092
Ty	-7093
UD	-7094
UI	-7095
UL	-7096
Us	-7097
Ut	-7098
VA	-7099
(6	-7100
./	-7101
34	-7102
6:	-7103
6}	-7104
7:	-7105
:4	-7106
=\	-7107
BG	-7108
BL	-7109
CC	-7110
DD	-7111
Eq	-7112
Gl	-7113
HC	-7114
KL	-7115
OT	-7116
PO	-7117
PP	-7118
TA	-7119
TC	-7120
TI	-7121
Ti	-7122
VI	-7123
Vi	-7124
WI	-7125
WK	-7126
WL	-7127
WO	-7128
Wa	-7129
Wi	-7130
XH	-7131
Xm	-7132
YL	-7133
YT	-7134
Yo	-7135
[3	-7136
])	-7137
aB	-7138
aD	-7139
aG	-7140
aH	-7141
aI	-7142
aL	-7143
aM	-7144
aV	-7145
ai	-7146
au	-7147
bS	-7148
ba	-7149
bc	-7150
bl	-7151
bt	-7152
bu	-7153
cB	-7154
cF	-7155
cI	-7156
cS	-7157
cT	-7158
cq	-7159
dB	-7160
dC	-7161
dE	-7162
dF	-7163
dG	-7164
dH	-7165
dL	-7166
dR	-7167
dT	-7168
dU	-7169
da	-7170
di	-7171
dr	-7172
ds	-7173
dt	-7174
eA	-7175
eC	-7176
eH	-7177
eI	-7178
eK	-7179
eL	-7180
eQ	-7181
eR	-7182
eS	-7183
ea	-7184
ee	-7185
ef	-7186
eg	-7187
eh	-7188
eo	-7189
eq	-7190
fS	-7191
fW	-7192
fa	-7193
fd	-7194
fi	-7195
fr	-7196
fs	-7197
fu	-7198
gC	-7199
']	-7200
2"	-7201
5=	-7202
7"	-7203
70	-7204
=5	-7205
BE	-7206
DL	-7207
DU	-7208
GL	-7209
GV	-7210
NS	-7211
OB	-7212
PL	-7213
RA	-7214
RU	-7215
Tw	-7216
aC	-7217
aP	-7218
cR	-7219
dS	-7220
fL	-7221
fc	-7222
fg	-7223
gE	-7224
gH	-7225
gI	-7226
gL	-7227
gN	-7228
gS	-7229
gT	-7230
ga	-7231
gc	-7232
gg	-7233
gi	-7234
gl	-7235
gm	-7236
gn	-7237
go	-7238
gs	-7239
gt	-7240
gu	-7241
gv	-7242
hA	-7243
hK	-7244
hM	-7245
hR	-7246
hT	-7247
hV	-7248
he	-7249
hi	-7250
hm	-7251
hr	-7252
ht	-7253
hu	-7254
iB	-7255
iX	-7256
ia	-7257
ie	-7258
ja	-7259
je	-7260
jo	-7261
js	-7262
kC	-7263
ka	-7264
ke	-7265
ks	-7266
lA	-7267
lC	-7268
lF	-7269
lR	-7270
lS	-7271
lT	-7272
lt	-7273
lu	-7274
mE	-7275
mF	-7276
mP	-7277
mR	-7278
mb	-7279
md	-7280
mf	-7281
mg	-7282
mi	-7283
mn	-7284
nE	-7285
nF	-7286
nS	-7287
nU	-7288
nV	-7289
na	-7290
ni	-7291
nn	-7292
np	-7293
ns	-7294
nu	-7295
oC	-7296
oD	-7297
oH	-7298
oI	-7299
"2	-7300
.)	-7301
16	-7302
52	-7303
BO	-7304
Ba	-7305
FU	-7306
GI	-7307
GS	-7308
HN	-7309
IS	-7310
OG	-7311
Pr	-7312
SR	-7313
Si	-7314
TK	-7315
eO	-7316
eT	-7317
fC	-7318
fb	-7319
hF	-7320
ki	-7321
mS	-7322
mc	-7323
nI	-7324
nN	-7325
nk	-7326
oL	-7327
oM	-7328
oS	-7329
ob	-7330
oc	-7331
od	-7332
ov	-7333
pC	-7334
pD	-7335
pF	-7336
pH	-7337
pI	-7338
pL	-7339
pS	-7340
pe	-7341
po	-7342
pq	-7343
ps	-7344
py	-7345
rA	-7346
rB	-7347
rC	-7348
rE	-7349
rF	-7350
rI	-7351
rL	-7352
rO	-7353
rS	-7354
rW	-7355
rf	-7356
rg	-7357
rl	-7358
rm	-7359
rn	-7360
rp	-7361
rr	-7362
rs	-7363
ru	-7364
rw	-7365
sB	-7366
sC	-7367
sE	-7368
sK	-7369
sN	-7370
sO	-7371
sS	-7372
sT	-7373
sc	-7374
sq	-7375
sr	-7376
su	-7377
sw	-7378
sy	-7379
tB	-7380
tC	-7381
tD	-7382
tE	-7383
tF	-7384
tH	-7385
tI	-7386
tK	-7387
tL	-7388
tN	-7389
tP	-7390
tQ	-7391
tR	-7392
tS	-7393
tT	-7394
tV	-7395
tW	-7396
ta	-7397
tb	-7398
tn	-7399
*6	-7400
0}	-7401
21	-7402
2[	-7403
3)	-7404
4)	-7405
BS	-7406
CA	-7407
Cr	-7408
LW	-7409
Ou	-7410
RL	-7411
RM	-7412
Ra	-7413
VO	-7414
aR	-7415
bj	-7416
cW	-7417
cu	-7418
dI	-7419
eD	-7420
eF	-7421
gf	-7422
hD	-7423
mB	-7424
mu	-7425
nC	-7426
nf	-7427
oK	-7428
pM	-7429
rk	-7430
sf	-7431
sm	-7432
tO	-7433
tU	-7434
tp	-7435
tw	-7436
tx	-7437
uI	-7438
uc	-7439
ud	-7440
ui	-7441
vR	-7442
va	-7443
vi	-7444
vl	-7445
vp	-7446
vs	-7447
wG	-7448
wI	-7449
wX	-7450
wi	-7451
wm	-7452
wr	-7453
wx	-7454
xA	-7455
xC	-7456
xO	-7457
xa	-7458
xi	-7459
xm	-7460
xp	-7461
yA	-7462
yE	-7463
yI	-7464
yO	-7465
yR	-7466
yS	-7467
yi	-7468
yl	-7469
yr	-7470
yt	-7471
ze	-7472
{0	-7473
{1	-7474
|"	-7475
▁.	-7476
▁[	-7477
▁q	-7478
▁r	-7479
▁z	-7480
"10	-7481
("1	-7482
()]	-7483
)+1	-7484
);}	-7485
,3,	-7486
-1.	-7487
.0)	-7488
0",	-7489
010	-7490
04_	-7491
0]:	-7492
0};	-7493
10"	-7494
10*	-7495
10,	-7496
10:	-7497
13_	-7498
190	-7499
"1	-7500
+"	-7501
+;	-7502
0.	-7503
1"	-7504
14	-7505
1[	-7506
35	-7507
7.	-7508
EF	-7509
FO	-7510
IA	-7511
IM	-7512
Ld	-7513
Ma	-7514
Me	-7515
NP	-7516
OV	-7517
Pl	-7518
RK	-7519
SN	-7520
UB	-7521
UC	-7522
YS	-7523
aU	-7524
bC	-7525
cG	-7526
cP	-7527
dl	-7528
fH	-7529
hC	-7530
hS	-7531
lU	-7532
nm	-7533
nv	-7534
sM	-7535
tA	-7536
vI	-7537
yC	-7538
yL	-7539
yU	-7540
.0.	-7541
2-1	-7542
200	-7543
2_0	-7544
321	-7545
325	-7546
35_	-7547
39.	-7548
39_	-7549
3\\	-7550
4",	-7551
40_	-7552
456	-7553
45_	-7554
46_	-7555
48_	-7556
4\\	-7557
5!=	-7558
5*5	-7559
56"	-7560
5==	-7561
6";	-7562
6);	-7563
640	-7564
66_	-7565
67_	-7566
7-1	-7567
85_	-7568
9);	-7569
99;	-7570
<10	-7571
>(5	-7572
AEP	-7573
ANC	-7574
ASt	-7575
BSt	-7576
DER	-7577
Dat	-7578
Def	-7579
ETE	-7580
ETW	-7581
FOR	-7582
GEN	-7583
IND	-7584
INI	-7585
INP	-7586
INS	-7587
INU	-7588
IRE	-7589
ITI	-7590
ITM	-7591
Inh	-7592
Inv	-7593
LEN	-7594
LOB	-7595
LSE	-7596
MAI	-7597
MMA	-7598
NLI	-7599
"'	-7600
"7	-7601
"|	-7602
'"	-7603
(.	-7604
(7	-7605
,4	-7606
2]	-7607
3-	-7608
3:	-7609
4"	-7610
4.	-7611
5!	-7612
6-	-7613
BY	-7614
CW	-7615
Do	-7616
EY	-7617
El	-7618
LS	-7619
NH	-7620
Po	-7621
Sl	-7622
Ta	-7623
Ve	-7624
Xp	-7625
[9	-7626
aA	-7627
aS	-7628
cd	-7629
cr	-7630
dP	-7631
fl	-7632
gO	-7633
hH	-7634
hP	-7635
lp	-7636
nj	-7637
oB	-7638
oy	-7639
sF	-7640
tX	-7641
tm	-7642
ua	-7643
xP	-7644
yG	-7645
yH	-7646
yK	-7647
za	-7648
▁X	-7649
544	-7650
Num	-7651
ONN	-7652
ONT	-7653
OST	-7654
OVE	-7655
OfW	-7656
Poo	-7657
RAY	-7658
REN	-7659
RST	-7660
Ran	-7661
Rec	-7662
SIO	-7663
SUB	-7664
SUC	-7665
Sam	-7666
Sle	-7667
Ste	-7668
TOR	-7669
UIT	-7670
Unt	-7671
VER	-7672
WAR	-7673
Wit	-7674
XCL	-7675
\""	-7676
adA	-7677
adP	-7678
adc	-7679
ads	-7680
alA	-7681
alR	-7682
alV	-7683
ami	-7684
amp	-7685
apC	-7686
arC	-7687
arI	-7688
arN	-7689
arS	-7690
ara	-7691
arp	-7692
atc	-7693
att	-7694
bit	-7695
boo	-7696
bre	-7697
bro	-7698
cal	-7699
"5	-7700
-;	-7701
03	-7702
04	-7703
0:	-7704
9"	-7705
90	-7706
:0	-7707
>(	-7708
BI	-7709
Ci	-7710
Di	-7711
EO	-7712
Im	-7713
OU	-7714
OW	-7715
Pe	-7716
SC	-7717
SY	-7718
Sh	-7719
Sp	-7720
ae	-7721
dA	-7722
dv	-7723
eW	-7724
fp	-7725
fw	-7726
gM	-7727
jn	-7728
lD	-7729
lV	-7730
lh	-7731
nT	-7732
nb	-7733
nw	-7734
rN	-7735
tf	-7736
vf	-7737
wR	-7738
wg	-7739
wp	-7740
xF	-7741
yN	-7742
▁V	-7743
10+	-7744
2];	-7745
ROR	-7746
adL	-7747
can	-7748
cde	-7749
ceA	-7750
cen	-7751
chF	-7752
cha	-7753
ckG	-7754
cks	-7755
clo	-7756
ctL	-7757
ctS	-7758
ctu	-7759
cut	-7760
dRe	-7761
dSt	-7762
dat	-7763
dco	-7764
deb	-7765
din	-7766
dom	-7767
dre	-7768
dst	-7769
dwB	-7770
eIn	-7771
ear	-7772
edR	-7773
edS	-7774
edU	-7775
edi	-7776
eed	-7777
een	-7778
ein	-7779
emP	-7780
emc	-7781
ena	-7782
erA	-7783
erC	-7784
erI	-7785
erM	-7786
erN	-7787
erO	-7788
erW	-7789
eri	-7790
esC	-7791
esp	-7792
etA	-7793
etI	-7794
etM	-7795
etQ	-7796
etR	-7797
etV	-7798
eta	-7799
,&	-7800
4!	-7801
Au	-7802
BD	-7803
CS	-7804
DM	-7805
Nd	-7806
PH	-7807
PI	-7808
TY	-7809
aN	-7810
dD	-7811
dV	-7812
eB	-7813
eN	-7814
eU	-7815
eX	-7816
gB	-7817
hU	-7818
iW	-7819
kB	-7820
nW	-7821
pA	-7822
tl	-7823
wt	-7824
xE	-7825
yW	-7826
yz	-7827
▁K	-7828
22;	-7829
Thi	-7830
WID	-7831
amB	-7832
amS	-7833
atN	-7834
bmi	-7835
cif	-7836
ctB	-7837
edW	-7838
erG	-7839
etE	-7840
eti	-7841
ett	-7842
eyS	-7843
eyW	-7844
fOf	-7845
fic	-7846
fix	-7847
fle	-7848
fst	-7849
gei	-7850
gen	-7851
gic	-7852
gin	-7853
git	-7854
gor	-7855
hIn	-7856
hMo	-7857
hat	-7858
hav	-7859
hin	-7860
hir	-7861
hre	-7862
iCl	-7863
iat	-7864
icR	-7865
ien	-7866
ifd	-7867
ife	-7868
iff	-7869
ifi	-7870
ify	-7871
igA	-7872
ima	-7873
inF	-7874
inf	-7875
inl	-7876
inp	-7877
ire	-7878
itB	-7879
itm	-7880
kst	-7881
kte	-7882
lat	-7883
leA	-7884
leD	-7885
leI	-7886
leO	-7887
leT	-7888
lec	-7889
ler	-7890
llo	-7891
los	-7892
lpb	-7893
lut	-7894
mIn	-7895
meT	-7896
med	-7897
men	-7898
mic	-7899
&)	-7900
(8	-7901
06	-7902
1+	-7903
31	-7904
51	-7905
88	-7906
9)	-7907
<(	-7908
<>	-7909
BV	-7910
CB	-7911
FE	-7912
Fl	-7913
HR	-7914
MK	-7915
MM	-7916
Mu	-7917
PW	-7918
SK	-7919
TM	-7920
Vo	-7921
WC	-7922
WN	-7923
XS	-7924
ci	-7925
ei	-7926
gG	-7927
hI	-7928
kG	-7929
kT	-7930
nl	-7931
oF	-7932
oR	-7933
rM	-7934
rT	-7935
rV	-7936
sP	-7937
tM	-7938
wf	-7939
wl	-7940
*((	-7941
2_1	-7942
5);	-7943
76_	-7944
BVa	-7945
DIO	-7946
EAR	-7947
Ine	-7948
Mul	-7949
Out	-7950
ceC	-7951
lee	-7952
mor	-7953
mpC	-7954
mpD	-7955
mpa	-7956
mse	-7957
nat	-7958
nce	-7959
ncp	-7960
nin	-7961
nlo	-7962
nop	-7963
ntt	-7964
oat	-7965
onE	-7966
onN	-7967
onS	-7968
onV	-7969
onW	-7970
onc	-7971
ond	-7972
onn	-7973
ont	-7974
ool	-7975
orS	-7976
ord	-7977
ote	-7978
ove	-7979
ped	-7980
pes	-7981
pic	-7982
ptA	-7983
ptC	-7984
ptM	-7985
ptu	-7986
pub	-7987
rag	-7988
rat	-7989
rcC	-7990
rcp	-7991
reC	-7992
reF	-7993
reR	-7994
reS	-7995
rea	-7996
req	-7997
rev	-7998
rig	-7999
"[	-8000
*>	-8001
.2	-8002
.\	-8003
/>	-8004
08	-8005
0\	-8006
3"	-8007
6;	-8008
8.	-8009
92	-8010
9]	-8011
CI	-8012
EG	-8013
Ge	-8014
HP	-8015
HV	-8016
La	-8017
NN	-8018
RV	-8019
Ro	-8020
SW	-8021
Sm	-8022
Wn	-8023
XC	-8024
\.	-8025
_8	-8026
cH	-8027
dO	-8028
eE	-8029
fO	-8030
hl	-8031
kt	-8032
lP	-8033
lc	-8034
mO	-8035
mW	-8036
sI	-8037
sL	-8038
sR	-8039
sk	-8040
tG	-8041
xW	-8042
yB	-8043
98_	-8044
Hap	-8045
LLO	-8046
PAT	-8047
Res	-8048
SEC	-8049
atL	-8050
edE	-8051
erE	-8052
erm	-8053
gSt	-8054
klm	-8055
oth	-8056
rim	-8057
rog	-8058
roo	-8059
rra	-8060
sat	-8061
sch	-8062
seD	-8063
seF	-8064
seK	-8065
seL	-8066
seO	-8067
seW	-8068
sel	-8069
shD	-8070
sho	-8071
sic	-8072
sig	-8073
som	-8074
spe	-8075
ssI	-8076
ssN	-8077
ssO	-8078
ssc	-8079
ssi	-8080
stA	-8081
stC	-8082
stE	-8083
stL	-8084
stN	-8085
stb	-8086
ste	-8087
sto	-8088
sts	-8089
sup	-8090
tRe	-8091
tSt	-8092
teA	-8093
teC	-8094
tic	-8095
tie	-8096
tin	-8097
tte	-8098
tur	-8099
"0	-8100
":	-8101
*(	-8102
*,	-8103
28	-8104
74	-8105
98	-8106
9;	-8107
Ap	-8108
HD	-8109
HI	-8110
Hi	-8111
MT	-8112
RP	-8113
Rp	-8114
TS	-8115
Wc	-8116
XE	-8117
cM	-8118
dW	-8119
eM	-8120
eP	-8121
fB	-8122
gA	-8123
gV	-8124
hW	-8125
lL	-8126
nK	-8127
oO	-8128
oP	-8129
pN	-8130
rD	-8131
rG	-8132
rP	-8133
rU	-8134
sU	-8135
wS	-8136
yo	-8137
▁9	-8138
▁Y	-8139
119	-8140
AIN	-8141
FsY	-8142
Inp	-8143
apa	-8144
arB	-8145
cem	-8146
etO	-8147
fel	-8148
han	-8149
ise	-8150
lin	-8151
ned	-8152
pip	-8153
seH	-8154
ssf	-8155
syn	-8156
tem	-8157
ual	-8158
uar	-8159
ubl	-8160
uns	-8161
ush	-8162
usp	-8163
utB	-8164
utO	-8165
utS	-8166
uta	-8167
uti	-8168
uts	-8169
vRe	-8170
van	-8171
vat	-8172
vem	-8173
wSe	-8174
wid	-8175
wte	-8176
xtB	-8177
yOf	-8178
ySt	-8179
ylo	-8180
yre	-8181
zer	-8182
});	-8183
▁""	-8184
▁(.	-8185
▁-5	-8186
▁..	-8187
▁12	-8188
▁13	-8189
▁30	-8190
▁39	-8191
▁AC	-8192
▁AS	-8193
▁CA	-8194
▁CL	-8195
▁CW	-8196
▁Cl	-8197
▁DI	-8198
▁EN	-8199
!*	-8200
'/	-8201
,1	-8202
-=	-8203
3/	-8204
4\	-8205
7,	-8206
96	-8207
Bm	-8208
DF	-8209
FD	-8210
GN	-8211
Ho	-8212
PN	-8213
Wo	-8214
bp	-8215
dm	-8216
dn	-8217
jk	-8218
kA	-8219
kD	-8220
kR	-8221
kl	-8222
lG	-8223
mT	-8224
nA	-8225
nX	-8226
oE	-8227
pE	-8228
pW	-8229
pn	-8230
sd	-8231
uv	-8232
wB	-8233
wP	-8234
wY	-8235
xd	-8236
ya	-8237
|=	-8238
FAC	-8239
Ker	-8240
amR	-8241
dou	-8242
edO	-8243
enS	-8244
erw	-8245
esk	-8246
hen	-8247
nic	-8248
ntD	-8249
onA	-8250
rin	-8251
rot	-8252
teF	-8253
ton	-8254
utX	-8255
yHa	-8256
yHe	-8257
▁+"	-8258
▁FO	-8259
▁HA	-8260
▁HG	-8261
▁HM	-8262
▁Iv	-8263
▁KE	-8264
▁Ne	-8265
▁OM	-8266
▁PR	-8267
▁SQ	-8268
▁SY	-8269
▁Sh	-8270
▁Sq	-8271
▁Sy	-8272
▁TC	-8273
▁Un	-8274
▁ci	-8275
▁cr	-8276
▁db	-8277
▁di	-8278
▁eq	-8279
▁fi	-8280
▁fw	-8281
▁hK	-8282
▁hP	-8283
▁hb	-8284
▁im	-8285
▁iv	-8286
▁le	-8287
▁li	-8288
▁no	-8289
▁pF	-8290
▁pc	-8291
▁po	-8292
▁pt	-8293
▁ra	-8294
▁sc	-8295
▁sl	-8296
▁sp	-8297
▁sq	-8298
▁tr	-8299
'8	-8300
+(	-8301
09	-8302
1/	-8303
1\	-8304
2/	-8305
3.	-8306
8'	-8307
82	-8308
86	-8309
Bi	-8310
Br	-8311
Iv	-8312
PB	-8313
PK	-8314
[6	-8315
bO	-8316
cC	-8317
cw	-8318
dg	-8319
eG	-8320
fD	-8321
fT	-8322
hb	-8323
iH	-8324
kd	-8325
kn	-8326
lB	-8327
mD	-8328
mH	-8329
nR	-8330
sY	-8331
})	-8332
17_	-8333
32)	-8334
32;	-8335
Cle	-8336
PIN	-8337
Rea	-8338
Sin	-8339
Var	-8340
arc	-8341
atE	-8342
cts	-8343
erd	-8344
fab	-8345
gra	-8346
lar	-8347
nto	-8348
oRe	-8349
rav	-8350
rem	-8351
rno	-8352
rol	-8353
stM	-8354
tMo	-8355
uer	-8356
▁PA	-8357
▁er	-8358
▁us	-8359
▁vp	-8360
▁vw	-8361
▁wi	-8362
▁wp	-8363
▁wr	-8364
("..	-8365
(2,2	-8366
)100	-8367
,100	-8368
.0.1	-8369
/"))	-8370
/");	-8371
0"))	-8372
0");	-8373
008;	-8374
100*	-8375
2));	-8376
250]	-8377
2_32	-8378
32_2	-8379
5"))	-8380
5_32	-8381
5_61	-8382
7015	-8383
8");	-8384
9");	-8385
ADAT	-8386
ANCE	-8387
ATER	-8388
CATE	-8389
Chil	-8390
Cond	-8391
DEFA	-8392
ECTE	-8393
ENER	-8394
Exec	-8395
FINE	-8396
GLOB	-8397
High	-8398
INAL	-8399
!-	-8400
)0	-8401
*3	-8402
/1	-8403
2*	-8404
7-	-8405
73	-8406
79	-8407
:8	-8408
<!	-8409
=2	-8410
Ag	-8411
Cu	-8412
Du	-8413
EI	-8414
EL	-8415
EQ	-8416
EU	-8417
HB	-8418
HG	-8419
MB	-8420
PS	-8421
RG	-8422
TN	-8423
WT	-8424
]>	-8425
dM	-8426
dN	-8427
dX	-8428
gF	-8429
iC	-8430
iP	-8431
iS	-8432
iY	-8433
kS	-8434
ko	-8435
lr	-8436
mI	-8437
pg	-8438
wL	-8439
wu	-8440
xD	-8441
xI	-8442
yP	-8443
zF	-8444
zi	-8445
10)	-8446
197	-8447
2\\	-8448
NER	-8449
SSA	-8450
etc	-8451
neg	-8452
pen	-8453
ptT	-8454
rec	-8455
rob	-8456
▁bi	-8457
▁ja	-8458
▁pH	-8459
▁pa	-8460
▁{1	-8461
CRYP	-8462
ITEC	-8463
InSt	-8464
Inse	-8465
IntB	-8466
KeyG	-8467
LIST	-8468
LLOC	-8469
Leng	-8470
MAXH	-8471
MAXS	-8472
NERR	-8473
OCAL	-8474
OffB	-8475
Prep	-8476
Remo	-8477
Requ	-8478
Sess	-8479
Such	-8480
ToRe	-8481
UTEN	-8482
Unch	-8483
Unin	-8484
Week	-8485
YPel	-8486
[10+	-8487
\");	-8488
]));	-8489
_100	-8490
acem	-8491
adIn	-8492
alic	-8493
alit	-8494
aliz	-8495
arIn	-8496
arSt	-8497
argv	-8498
arra	-8499
)}	-8500
,3	-8501
,5	-8502
85	-8503
87	-8504
94	-8505
UG	-8506
XM	-8507
]:	-8508
fy	-8509
kE	-8510
ku	-8511
lg	-8512
nM	-8513
nh	-8514
xh	-8515
)-1	-8516
72;	-8517
Cat	-8518
EMA	-8519
Fre	-8520
Lin	-8521
Mat	-8522
Min	-8523
Pat	-8524
Ser	-8525
\"/	-8526
atB	-8527
ati	-8528
ato	-8529
atu	-8530
bou	-8531
cin	-8532
eat	-8533
erB	-8534
erF	-8535
erT	-8536
etW	-8537
gat	-8538
idP	-8539
inS	-8540
ina	-8541
ini	-8542
ins	-8543
inu	-8544
inv	-8545
itt	-8546
kin	-8547
mat	-8548
ner	-8549
pat	-8550
sIn	-8551
sta	-8552
tat	-8553
trC	-8554
uat	-8555
xtT	-8556
yin	-8557
zat	-8558
zin	-8559
▁Lo	-8560
&");	-8561
Conv	-8562
PASS	-8563
arse	-8564
aseB	-8565
aseD	-8566
aseO	-8567
ashS	-8568
assT	-8569
ataC	-8570
ataG	-8571
ataL	-8572
ataM	-8573
ataP	-8574
ataR	-8575
ataU	-8576
ataV	-8577
atal	-8578
ateH	-8579
ateK	-8580
ateM	-8581
ateU	-8582
ateW	-8583
athA	-8584
athC	-8585
atin	-8586
atte	-8587
avax	-8588
badP	-8589
badS	-8590
badX	-8591
badf	-8592
balA	-8593
balG	-8594
berF	-8595
berO	-8596
bles	-8597
bute	-8598
cImp	-8599
4];	-8600
7);	-8601
8);	-8602
Bre	-8603
DET	-8604
ICS	-8605
KET	-8606
LEE	-8607
ONL	-8608
POR	-8609
Rem	-8610
Sen	-8611
TRE	-8612
Ver	-8613
WSA	-8614
Wri	-8615
alD	-8616
cko	-8617
ctP	-8618
deB	-8619
don	-8620
emT	-8621
erP	-8622
erS	-8623
erb	-8624
erl	-8625
erp	-8626
gre	-8627
idS	-8628
ker	-8629
mer	-8630
nst	-8631
ore	-8632
reD	-8633
reT	-8634
ren	-8635
reo	-8636
res	-8637
rre	-8638
rst	-8639
stK	-8640
stP	-8641
stc	-8642
tre	-8643
ude	-8644
wre	-8645
▁No	-8646
▁SI	-8647
alUn	-8648
aseC	-8649
ataA	-8650
ataB	-8651
ataH	-8652
ataI	-8653
ataS	-8654
atab	-8655
cPtr	-8656
ckRe	-8657
cked	-8658
cket	-8659
cpip	-8660
dLen	-8661
dbad	-8662
deco	-8663
does	-8664
eNot	-8665
ecre	-8666
ectA	-8667
ectN	-8668
edRe	-8669
edde	-8670
empt	-8671
endE	-8672
endl	-8673
enig	-8674
enin	-8675
erIn	-8676
erat	-8677
eren	-8678
eric	-8679
erif	-8680
eriv	-8681
erre	-8682
erti	-8683
ervi	-8684
estP	-8685
etIn	-8686
etSt	-8687
etwe	-8688
ever	-8689
exam	-8690
ffer	-8691
fine	-8692
full	-8693
getB	-8694
getO	-8695
getU	-8696
getV	-8697
getn	-8698
ghij	-8699
102	-8700
41_	-8701
42_	-8702
:00	-8703
ALS	-8704
DLE	-8705
ELO	-8706
ERI	-8707
FIV	-8708
InS	-8709
Lon	-8710
MAT	-8711
PKC	-8712
YST	-8713
adG	-8714
ait	-8715
arA	-8716
arD	-8717
arF	-8718
arL	-8719
arP	-8720
arT	-8721
arV	-8722
ard	-8723
arr	-8724
ars	-8725
blo	-8726
cce	-8727
ceL	-8728
cep	-8729
che	-8730
cli	-8731
cst	-8732
dar	-8733
dde	-8734
gon	-8735
ifn	-8736
ipt	-8737
mar	-8738
mon	-8739
nal	-8740
nco	-8741
oce	-8742
onF	-8743
onT	-8744
onU	-8745
onf	-8746
onm	-8747
onv	-8748
pon	-8749
ptF	-8750
ptI	-8751
rar	-8752
rce	-8753
ron	-8754
stI	-8755
sti	-8756
stn	-8757
tar	-8758
var	-8759
wun	-8760
xce	-8761
▁Cr	-8762
Leve	-8763
Mult	-8764
SENT	-8765
argc	-8766
arin	-8767
bleD	-8768
enSt	-8769
hDes	-8770
hPro	-8771
hase	-8772
hile	-8773
iall	-8774
icit	-8775
ifst	-8776
igit	-8777
ignm	-8778
igur	-8779
ileO	-8780
ileT	-8781
ileW	-8782
iled	-8783
ileg	-8784
inar	-8785
inat	-8786
indo	-8787
iner	-8788
ines	-8789
ingH	-8790
ingI	-8791
ingL	-8792
ingN	-8793
ingV	-8794
ingt	-8795
inkB	-8796
inkE	-8797
inse	-8798
intD	-8799
33;	-8800
701	-8801
APM	-8802
Buf	-8803
Coo	-8804
Mon	-8805
OfS	-8806
Pad	-8807
SEP	-8808
adB	-8809
adC	-8810
adD	-8811
adF	-8812
adI	-8813
adN	-8814
adO	-8815
adS	-8816
adT	-8817
adV	-8818
adX	-8819
ada	-8820
adf	-8821
adl	-8822
adm	-8823
adv	-8824
but	-8825
ckS	-8826
ctF	-8827
enC	-8828
eng	-8829
eni	-8830
icT	-8831
kad	-8832
ked	-8833
ket	-8834
meo	-8835
oIn	-8836
onI	-8837
oni	-8838
onl	-8839
pcd	-8840
por	-8841
pti	-8842
toP	-8843
xam	-8844
yRe	-8845
yad	-8846
▁ad	-8847
▁sh	-8848
Inde	-8849
Vect	-8850
adin	-8851
aint	-8852
econ	-8853
intA	-8854
intB	-8855
intF	-8856
intG	-8857
intH	-8858
intI	-8859
intL	-8860
intM	-8861
intN	-8862
intO	-8863
intP	-8864
intR	-8865
intS	-8866
intT	-8867
intU	-8868
intV	-8869
intW	-8870
inte	-8871
intf	-8872
intl	-8873
intm	-8874
intt	-8875
ionA	-8876
ionF	-8877
ionN	-8878
ionS	-8879
ionT	-8880
ionW	-8881
iple	-8882
istP	-8883
ista	-8884
ists	-8885
iver	-8886
king	-8887
leRe	-8888
leng	-8889
ling	-8890
link	-8891
live	-8892
lleg	-8893
loca	-8894
maxa	-8895
meTo	-8896
mpIn	-8897
mpat	-8898
mple	-8899
)->	-8900
+1]	-8901
510	-8902
Div	-8903
Goo	-8904
Loo	-8905
Nul	-8906
Roo	-8907
Wch	-8908
chR	-8909
chS	-8910
coo	-8911
den	-8912
doo	-8913
eap	-8914
ele	-8915
enK	-8916
enR	-8917
enU	-8918
enc	-8919
ene	-8920
enf	-8921
eno	-8922
geP	-8923
nch	-8924
nct	-8925
nex	-8926
ole	-8927
ose	-8928
ptD	-8929
rch	-8930
seB	-8931
seC	-8932
seI	-8933
seS	-8934
seU	-8935
see	-8936
sen	-8937
sse	-8938
tch	-8939
too	-8940
uch	-8941
ven	-8942
wch	-8943
▁")	-8944
▁(-	-8945
▁(6	-8946
▁(7	-8947
▁(8	-8948
▁CI	-8949
▁UN	-8950
▁cu	-8951
ctIn	-8952
enou	-8953
erse	-8954
gett	-8955
main	-8956
mpre	-8957
mpro	-8958
nder	-8959
ndle	-8960
nger	-8961
ning	-8962
ntax	-8963
oInt	-8964
oMem	-8965
ockA	-8966
ockn	-8967
oidT	-8968
oint	-8969
onSt	-8970
onat	-8971
onex	-8972
ongL	-8973
ongM	-8974
oniz	-8975
only	-8976
onne	-8977
onst	-8978
oodI	-8979
oodS	-8980
oodX	-8981
oodf	-8982
ostN	-8983
ower	-8984
pare	-8985
perC	-8986
perM	-8987
plic	-8988
pted	-8989
putS	-8990
putX	-8991
putw	-8992
qual	-8993
rOne	-8994
race	-8995
rayO	-8996
reTo	-8997
reat	-8998
rece	-8999
(12	-9000
129	-9001
ARE	-9002
Blo	-9003
Clo	-9004
Dom	-9005
Ele	-9006
Flo	-9007
Glo	-9008
IAB	-9009
ITB	-9010
OGO	-9011
Ple	-9012
\\\	-9013
cle	-9014
dle	-9015
flo	-9016
glo	-9017
leB	-9018
leE	-9019
leG	-9020
leL	-9021
leN	-9022
leR	-9023
leS	-9024
leW	-9025
leX	-9026
lea	-9027
led	-9028
lef	-9029
leg	-9030
lem	-9031
les	-9032
lev	-9033
lob	-9034
loo	-9035
nde	-9036
oog	-9037
plo	-9038
sRe	-9039
sle	-9040
ule	-9041
ulo	-9042
vle	-9043
▁lo	-9044
▁pL	-9045
▁pu	-9046
1000	-9047
100]	-9048
Alwa	-9049
Prog	-9050
adlo	-9051
amIn	-9052
atom	-9053
cdef	-9054
conc	-9055
ileS	-9056
ming	-9057
oken	-9058
oole	-9059
orce	-9060
ortD	-9061
reen	-9062
rein	-9063
remo	-9064
rent	-9065
reop	-9066
repl	-9067
rese	-9068
ript	-9069
rlen	-9070
roce	-9071
romP	-9072
rray	-9073
rror	-9074
rueO	-9075
sTra	-9076
scpy	-9077
sear	-9078
seed	-9079
sele	-9080
serC	-9081
setF	-9082
setT	-9083
shCo	-9084
shIn	-9085
sock	-9086
sser	-9087
ssib	-9088
stIn	-9089
star	-9090
stdT	-9091
stem	-9092
sten	-9093
stin	-9094
stom	-9095
stoo	-9096
stre	-9097
stuf	-9098
sure	-9099
!=5	-9100
(".	-9101
()"	-9102
()=	-9103
()}	-9104
)),	-9105
.39	-9106
3",	-9107
57_	-9108
6-1	-9109
68_	-9110
<()	-9111
Com	-9112
KST	-9113
LET	-9114
ODU	-9115
Por	-9116
SIN	-9117
SKE	-9118
Wor	-9119
deC	-9120
deH	-9121
del	-9122
des	-9123
ede	-9124
etC	-9125
hor	-9126
ior	-9127
nte	-9128
ode	-9129
orN	-9130
orU	-9131
ora	-9132
ori	-9133
ork	-9134
orl	-9135
orr	-9136
oul	-9137
ptH	-9138
ptN	-9139
ptP	-9140
ptR	-9141
ptS	-9142
suf	-9143
teK	-9144
tor	-9145
unu	-9146
ypt	-9147
▁US	-9148
▁fc	-9149
▁ma	-9150
▁ti	-9151
12);	-9152
IMIT	-9153
dele	-9154
edHa	-9155
elco	-9156
emor	-9157
gero	-9158
hWin	-9159
ifde	-9160
inde	-9161
ingE	-9162
oodA	-9163
oodB	-9164
oodC	-9165
oodF	-9166
oodG	-9167
oodL	-9168
oodO	-9169
orar	-9170
orre	-9171
reed	-9172
serv	-9173
stro	-9174
tLen	-9175
teAr	-9176
teSt	-9177
tect	-9178
tend	-9179
tmpn	-9180
toBe	-9181
tons	-9182
trCh	-9183
ttpS	-9184
ttps	-9185
uInt	-9186
uctP	-9187
uctu	-9188
ultS	-9189
unbo	-9190
unin	-9191
unix	-9192
unlo	-9193
unti	-9194
urce	-9195
ureR	-9196
utSt	-9197
uten	-9198
uter	-9199
("|	-9200
Ini	-9201
Inj	-9202
Sal	-9203
TRU	-9204
_1\	-9205
apt	-9206
cSt	-9207
elc	-9208
pIn	-9209
ptE	-9210
ptG	-9211
ptL	-9212
ptU	-9213
ptV	-9214
pte	-9215
pto	-9216
rAr	-9217
rop	-9218
sEr	-9219
shC	-9220
tIn	-9221
tec	-9222
thi	-9223
toB	-9224
wIn	-9225
▁2.	-9226
▁Ch	-9227
▁HB	-9228
▁ld	-9229
LOGO	-9230
VALI	-9231
VATE	-9232
adSt	-9233
ager	-9234
aryW	-9235
assR	-9236
ding	-9237
ectC	-9238
eten	-9239
ging	-9240
gist	-9241
hing	-9242
ingB	-9243
ingF	-9244
ingG	-9245
ingS	-9246
ingT	-9247
ionU	-9248
leIn	-9249
meIn	-9250
oing	-9251
seIn	-9252
valu	-9253
vari	-9254
verf	-9255
verr	-9256
wMon	-9257
writ	-9258
yBad	-9259
yCon	-9260
yLen	-9261
ying	-9262
ytes	-9263
zing	-9264
▁'\0	-9265
▁(10	-9266
▁5.0	-9267
▁CAL	-9268
▁Cal	-9269
▁Clo	-9270
▁Coo	-9271
▁Cry	-9272
▁ERR	-9273
▁FAL	-9274
▁HDE	-9275
▁Hel	-9276
▁Int	-9277
▁Key	-9278
▁Lon	-9279
▁Nam	-9280
▁Num	-9281
▁Out	-9282
▁PAY	-9283
▁SCN	-9284
▁SLE	-9285
▁Ser	-9286
▁Sin	-9287
▁Tra	-9288
▁ato	-9289
▁bin	-9290
▁blo	-9291
▁bmp	-9292
▁bre	-9293
▁bro	-9294
▁cle	-9295
▁cry	-9296
▁cur	-9297
▁div	-9298
▁dou	-9299
.12	-9300
ANG	-9301
Aut	-9302
IOE	-9303
InM	-9304
Ina	-9305
Inc	-9306
Pay	-9307
Pip	-9308
RCC	-9309
Sta	-9310
Str	-9311
TIO	-9312
UTS	-9313
aSt	-9314
asd	-9315
aut	-9316
bSt	-9317
bed	-9318
ctl	-9319
eIO	-9320
eSt	-9321
etD	-9322
eve	-9323
gur	-9324
idT	-9325
ilt	-9326
oSt	-9327
sSt	-9328
uIn	-9329
utF	-9330
utc	-9331
utp	-9332
utw	-9333
vIn	-9334
wSt	-9335
xIn	-9336
▁ON	-9337
▁SC	-9338
▁dB	-9339
▁ss	-9340
Serv	-9341
Star	-9342
Stat	-9343
Stre	-9344
inSt	-9345
incl	-9346
ipeA	-9347
mall	-9348
ocks	-9349
oidS	-9350
orSt	-9351
ptSt	-9352
reSt	-9353
▁cal	-9354
▁flo	-9355
▁fun	-9356
▁got	-9357
▁ind	-9358
▁ine	-9359
▁isS	-9360
▁jav	-9361
▁lpb	-9362
▁nam	-9363
▁pat	-9364
▁por	-9365
▁pre	-9366
▁pub	-9367
▁rea	-9368
▁rec	-9369
▁red	-9370
▁rem	-9371
▁ren	-9372
▁rep	-9373
▁req	-9374
▁res	-9375
▁ret	-9376
▁rev	-9377
▁sam	-9378
▁sav	-9379
▁sin	-9380
▁sra	-9381
▁toB	-9382
▁unl	-9383
▁wSt	-9384
▁wor	-9385
-07-1	-9386
.123"	-9387
0-1);	-9388
0000;	-9389
01));	-9390
1.");	-9391
100.0	-9392
12");	-9393
2.168	-9394
32_10	-9395
4!");	-9396
4*365	-9397
5_32_	-9398
5_34_	-9399
)(6	-9400
05_	-9401
10\	-9402
GIN	-9403
HIN	-9404
INA	-9405
INC	-9406
INV	-9407
LIN	-9408
NIN	-9409
PAY	-9410
RIN	-9411
Sel	-9412
UIN	-9413
amO	-9414
edT	-9415
etB	-9416
etH	-9417
etL	-9418
etN	-9419
etP	-9420
etS	-9421
etU	-9422
eth	-9423
ets	-9424
etu	-9425
etw	-9426
hic	-9427
met	-9428
pal	-9429
rie	-9430
sul	-9431
tyO	-9432
utd	-9433
▁BU	-9434
▁OP	-9435
▁Ov	-9436
▁el	-9437
(300	-9438
KeyC	-9439
aren	-9440
aseS	-9441
entH	-9442
inut	-9443
ionE	-9444
ionI	-9445
ionV	-9446
ions	-9447
nion	-9448
prep	-9449
ptHa	-9450
serA	-9451
spon	-9452
tion	-9453
▁coo	-9454
▁pra	-9455
▁prn	-9456
50526	-9457
ADDRE	-9458
ALWAY	-9459
Absol	-9460
BTREE	-9461
CHINE	-9462
CONTE	-9463
CaseB	-9464
Caugh	-9465
Const	-9466
Conte	-9467
Cooki	-9468
DEFAU	-9469
Deriv	-9470
ERICS	-9471
EWKEY	-9472
Exter	-9473
FileA	-9474
FileW	-9475
Files	-9476
GoodG	-9477
GoodO	-9478
HashM	-9479
HashP	-9480
INFOA	-9481
ITest	-9482
IntAr	-9483
MAXHO	-9484
MERIC	-9485
MINUT	-9486
MPNAM	-9487
Meter	-9488
NameW	-9489
ORMAL	-9490
OSITE	-9491
PFILE	-9492
PathF	-9493
PipeC	-9494
PipeW	-9495
Progr	-9496
RYPTH	-9497
Reent	-9498
Reque	-9499
10]	-9500
192	-9501
50]	-9502
Det	-9503
Met	-9504
Net	-9505
Rel	-9506
amD	-9507
amE	-9508
amF	-9509
amW	-9510
aul	-9511
cul	-9512
edC	-9513
edH	-9514
edI	-9515
edL	-9516
edP	-9517
etF	-9518
etT	-9519
etd	-9520
etn	-9521
ged	-9522
hHa	-9523
hed	-9524
ict	-9525
iti	-9526
mul	-9527
nul	-9528
pul	-9529
ram	-9530
sam	-9531
sss	-9532
ved	-9533
xed	-9534
zed	-9535
▁CO	-9536
▁FL	-9537
▁PI	-9538
▁am	-9539
▁nf	-9540
56-1	-9541
9543	-9542
abso	-9543
aded	-9544
amed	-9545
amet	-9546
aram	-9547
asse	-9548
ateF	-9549
ched	-9550
edst	-9551
efer	-9552
enam	-9553
ened	-9554
ered	-9555
ferd	-9556
iden	-9557
ifet	-9558
orta	-9559
ptRe	-9560
sfer	-9561
sted	-9562
ulat	-9563
ureD	-9564
FILEH	-9565
NDRED	-9566
SHReg	-9567
SHVAL	-9568
SSERT	-9569
Secon	-9570
SinkB	-9571
State	-9572
TATIC	-9573
TLine	-9574
TRUNC	-9575
TrueO	-9576
UTENV	-9577
UserN	-9578
WChar	-9579
WINDO	-9580
WINST	-9581
WLine	-9582
Wchar	-9583
\\");	-9584
]*"))	-9585
acqui	-9586
adLen	-9587
aderF	-9588
aderS	-9589
ading	-9590
afely	-9591
ageio	-9592
alici	-9593
apach	-9594
arInt	-9595
ashIn	-9596
ataIn	-9597
atalo	-9598
atche	-9599
("2	-9600
)10	-9601
364	-9602
Cal	-9603
ERN	-9604
Enc	-9605
Fal	-9606
Fro	-9607
Wid	-9608
alB	-9609
alF	-9610
alL	-9611
alT	-9612
alh	-9613
ali	-9614
alu	-9615
fal	-9616
fro	-9617
iHe	-9618
icB	-9619
icF	-9620
icG	-9621
idt	-9622
lid	-9623
mal	-9624
pro	-9625
rok	-9626
rou	-9627
rov	-9628
row	-9629
sal	-9630
ssn	-9631
uid	-9632
▁UR	-9633
▁nu	-9634
▁tm	-9635
▁tw	-9636
▁ty	-9637
▁ve	-9638
▁vf	-9639
▁vo	-9640
▁vs	-9641
4");	-9642
HVAL	-9643
NDRE	-9644
ToEn	-9645
alen	-9646
allo	-9647
ateP	-9648
defa	-9649
defg	-9650
edef	-9651
eyRe	-9652
icSt	-9653
icat	-9654
idat	-9655
ileA	-9656
ileN	-9657
inal	-9658
izat	-9659
lace	-9660
plit	-9661
umen	-9662
vect	-9663
vile	-9664
yImp	-9665
|");	-9666
▁Dri	-9667
▁fro	-9668
▁nat	-9669
▁nul	-9670
▁sti	-9671
▁var	-9672
ainer	-9673
archS	-9674
ateHa	-9675
aticF	-9676
atile	-9677
badCh	-9678
badIn	-9679
binar	-9680
bound	-9681
buser	-9682
byteC	-9683
cases	-9684
ccept	-9685
ceLen	-9686
ceptA	-9687
ceptF	-9688
ceptI	-9689
ceptM	-9690
ceptN	-9691
ceptS	-9692
ceptT	-9693
ceptU	-9694
cepti	-9695
cessA	-9696
charA	-9697
charB	-9698
charD	-9699
(-1	-9700
14_	-9701
35)	-9702
Req	-9703
alG	-9704
alU	-9705
alw	-9706
ckA	-9707
ckC	-9708
ckD	-9709
ckR	-9710
ckT	-9711
cka	-9712
cpi	-9713
eal	-9714
eyG	-9715
ndl	-9716
ott	-9717
raw	-9718
shP	-9719
tal	-9720
teO	-9721
teg	-9722
tes	-9723
tra	-9724
ubm	-9725
unb	-9726
▁"0	-9727
▁"1	-9728
▁"2	-9729
▁"5	-9730
▁":	-9731
▁5.	-9732
▁CH	-9733
▁CR	-9734
▁Ci	-9735
▁fC	-9736
▁sa	-9737
▁so	-9738
▁sr	-9739
▁sy	-9740
▁wo	-9741
▁ws	-9742
100.	-9743
IntV	-9744
MITB	-9745
arte	-9746
ayOf	-9747
ckad	-9748
comp	-9749
dirs	-9750
imes	-9751
ipeW	-9752
ithd	-9753
mput	-9754
ndne	-9755
ocko	-9756
oidP	-9757
onte	-9758
ostI	-9759
putF	-9760
putO	-9761
real	-9762
rote	-9763
wput	-9764
▁CIP	-9765
▁Cre	-9766
▁cat	-9767
▁sal	-9768
▁sen	-9769
10000	-9770
aling	-9771
charF	-9772
charL	-9773
charP	-9774
charS	-9775
charT	-9776
charV	-9777
chara	-9778
cooki	-9779
cslen	-9780
ctive	-9781
dGood	-9782
dLine	-9783
dataA	-9784
dataB	-9785
dataC	-9786
dataG	-9787
dataH	-9788
dataL	-9789
dataM	-9790
dataP	-9791
dataR	-9792
dataS	-9793
dataU	-9794
dataV	-9795
datab	-9796
dgood	-9797
eFile	-9798
eLine	-9799
->"	-9800
5_3	-9801
=5)	-9802
ADM	-9803
EAD	-9804
HRe	-9805
Rev	-9806
WEO	-9807
asM	-9808
ckB	-9809
ckn	-9810
ctA	-9811
ctC	-9812
ctG	-9813
ctN	-9814
ctO	-9815
ctT	-9816
cta	-9817
cti	-9818
ita	-9819
ndo	-9820
shS	-9821
tru	-9822
wRe	-9823
▁BO	-9824
▁bO	-9825
▁ba	-9826
▁hd	-9827
▁wa	-9828
()",	-9829
ETAC	-9830
Real	-9831
Reen	-9832
RegO	-9833
Rein	-9834
ackT	-9835
atem	-9836
badC	-9837
chRe	-9838
ctRe	-9839
ctSt	-9840
cter	-9841
darg	-9842
endR	-9843
etRe	-9844
irty	-9845
ockD	-9846
pend	-9847
perl	-9848
tiat	-9849
Betwe	-9850
CharV	-9851
HttpS	-9852
Refer	-9853
addHe	-9854
alueO	-9855
aning	-9856
cking	-9857
ePath	-9858
eader	-9859
eadlo	-9860
ecute	-9861
edLen	-9862
egood	-9863
elect	-9864
emory	-9865
endEr	-9866
endar	-9867
ender	-9868
ening	-9869
entRe	-9870
enten	-9871
entra	-9872
entri	-9873
envir	-9874
erBad	-9875
erflo	-9876
estro	-9877
etDes	-9878
eterm	-9879
etime	-9880
etine	-9881
etwor	-9882
fSize	-9883
famil	-9884
fered	-9885
feren	-9886
fileD	-9887
gLine	-9888
getAd	-9889
goodC	-9890
goodF	-9891
goodI	-9892
goodL	-9893
goodO	-9894
goodS	-9895
goodX	-9896
goodf	-9897
hModu	-9898
hasMo	-9899
,10	-9900
10/	-9901
105	-9902
43_	-9903
580	-9904
ALI	-9905
Cur	-9906
Dou	-9907
MAL	-9908
RUE	-9909
cqu	-9910
oun	-9911
scp	-9912
shM	-9913
snw	-9914
upp	-9915
urs	-9916
urt	-9917
wri	-9918
▁0.	-9919
▁01	-9920
▁fa	-9921
▁fg	-9922
▁fo	-9923
▁fp	-9924
▁fs	-9925
▁fu	-9926
▁ur	-9927
.000	-9928
10);	-9929
INAD	-9930
Pass	-9931
Sock	-9932
TION	-9933
etur	-9934
fied	-9935
hrou	-9936
ileD	-9937
ileX	-9938
iles	-9939
ipul	-9940
neIn	-9941
ockC	-9942
serS	-9943
setM	-9944
spic	-9945
stra	-9946
thro	-9947
urat	-9948
▁"..	-9949
▁"10	-9950
▁HAN	-9951
▁fal	-9952
▁fws	-9953
▁met	-9954
32_32	-9955
TLOCK	-9956
badSt	-9957
hashS	-9958
hostb	-9959
hread	-9960
hrowa	-9961
hrows	-9962
ibleD	-9963
iffer	-9964
ileIn	-9965
ileRe	-9966
inall	-9967
inclu	-9968
ingIn	-9969
ingle	-9970
ingte	-9971
insec	-9972
inser	-9973
intIn	-9974
intSt	-9975
intUn	-9976
intin	-9977
ionSt	-9978
iplic	-9979
irCon	-9980
iring	-9981
istan	-9982
ithin	-9983
itial	-9984
iting	-9985
jectO	-9986
lassN	-9987
lassR	-9988
letRe	-9989
leteO	-9990
licSt	-9991
loadL	-9992
longM	-9993
loseD	-9994
loseK	-9995
lwapi	-9996
ments	-9997
modif	-9998
mplet	-9999
10-	-10000
Iss	-10001
ane	-10002
ave	-10003
dne	-10004
itA	-10005
meA	-10006
nev	-10007
rap	-10008
ssA	-10009
ssR	-10010
ssT	-10011
ssW	-10012
ssa	-10013
ssu	-10014
ueB	-10015
ueG	-10016
ueO	-10017
ues	-10018
veK	-10019
veP	-10020
you	-10021
▁OL	-10022
▁Ob	-10023
100,	-10024
100;	-10025
BadD	-10026
STAN	-10027
URCE	-10028
WRIT	-10029
allV	-10030
ases	-10031
bleB	-10032
chan	-10033
entE	-10034
gger	-10035
larg	-10036
leve	-10037
merg	-10038
oryA	-10039
ostA	-10040
sess	-10041
terv	-10042
ttri	-10043
uest	-10044
ullP	-10045
veIn	-10046
wget	-10047
▁Dir	-10048
▁iss	-10049
100);	-10050
256];	-10051
aticG	-10052
aticR	-10053
aticT	-10054
enfor	-10055
ervIn	-10056
ervle	-10057
essag	-10058
memmo	-10059
multi	-10060
nderf	-10061
neInt	-10062
netap	-10063
nopqr	-10064
ockRe	-10065
ockad	-10066
ocked	-10067
onver	-10068
oodIn	-10069
ookup	-10070
orith	-10071
orted	-10072
ossib	-10073
ostAd	-10074
ourth	-10075
owBad	-10076
pLdap	-10077
pecif	-10078
perti	-10079
ptLen	-10080
ption	-10081
putSt	-10082
puten	-10083
puter	-10084
ractT	-10085
ragma	-10086
raryA	-10087
raver	-10088
reCon	-10089
readB	-10090
readO	-10091
reamB	-10092
reamD	-10093
reamE	-10094
reamF	-10095
reamO	-10096
reamR	-10097
reamS	-10098
reamW	-10099
07_	-10100
AIT	-10101
ARC	-10102
BIT	-10103
Cry	-10104
ITG	-10105
ITe	-10106
RIT	-10107
SIT	-10108
SOC	-10109
TAR	-10110
VAR	-10111
ays	-10112
cry	-10113
dit	-10114
iYP	-10115
itC	-10116
itF	-10117
itW	-10118
mpF	-10119
mpS	-10120
mpl	-10121
mpn	-10122
omp	-10123
sit	-10124
upd	-10125
wit	-10126
xit	-10127
ynt	-10128
▁LL	-10129
()..	-10130
10",	-10131
100)	-10132
DAPM	-10133
MITE	-10134
MITG	-10135
arit	-10136
enUS	-10137
ipeN	-10138
itat	-10139
mpar	-10140
mper	-10141
mpor	-10142
orit	-10143
orry	-10144
stry	-10145
urit	-10146
wMil	-10147
▁"02	-10148
▁(..	-10149
▁wit	-10150
FileN	-10151
FileO	-10152
FileT	-10153
Rever	-10154
UserA	-10155
iable	-10156
icate	-10157
inkEr	-10158
lFile	-10159
lassT	-10160
licat	-10161
oFile	-10162
parti	-10163
reint	-10164
ribut	-10165
ringB	-10166
ringE	-10167
ringF	-10168
ringG	-10169
ringH	-10170
ringL	-10171
ringN	-10172
ringS	-10173
ringT	-10174
ringV	-10175
rings	-10176
rintM	-10177
rintN	-10178
rncpy	-10179
roken	-10180
rorUn	-10181
ructC	-10182
ructF	-10183
ructS	-10184
ryptE	-10185
ryptG	-10186
sByte	-10187
sFile	-10188
sLine	-10189
scape	-10190
secur	-10191
serIn	-10192
setHe	-10193
setRe	-10194
shedC	-10195
shing	-10196
ssage	-10197
ssing	-10198
stLen	-10199
)(2	-10200
0-1	-10201
259	-10202
526	-10203
5_1	-10204
ALU	-10205
Cip	-10206
Dri	-10207
ETA	-10208
ETI	-10209
GET	-10210
Lea	-10211
OCE	-10212
RET	-10213
ROC	-10214
YPT	-10215
cri	-10216
dri	-10217
eEn	-10218
gum	-10219
ish	-10220
lan	-10221
ndi	-10222
nds	-10223
pri	-10224
rip	-10225
riv	-10226
shT	-10227
shV	-10228
shl	-10229
sht	-10230
sri	-10231
umb	-10232
und	-10233
wLo	-10234
▁FI	-10235
▁LD	-10236
▁LI	-10237
▁hM	-10238
▁la	-10239
▁ms	-10240
192.	-10241
Hour	-10242
PNAM	-10243
ateC	-10244
ateD	-10245
ateN	-10246
ateR	-10247
ateS	-10248
ateT	-10249
bleN	-10250
memm	-10251
oble	-10252
uble	-10253
yKey	-10254
▁LON	-10255
▁Lin	-10256
▁mal	-10257
▁mat	-10258
▁siz	-10259
▁wri	-10260
100-1	-10261
ARIAB	-10262
GoodA	-10263
cessi	-10264
erate	-10265
idate	-10266
intTh	-10267
lassI	-10268
onate	-10269
roble	-10270
stant	-10271
stdTh	-10272
sting	-10273
stion	-10274
stood	-10275
sultS	-10276
tLine	-10277
tchar	-10278
teger	-10279
tempn	-10280
textW	-10281
tyOne	-10282
uctCh	-10283
uctor	-10284
ultIn	-10285
uming	-10286
unbin	-10287
uncat	-10288
unded	-10289
unist	-10290
unuse	-10291
uthor	-10292
uting	-10293
ution	-10294
vateR	-10295
vateT	-10296
versi	-10297
wDate	-10298
wGood	-10299
ORD	-10300
Siz	-10301
TAT	-10302
Unv	-10303
\";	-10304
cla	-10305
ecl	-10306
eof	-10307
ian	-10308
iph	-10309
iza	-10310
nsp	-10311
pcr	-10312
scl	-10313
siz	-10314
spa	-10315
spl	-10316
▁SL	-10317
▁SN	-10318
▁SR	-10319
▁TE	-10320
▁TI	-10321
▁TM	-10322
▁Tw	-10323
80\\	-10324
NING	-10325
RING	-10326
Resp	-10327
SOCK	-10328
allA	-10329
assI	-10330
assN	-10331
assO	-10332
assi	-10333
assn	-10334
assw	-10335
bero	-10336
clon	-10337
decl	-10338
eniz	-10339
jack	-10340
mber	-10341
omet	-10342
pass	-10343
resp	-10344
▁SOC	-10345
▁Sle	-10346
▁ass	-10347
-8"))	-10348
32_12	-10349
Close	-10350
ListP	-10351
PINFO	-10352
READM	-10353
Reall	-10354
Table	-10355
ables	-10356
asser	-10357
eable	-10358
erber	-10359
rintl	-10360
ructP	-10361
uplic	-10362
wgood	-10363
witch	-10364
woint	-10365
wordC	-10366
wordL	-10367
wordP	-10368
wordV	-10369
xpect	-10370
xtInt	-10371
yload	-10372
yname	-10373
▁(...	-10374
▁COUN	-10375
▁Clon	-10376
▁Data	-10377
▁HAND	-10378
▁INAD	-10379
▁Inte	-10380
▁Link	-10381
▁Rand	-10382
▁SENT	-10383
▁SRCC	-10384
▁Serv	-10385
▁badC	-10386
▁badD	-10387
▁badG	-10388
▁badL	-10389
▁badO	-10390
▁badP	-10391
▁badS	-10392
▁badV	-10393
▁desk	-10394
▁expi	-10395
▁fget	-10396
▁fput	-10397
▁func	-10398
▁gBad	-10399
*24	-10400
73_	-10401
79_	-10402
ADA	-10403
ADE	-10404
ADO	-10405
BeD	-10406
Dig	-10407
Hig	-10408
NST	-10409
OAD	-10410
Pub	-10411
SAD	-10412
eig	-10413
ige	-10414
ofD	-10415
ubj	-10416
▁AD	-10417
▁Er	-10418
▁lp	-10419
50],	-10420
Sour	-10421
inkG	-10422
istN	-10423
izeI	-10424
izeT	-10425
nist	-10426
ofst	-10427
ourt	-10428
rink	-10429
rorU	-10430
sink	-10431
sist	-10432
sour	-10433
ssig	-10434
stEr	-10435
tils	-10436
ubst	-10437
uldn	-10438
xist	-10439
your	-10440
▁PRO	-10441
▁Reg	-10442
▁neg	-10443
▁sub	-10444
TRANT	-10445
alize	-10446
assig	-10447
elper	-10448
imeTo	-10449
imple	-10450
isten	-10451
loseH	-10452
loses	-10453
mpari	-10454
mplic	-10455
nectN	-10456
nectS	-10457
orage	-10458
ryptA	-10459
yHash	-10460
▁getD	-10461
▁hDes	-10462
▁ifst	-10463
▁intA	-10464
▁intB	-10465
▁intF	-10466
▁intG	-10467
▁intI	-10468
▁intN	-10469
▁intO	-10470
▁intP	-10471
▁intR	-10472
▁intS	-10473
▁intT	-10474
▁intU	-10475
▁intV	-10476
▁link	-10477
▁mult	-10478
▁prep	-10479
▁prin	-10480
▁real	-10481
▁remo	-10482
▁resp	-10483
▁runn	-10484
▁scre	-10485
▁sele	-10486
▁sour	-10487
▁stdT	-10488
▁stil	-10489
▁strd	-10490
▁stre	-10491
▁stuf	-10492
▁thro	-10493
▁wcsd	-10494
()"));	-10495
123"))	-10496
12345;	-10497
135_12	-10498
168.39	-10499
0';	-10500
327	-10501
328	-10502
329	-10503
32\	-10504
619	-10505
68.	-10506
832	-10507
FSI	-10508
Fun	-10509
KTE	-10510
PST	-10511
Pel	-10512
STE	-10513
STN	-10514
TEX	-10515
emD	-10516
emR	-10517
ema	-10518
emm	-10519
fun	-10520
nsa	-10521
nti	-10522
opN	-10523
ows	-10524
sav	-10525
til	-10526
tim	-10527
unT	-10528
uni	-10529
unn	-10530
▁NE	-10531
▁hC	-10532
▁jo	-10533
▁op	-10534
32);	-10535
BadO	-10536
Form	-10537
Main	-10538
NUMB	-10539
ainF	-10540
ains	-10541
arti	-10542
cure	-10543
emse	-10544
gain	-10545
getM	-10546
geth	-10547
letB	-10548
sPer	-10549
sign	-10550
unct	-10551
unde	-10552
uper	-10553
urns	-10554
xtTo	-10555
▁INC	-10556
▁INF	-10557
▁INV	-10558
[100*	-10559
asing	-10560
ember	-10561
enign	-10562
eturn	-10563
ivate	-10564
lassn	-10565
loseU	-10566
loseW	-10567
setEx	-10568
ssign	-10569
tiall	-10570
using	-10571
vateF	-10572
windo	-10573
▁ERAN	-10574
▁form	-10575
▁newD	-10576
▁newP	-10577
▁sign	-10578
)(6553	-10579
2.168.	-10580
:41:00	-10581
ACKLOG	-10582
AClean	-10583
ARNING	-10584
ArrayO	-10585
Atomic	-10586
Behavi	-10587
ByName	-10588
BytesW	-10589
ClassI	-10590
Config	-10591
Destro	-10592
Encode	-10593
Except	-10594
FILEHE	-10595
FileRe	-10596
Finall	-10597
Import	-10598
InputS	-10599
/12	-10600
012	-10601
029	-10602
112	-10603
121	-10604
122	-10605
124	-10606
126	-10607
ACC	-10608
ATT	-10609
ATU	-10610
Att	-10611
CAT	-10612
CHE	-10613
DAT	-10614
EAT	-10615
GOO	-10616
Htt	-10617
LOR	-10618
MAC	-10619
MAK	-10620
MAN	-10621
NOR	-10622
ODE	-10623
OMA	-10624
ORK	-10625
TOD	-10626
VAT	-10627
[]>	-10628
csc	-10629
csn	-10630
eak	-10631
htt	-10632
sol	-10633
ttl	-10634
tto	-10635
▁EI	-10636
▁GO	-10637
▁MA	-10638
10];	-10639
ATIO	-10640
ITMA	-10641
VALU	-10642
afel	-10643
arts	-10644
dwLo	-10645
emcp	-10646
getE	-10647
getH	-10648
getI	-10649
getL	-10650
getN	-10651
getQ	-10652
getR	-10653
getS	-10654
getT	-10655
getW	-10656
getw	-10657
igAt	-10658
netA	-10659
rayH	-10660
rayS	-10661
rong	-10662
sett	-10663
stdo	-10664
uare	-10665
uctC	-10666
▁"12	-10667
▁(12	-10668
▁PIP	-10669
▁tak	-10670
SinkG	-10671
aSink	-10672
asink	-10673
eSink	-10674
ecret	-10675
getIn	-10676
geten	-10677
reque	-10678
ySink	-10679
KeyExW	-10680
KeyLen	-10681
KeyPtr	-10682
KeyRef	-10683
LONGLO	-10684
MAXSER	-10685
Messag	-10686
MoreTo	-10687
OffBit	-10688
Operat	-10689
Proble	-10690
Relian	-10691
Remote	-10692
SEADDR	-10693
TimeIn	-10694
ToFile	-10695
UserIn	-10696
YSTEMT	-10697
[100-1	-10698
[65536	-10699
!";	-10700
0];	-10701
44_	-10702
50*	-10703
54_	-10704
56_	-10705
74_	-10706
94_	-10707
97_	-10708
ana	-10709
ani	-10710
ann	-10711
anu	-10712
csd	-10713
xtD	-10714
xtL	-10715
xtW	-10716
▁1.	-10717
▁11	-10718
▁14	-10719
▁1]	-10720
▁ap	-10721
▁hD	-10722
56";	-10723
IntA	-10724
IntC	-10725
PROT	-10726
ackG	-10727
anti	-10728
badD	-10729
badG	-10730
badL	-10731
ctan	-10732
ebad	-10733
elim	-10734
iceC	-10735
icen	-10736
lice	-10737
oFin	-10738
oice	-10739
reeL	-10740
wapi	-10741
wbad	-10742
xtIn	-10743
xten	-10744
xter	-10745
▁sqr	-10746
256);	-10747
32));	-10748
Faile	-10749
TPROV	-10750
adInt	-10751
andom	-10752
anger	-10753
ashed	-10754
destr	-10755
galAr	-10756
ished	-10757
raryW	-10758
riteO	-10759
seInt	-10760
stder	-10761
xtend	-10762
▁Cook	-10763
Sizeof	-10764
ackBad	-10765
adFile	-10766
adLine	-10767
adSink	-10768
adable	-10769
adding	-10770
aderIn	-10771
aitFor	-10772
alhost	-10773
alling	-10774
alueOf	-10775
amingE	-10776
apture	-10777
arLine	-10778
arithm	-10779
arrayH	-10780
arsing	-10781
artext	-10782
arting	-10783
aseCon	-10784
ashing	-10785
atLine	-10786
atalog	-10787
atches	-10788
athCon	-10789
aticSt	-10790
ationA	-10791
ationE	-10792
ationV	-10793
bjectN	-10794
cMemDC	-10795
calcul	-10796
calend	-10797
ccurre	-10798
ceiver	-10799
01_	-10800
191	-10801
31_	-10802
5))	-10803
51_	-10804
71_	-10805
91_	-10806
ENA	-10807
ENC	-10808
ENE	-10809
EOF	-10810
Exh	-10811
SEN	-10812
SHR	-10813
TEN	-10814
UMB	-10815
\">	-10816
otd	-10817
▁hU	-10818
404,	-10819
ETEN	-10820
STEN	-10821
addC	-10822
addH	-10823
ameA	-10824
ameW	-10825
entT	-10826
entl	-10827
func	-10828
hent	-10829
sent	-10830
tInt	-10831
tent	-10832
vent	-10833
verw	-10834
yadd	-10835
▁500	-10836
▁BIT	-10837
▁GLO	-10838
▁HKE	-10839
▁aes	-10840
▁bou	-10841
▁dom	-10842
addRe	-10843
addit	-10844
addre	-10845
amein	-10846
amesp	-10847
areSt	-10848
enKey	-10849
ename	-10850
enter	-10851
erent	-10852
ident	-10853
ilder	-10854
lassO	-10855
leare	-10856
mpInt	-10857
mpare	-10858
stent	-10859
ument	-10860
veInt	-10861
ypipe	-10862
▁Writ	-10863
▁sent	-10864
▁sess	-10865
Interv	-10866
OptVal	-10867
ationN	-10868
ationT	-10869
ationW	-10870
ations	-10871
cation	-10872
cement	-10873
ceptIO	-10874
ceptIn	-10875
chable	-10876
charSt	-10877
ctLine	-10878
ctions	-10879
dataRe	-10880
derBad	-10881
ecrypt	-10882
edLine	-10883
edOper	-10884
edPipe	-10885
edUser	-10886
emmove	-10887
ending	-10888
eneric	-10889
entLen	-10890
entine	-10891
erCase	-10892
erefer	-10893
erform	-10894
erived	-10895
ermiss	-10896
ertion	-10897
etDesk	-10898
etFile	-10899
(30	-10900
193	-10901
195	-10902
196	-10903
199	-10904
1];	-10905
319	-10906
567	-10907
5];	-10908
7.0	-10909
CLO	-10910
EEN	-10911
ERA	-10912
ERV	-10913
KLO	-10914
LON	-10915
LOO	-10916
LOS	-10917
MER	-10918
PFI	-10919
Som	-10920
YLO	-10921
esc	-10922
ipl	-10923
kup	-10924
mes	-10925
oes	-10926
pos	-10927
▁BY	-10928
0));	-10929
0-1]	-10930
1));	-10931
2-1]	-10932
3));	-10933
6));	-10934
HAND	-10935
ITER	-10936
LOAD	-10937
Syst	-10938
lper	-10939
perA	-10940
perB	-10941
perG	-10942
pert	-10943
▁CLO	-10944
▁SEN	-10945
▁Squ	-10946
*2-1]	-10947
KEWOR	-10948
aData	-10949
mentH	-10950
mment	-10951
oData	-10952
param	-10953
perat	-10954
readL	-10955
rintW	-10956
unter	-10957
usion	-10958
||");	-10959
▁INCL	-10960
▁repl	-10961
▁uInt	-10962
ABCDEF	-10963
CryptA	-10964
DataIn	-10965
INFOHE	-10966
MPWAIT	-10967
ersist	-10968
ervInf	-10969
esFile	-10970
except	-10971
eyName	-10972
goodIn	-10973
goodSt	-10974
herent	-10975
iceLen	-10976
ientRe	-10977
igning	-10978
import	-10979
intern	-10980
inting	-10981
inttyp	-10982
ission	-10983
itable	-10984
ithout	-10985
iveKey	-10986
ixedst	-10987
izable	-10988
izeofD	-10989
lation	-10990
leLine	-10991
leName	-10992
leaseD	-10993
lename	-10994
licate	-10995
lobalB	-10996
locked	-10997
logged	-10998
loseHa	-10999
5_0	-11000
RES	-11001
VID	-11002
WAY	-11003
XXX	-11004
_25	-11005
cap	-11006
fir	-11007
meM	-11008
vap	-11009
wap	-11010
▁21	-11011
▁22	-11012
▁25	-11013
▁PO	-11014
32_0	-11015
Abso	-11016
HABC	-11017
HWIN	-11018
INUT	-11019
KeyA	-11020
LINK	-11021
WIND	-11022
ectB	-11023
ectG	-11024
ectO	-11025
ects	-11026
etap	-11027
ntTh	-11028
nted	-11029
requ	-11030
setA	-11031
setC	-11032
setD	-11033
setE	-11034
setH	-11035
setL	-11036
setS	-11037
stdi	-11038
veme	-11039
▁150	-11040
▁her	-11041
-1);}	-11042
Count	-11043
GoodL	-11044
biBit	-11045
ected	-11046
jectG	-11047
mebad	-11048
quare	-11049
rando	-11050
spect	-11051
wordA	-11052
wordB	-11053
wordG	-11054
wordH	-11055
wordM	-11056
wordS	-11057
words	-11058
▁1000	-11059
▁1003	-11060
▁SNPR	-11061
▁putw	-11062
▁strc	-11063
▁strl	-11064
▁strn	-11065
▁strt	-11066
▁stru	-11067
▁vect	-11068
asswor	-11069
losing	-11070
maxabs	-11071
megood	-11072
mitted	-11073
mpData	-11074
mpFile	-11075
mporta	-11076
myUser	-11077
nected	-11078
netine	-11079
ntLock	-11080
ockadd	-11081
ocketA	-11082
ocketF	-11083
ocking	-11084
oidPtr	-11085
oldbad	-11086
onUser	-11087
onment	-11088
onvers	-11089
oodInt	-11090
ookups	-11091
oolean	-11092
opName	-11093
orName	-11094
ormatt	-11095
orrect	-11096
ostAdd	-11097
ostent	-11098
oubleN	-11099
203	-11100
CDE	-11101
DEC	-11102
HDE	-11103
SEE	-11104
Sup	-11105
UDE	-11106
Unu	-11107
cHa	-11108
isS	-11109
oHa	-11110
omm	-11111
pHa	-11112
saf	-11113
tup	-11114
wsa	-11115
▁Ar	-11116
▁DE	-11117
▁Ha	-11118
50];	-11119
ALSE	-11120
DEMA	-11121
HEAD	-11122
Miss	-11123
OGON	-11124
SEAD	-11125
[255	-11126
alAr	-11127
anup	-11128
arAr	-11129
etHa	-11130
itAr	-11131
setP	-11132
uctF	-11133
uctL	-11134
uctS	-11135
uctT	-11136
uplo	-11137
yteC	-11138
yteK	-11139
▁pHa	-11140
▁sup	-11141
▁wsa	-11142
alRet	-11143
cessf	-11144
deHex	-11145
ectAr	-11146
illis	-11147
intAr	-11148
jects	-11149
keniz	-11150
ostIP	-11151
ransp	-11152
readA	-11153
readC	-11154
readD	-11155
readT	-11156
reads	-11157
sTrue	-11158
▁unix	-11159
ArrayH	-11160
ArrayS	-11161
Author	-11162
alTrue	-11163
charAr	-11164
dataAr	-11165
dataHa	-11166
dowsSt	-11167
erread	-11168
mentHa	-11169
ourceL	-11170
ources	-11171
parseD	-11172
plyBad	-11173
postde	-11174
printM	-11175
printN	-11176
printl	-11177
ptData	-11178
rArray	-11179
rFalse	-11180
ration	-11181
reFile	-11182
reamIn	-11183
reamRe	-11184
reateC	-11185
reateW	-11186
reated	-11187
rector	-11188
reopen	-11189
ringIn	-11190
ringte	-11191
rintSt	-11192
riting	-11193
rocess	-11194
roperl	-11195
roying	-11196
ryptEn	-11197
ryptHa	-11198
sBytes	-11199
02_	-11200
03_	-11201
06_	-11202
16_	-11203
33_	-11204
52_	-11205
53_	-11206
62_	-11207
63_	-11208
72_	-11209
82_	-11210
86_	-11211
96_	-11212
Fix	-11213
Fou	-11214
ILE	-11215
TEM	-11216
acq	-11217
iou	-11218
ixD	-11219
oug	-11220
yUn	-11221
▁-2	-11222
▁qu	-11223
)(25	-11224
10/2	-11225
32_1	-11226
Ille	-11227
MemD	-11228
Unic	-11229
Unlo	-11230
\"10	-11231
acce	-11232
ackB	-11233
acka	-11234
ageD	-11235
iveK	-11236
iveP	-11237
libr	-11238
lloc	-11239
newD	-11240
newX	-11241
rcpy	-11242
sive	-11243
slen	-11244
▁fix	-11245
▁fou	-11246
▁inc	-11247
▁inv	-11248
5==5)	-11249
OMAIN	-11250
YPels	-11251
cessW	-11252
emcpy	-11253
erive	-11254
gerou	-11255
locat	-11256
newIn	-11257
ocess	-11258
ostde	-11259
rolle	-11260
yaddr	-11261
▁inde	-11262
((10+1	-11263
DEMAIN	-11264
OfLoop	-11265
XPathF	-11266
fprint	-11267
lobalL	-11268
memset	-11269
newbad	-11270
ontain	-11271
ostinc	-11272
ropert	-11273
sError	-11274
salted	-11275
serial	-11276
sgfree	-11277
shData	-11278
slated	-11279
stance	-11280
stanti	-11281
starts	-11282
stuser	-11283
teFile	-11284
teLine	-11285
topWin	-11286
trolle	-11287
ueGood	-11288
ufferd	-11289
umberF	-11290
umberO	-11291
unTest	-11292
untime	-11293
upload	-11294
utable	-11295
utchar	-11296
utputO	-11297
verMan	-11298
verrun	-11299
00_	-11300
1,2	-11301
2.0	-11302
20_	-11303
56;	-11304
5_2	-11305
5_4	-11306
5_6	-11307
60_	-11308
65_	-11309
70_	-11310
80_	-11311
95_	-11312
OND	-11313
aft	-11314
fHe	-11315
geB	-11316
geD	-11317
got	-11318
iCo	-11319
mHe	-11320
nge	-11321
oHe	-11322
otF	-11323
otS	-11324
vil	-11325
▁Ab	-11326
▁He	-11327
▁hW	-11328
▁he	-11329
▁ho	-11330
*"))	-11331
ADON	-11332
DWOR	-11333
Deri	-11334
Heig	-11335
LLON	-11336
ONST	-11337
athF	-11338
deHe	-11339
geIO	-11340
oten	-11341
xpre	-11342
▁Ass	-11343
▁Att	-11344
▁hHa	-11345
ALLOC	-11346
HREAD	-11347
PathA	-11348
alsTo	-11349
getHe	-11350
ilege	-11351
jectB	-11352
jectC	-11353
ryptC	-11354
ryptD	-11355
ryptP	-11356
rypto	-11357
▁GetD	-11358
▁MKTE	-11359
50-1);	-11360
Expect	-11361
READON	-11362
assOne	-11363
ccessf	-11364
ccessi	-11365
ryptRe	-11366
rypted	-11367
should	-11368
ubject	-11369
vertTo	-11370
verted	-11371
vprint	-11372
wMilli	-11373
wordRe	-11374
wprint	-11375
writeO	-11376
xample	-11377
xceptA	-11378
xceptF	-11379
xceptI	-11380
xceptM	-11381
xceptN	-11382
xceptS	-11383
xceptT	-11384
xceptU	-11385
xcepti	-11386
xtLong	-11387
xtends	-11388
ypedef	-11389
ystemR	-11390
ystemT	-11391
yteKey	-11392
▁(-2.0	-11393
▁100*2	-11394
▁100-1	-11395
▁Cooki	-11396
▁FileN	-11397
▁FileO	-11398
▁INADD	-11399
))-	-11400
)).	-11401
Bom	-11402
Cop	-11403
HTT	-11404
Mil	-11405
PPR	-11406
PRI	-11407
PRN	-11408
Syn	-11409
TPR	-11410
\\.	-11411
biB	-11412
cop	-11413
dop	-11414
fil	-11415
fop	-11416
hil	-11417
ilu	-11418
iol	-11419
opA	-11420
opE	-11421
opW	-11422
opq	-11423
pop	-11424
tom	-11425
uil	-11426
wil	-11427
wop	-11428
▁79	-11429
▁Im	-11430
9640	-11431
BadF	-11432
CONN	-11433
CONT	-11434
Cont	-11435
GDIO	-11436
PRIN	-11437
\\\\	-11438
ageB	-11439
amil	-11440
cons	-11441
csch	-11442
geio	-11443
iost	-11444
itho	-11445
mith	-11446
ndom	-11447
ongS	-11448
ttom	-11449
winc	-11450
▁Imp	-11451
▁com	-11452
▁fil	-11453
▁fop	-11454
▁pop	-11455
▁vsn	-11456
▁xml	-11457
SECON	-11458
TestP	-11459
ageIO	-11460
arith	-11461
cscpy	-11462
jectN	-11463
ructL	-11464
ructT	-11465
ructu	-11466
secon	-11467
truct	-11468
ultil	-11469
▁Ille	-11470
▁wcsc	-11471
▁wcsn	-11472
CryptP	-11473
ackage	-11474
ethods	-11475
mplete	-11476
▁INCLU	-11477
▁INVAL	-11478
▁Image	-11479
▁Inter	-11480
▁OMITB	-11481
▁OMITG	-11482
▁Reent	-11483
▁SHREG	-11484
▁SRCCO	-11485
▁START	-11486
▁Throw	-11487
▁attri	-11488
▁badIn	-11489
▁badSt	-11490
▁bound	-11491
▁charA	-11492
▁charD	-11493
▁charF	-11494
▁charP	-11495
▁charS	-11496
▁charT	-11497
▁charV	-11498
▁chara	-11499
0].	-11500
1),	-11501
20]	-11502
99_	-11503
BLE	-11504
BUT	-11505
EAM	-11506
Fir	-11507
SSW	-11508
TRI	-11509
Vir	-11510
WCh	-11511
eci	-11512
eyA	-11513
eyC	-11514
eyE	-11515
eyN	-11516
eyP	-11517
ird	-11518
irs	-11519
irt	-11520
pir	-11521
uir	-11522
vir	-11523
▁NM	-11524
0]);	-11525
Conf	-11526
ENAM	-11527
KeyP	-11528
PFIL	-11529
PPRO	-11530
Runn	-11531
biCl	-11532
estC	-11533
estK	-11534
irre	-11535
rCon	-11536
sers	-11537
▁(25	-11538
▁FIL	-11539
▁Par	-11540
▁env	-11541
▁toP	-11542
▁tok	-11543
0]));	-11544
FILEN	-11545
FILET	-11546
Found	-11547
Hasht	-11548
Initi	-11549
cHash	-11550
elete	-11551
estin	-11552
eyLen	-11553
fileX	-11554
oHash	-11555
rintf	-11556
sInit	-11557
utenv	-11558
▁Hash	-11559
CRYPTH	-11560
edHash	-11561
esting	-11562
etHash	-11563
lobalG	-11564
nprint	-11565
ported	-11566
tially	-11567
▁badVa	-11568
▁cooki	-11569
▁creat	-11570
▁dataA	-11571
▁dataB	-11572
▁dataC	-11573
▁dataG	-11574
▁dataH	-11575
▁dataL	-11576
▁dataM	-11577
▁dataP	-11578
▁dataR	-11579
▁dataS	-11580
▁dataU	-11581
▁dataV	-11582
▁datab	-11583
▁enfor	-11584
▁fileD	-11585
▁goodC	-11586
▁goodL	-11587
▁goodO	-11588
▁goodS	-11589
▁grant	-11590
▁hModu	-11591
▁hashS	-11592
▁intAr	-11593
▁intUn	-11594
▁mainF	-11595
▁modif	-11596
▁pHand	-11597
▁pLdap	-11598
▁princ	-11599
(15	-11600
88_	-11601
DRE	-11602
HRE	-11603
OWS	-11604
REC	-11605
REM	-11606
REU	-11607
YPE	-11608
ayo	-11609
exA	-11610
exW	-11611
ipA	-11612
sTo	-11613
Coun	-11614
KeyS	-11615
REAT	-11616
REEN	-11617
SKey	-11618
STRE	-11619
Sede	-11620
WSAD	-11621
aris	-11622
balB	-11623
balF	-11624
balL	-11625
netd	-11626
oryN	-11627
sKey	-11628
serN	-11629
serW	-11630
seri	-11631
sern	-11632
tKey	-11633
utex	-11634
▁0,0	-11635
▁Two	-11636
▁two	-11637
CLOSE	-11638
CaseC	-11639
alues	-11640
balUn	-11641
ctang	-11642
fByte	-11643
iByte	-11644
nextD	-11645
oByte	-11646
rectl	-11647
wByte	-11648
woInt	-11649
▁larg	-11650
▁stdo	-11651
▁syst	-11652
STNAME	-11653
adByte	-11654
estKey	-11655
ithmet	-11656
lobalA	-11657
lobalF	-11658
reateS	-11659
riptor	-11660
seByte	-11661
xtByte	-11662
▁prote	-11663
▁readO	-11664
▁reint	-11665
▁repre	-11666
▁reque	-11667
▁rever	-11668
▁slash	-11669
▁state	-11670
▁strch	-11671
▁strcp	-11672
▁tabin	-11673
▁tempn	-11674
▁voidS	-11675
▁voidT	-11676
▁wcsch	-11677
▁withd	-11678
)(100-1	-11679
1234");	-11680
1234567	-11681
127.0.0	-11682
ANTLOCK	-11683
ARIABLE	-11684
ASEPATH	-11685
ArrayHe	-11686
BPublic	-11687
BackBad	-11688
Bufferd	-11689
BytesRe	-11690
CRYPTKE	-11691
Constan	-11692
Convers	-11693
CryptAc	-11694
CryptEn	-11695
Current	-11696
ERICSER	-11697
Encoded	-11698
Exhaust	-11699
09_	-11700
27_	-11701
350	-11702
47_	-11703
49_	-11704
50)	-11705
500	-11706
504	-11707
59_	-11708
69_	-11709
77_	-11710
850	-11711
87_	-11712
Day	-11713
Lib	-11714
TRA	-11715
fws	-11716
hTh	-11717
ntL	-11718
ntT	-11719
nta	-11720
rto	-11721
sws	-11722
toC	-11723
toL	-11724
wsc	-11725
wsy	-11726
(150	-11727
32_4	-11728
Abst	-11729
BadC	-11730
Cook	-11731
ESSA	-11732
IBit	-11733
KEYS	-11734
KeyE	-11735
KeyW	-11736
Sett	-11737
URIS	-11738
cook	-11739
dexO	-11740
eref	-11741
minu	-11742
nter	-11743
toHe	-11744
verM	-11745
wsSt	-11746
▁-1.	-11747
▁250	-11748
▁sws	-11749
50-1]	-11750
FromP	-11751
KeyRe	-11752
NECTE	-11753
SetIn	-11754
TimeM	-11755
arent	-11756
dopen	-11757
index	-11758
tract	-11759
▁Abst	-11760
▁cook	-11761
▁wher	-11762
1234",	-11763
IntArg	-11764
ateKey	-11765
opened	-11766
serSet	-11767
stract	-11768
toByte	-11769
▁param	-11770
▁strto	-11771
Accessi	-11772
BadBase	-11773
FileNot	-11774
HashPar	-11775
Initial	-11776
InputSt	-11777
NumberF	-11778
ObjectC	-11779
ObjectN	-11780
PathCon	-11781
Prepare	-11782
Propert	-11783
Request	-11784
ResultS	-11785
Sentine	-11786
SlashIn	-11787
SocketA	-11788
SocketF	-11789
StreamS	-11790
StreamW	-11791
StringB	-11792
StringE	-11793
StringG	-11794
StringL	-11795
StringT	-11796
Strings	-11797
StructS	-11798
Support	-11799
HAN	-11800
PLE	-11801
RAN	-11802
RCP	-11803
URC	-11804
URR	-11805
URS	-11806
ecu	-11807
ipi	-11808
tTo	-11809
xec	-11810
▁'/	-11811
▁ob	-11812
▁oc	-11813
▁ol	-11814
32_6	-11815
80);	-11816
ERAN	-11817
SHAR	-11818
TRAN	-11819
URLE	-11820
anip	-11821
augh	-11822
ecif	-11823
ecur	-11824
hree	-11825
memc	-11826
omma	-11827
oops	-11828
syst	-11829
wtmp	-11830
▁Cip	-11831
▁FIN	-11832
▁cip	-11833
▁pip	-11834
80");	-11835
FINIT	-11836
GLONG	-11837
GoodB	-11838
GoodC	-11839
IntsC	-11840
attri	-11841
gGood	-11842
ilure	-11843
intma	-11844
ontro	-11845
viron	-11846
wsyst	-11847
xChar	-11848
yGood	-11849
▁Syst	-11850
▁swit	-11851
Calend	-11852
Contro	-11853
IntsSt	-11854
alGood	-11855
bjectB	-11856
bjectC	-11857
bjectG	-11858
bjects	-11859
contro	-11860
erGood	-11861
icGood	-11862
interp	-11863
itting	-11864
namein	-11865
netAdd	-11866
ontext	-11867
stname	-11868
▁0.000	-11869
▁INFIN	-11870
GetFile	-11871
ToMulti	-11872
TwoInts	-11873
UNLIMIT	-11874
UserInf	-11875
UserSet	-11876
\\\\.\\	-11877
acceptS	-11878
acement	-11879
achable	-11880
ackGood	-11881
allocat	-11882
ameterS	-11883
amingEn	-11884
arArray	-11885
arCheck	-11886
areFile	-11887
arrayHe	-11888
ashData	-11889
ateFile	-11890
ateHash	-11891
ateSelf	-11892
aticRet	-11893
badXXXX	-11894
balTrue	-11895
bleLine	-11896
capeXml	-11897
checked	-11898
contain	-11899
08_	-11900
38_	-11901
BAC	-11902
HAC	-11903
SSL	-11904
mod	-11905
rCh	-11906
xCh	-11907
▁Fi	-11908
▁HU	-11909
▁NU	-11910
▁rc	-11911
9544	-11912
ACle	-11913
BadB	-11914
BadS	-11915
Chan	-11916
SSER	-11917
TPRO	-11918
acqu	-11919
arCh	-11920
dBad	-11921
deCh	-11922
emmo	-11923
gBad	-11924
heck	-11925
quar	-11926
quer	-11927
toCh	-11928
vwxy	-11929
wBad	-11930
wind	-11931
▁Net	-11932
▁PAT	-11933
▁Ple	-11934
▁WSA	-11935
Acqui	-11936
CharT	-11937
Clean	-11938
Imper	-11939
Lower	-11940
alBad	-11941
artup	-11942
doFin	-11943
ecked	-11944
icBad	-11945
intty	-11946
olete	-11947
osKey	-11948
serCh	-11949
subst	-11950
ueBad	-11951
▁WSAD	-11952
▁requ	-11953
CryptC	-11954
CryptD	-11955
CryptE	-11956
CryptG	-11957
StackT	-11958
goodCh	-11959
hCrypt	-11960
loaded	-11961
moveme	-11962
parseF	-11963
parseL	-11964
parseS	-11965
perBad	-11966
ructCh	-11967
▁badCh	-11968
▁byteC	-11969
▁faile	-11970
▁intTh	-11971
StructL	-11972
StructP	-11973
Structu	-11974
cretKey	-11975
cstombs	-11976
ctInput	-11977
dBuffer	-11978
dString	-11979
dataCon	-11980
decoded	-11981
deleteO	-11982
derGood	-11983
destLen	-11984
dexcept	-11985
dwBytes	-11986
eSource	-11987
ecuting	-11988
ecution	-11989
edirect	-11990
encrypt	-11991
environ	-11992
eration	-11993
erviceC	-11994
ervletB	-11995
erwrite	-11996
essageB	-11997
essionI	-11998
estCase	-11999
(20	-12000
+(2	-12001
18_	-12002
58_	-12003
IsM	-12004
TKE	-12005
WKE	-12006
ibl	-12007
ibr	-12008
ibs	-12009
oOr	-12010
▁HC	-12011
▁HD	-12012
▁HK	-12013
▁HW	-12014
25);	-12015
Befo	-12016
DesC	-12017
EWOR	-12018
GLON	-12019
biHe	-12020
dapC	-12021
lute	-12022
righ	-12023
subm	-12024
utdo	-12025
uteQ	-12026
▁...	-12027
▁exp	-12028
(1000	-12029
5!=5)	-12030
ETWOR	-12031
ListN	-12032
LongL	-12033
SEADD	-12034
SSWOR	-12035
conso	-12036
earch	-12037
erOne	-12038
ernet	-12039
inary	-12040
inetA	-12041
inute	-12042
leDes	-12043
odulo	-12044
pHand	-12045
rever	-12046
uteQu	-12047
verif	-12048
verse	-12049
▁BadB	-12050
▁exec	-12051
▁mess	-12052
ClassR	-12053
Conver	-12054
LastMo	-12055
Linked	-12056
OneInt	-12057
PROVID	-12058
actory	-12059
alidat	-12060
edList	-12061
linked	-12062
mlFile	-12063
networ	-12064
reateD	-12065
reateM	-12066
reateN	-12067
reateP	-12068
reateT	-12069
reateU	-12070
riterP	-12071
solete	-12072
▁entri	-12073
▁fileN	-12074
▁longM	-12075
alidate	-12076
edClass	-12077
estcase	-12078
estruct	-12079
etInput	-12080
fileDes	-12081
gBuffer	-12082
gCreate	-12083
gNumber	-12084
gStruct	-12085
getByte	-12086
getInet	-12087
globalB	-12088
globalF	-12089
globalG	-12090
hostInf	-12091
ibraryW	-12092
ication	-12093
idation	-12094
ientLen	-12095
ignment	-12096
ination	-12097
inetAdd	-12098
ingLine	-12099
600	-12100
All	-12101
OfL	-12102
ToB	-12103
ToE	-12104
ToS	-12105
ask	-12106
ell	-12107
las	-12108
▁31	-12109
▁BA	-12110
▁XX	-12111
1]);	-12112
60*2	-12113
CDEF	-12114
GINT	-12115
ToSe	-12116
Trap	-12117
Vari	-12118
_512	-12119
asic	-12120
essa	-12121
mkst	-12122
nchr	-12123
uery	-12124
BadSe	-12125
Chara	-12126
ETENV	-12127
IVATE	-12128
Multi	-12129
PBYTE	-12130
REATE	-12131
ateSe	-12132
ctory	-12133
intSe	-12134
oidSe	-12135
press	-12136
rChar	-12137
setSe	-12138
stead	-12139
▁HDES	-12140
▁PASS	-12141
▁PRIV	-12142
▁SOUR	-12143
▁Sess	-12144
▁keyG	-12145
▁sett	-12146
▁vari	-12147
CharTo	-12148
KEWORD	-12149
OfByte	-12150
Regist	-12151
SEPATH	-12152
SSWORD	-12153
dValid	-12154
deChar	-12155
eclare	-12156
getHel	-12157
ravers	-12158
trChar	-12159
ultipl	-12160
unionF	-12161
unionS	-12162
unionT	-12163
▁IPPRO	-12164
▁intSe	-12165
Cryptog	-12166
Startup	-12167
SystemR	-12168
SystemT	-12169
Travers	-12170
default	-12171
essageD	-12172
intData	-12173
intLine	-12174
ipeName	-12175
iration	-12176
irector	-12177
itArray	-12178
itation	-12179
ivePath	-12180
ization	-12181
jection	-12182
lSocket	-12183
lassNot	-12184
leaning	-12185
loadLen	-12186
lobalUn	-12187
loseDes	-12188
loseKey	-12189
mpClass	-12190
mportan	-12191
mproper	-12192
nXXXXXX	-12193
ndefine	-12194
nection	-12195
newgood	-12196
nprintf	-12197
nsigned	-12198
oKeyLen	-12199
001	-12200
644	-12201
CIP	-12202
DWR	-12203
GVa	-12204
IPH	-12205
IWR	-12206
Mod	-12207
PIP	-12208
PTO	-12209
eli	-12210
iel	-12211
osC	-12212
osP	-12213
pay	-12214
vsn	-12215
▁/>	-12216
▁WR	-12217
PSTR	-12218
abin	-12219
asMo	-12220
cret	-12221
ello	-12222
ialV	-12223
lian	-12224
mons	-12225
ostb	-12226
ritt	-12227
runc	-12228
stMo	-12229
strc	-12230
▁dow	-12231
▁dwB	-12232
▁hMo	-12233
▁pay	-12234
)(256	-12235
*60*2	-12236
AUser	-12237
COMMA	-12238
ENTEN	-12239
Insec	-12240
Numer	-12241
PRINT	-12242
UserW	-12243
alter	-12244
andne	-12245
erial	-12246
getLo	-12247
getQu	-12248
hroug	-12249
iSize	-12250
ktemp	-12251
longS	-12252
numer	-12253
ostIn	-12254
ostin	-12255
osure	-12256
sUser	-12257
wtemp	-12258
yUser	-12259
▁atte	-12260
Driver	-12261
RYPTKE	-12262
UserCh	-12263
assTwo	-12264
indows	-12265
itForS	-12266
ncrypt	-12267
nextTo	-12268
ribute	-12269
▁Numer	-12270
▁longS	-12271
Contain	-12272
CreateM	-12273
CreateN	-12274
CreateU	-12275
CreateW	-12276
KeyCopy	-12277
bsolete	-12278
getting	-12279
oKeyPtr	-12280
oMemory	-12281
oString	-12282
ockaddr	-12283
ockname	-12284
omicBad	-12285
onation	-12286
ongLine	-12287
onnectN	-12288
onnectS	-12289
oodSink	-12290
opening	-12291
ortData	-12292
ortLine	-12293
ossibly	-12294
ostname	-12295
perGood	-12296
plyGood	-12297
prevent	-12298
printSt	-12299
.00	-12300
1].	-12301
543	-12302
HAB	-12303
owB	-12304
▁af	-12305
10+1	-12306
3"))	-12307
3954	-12308
5_33	-12309
Coul	-12310
Enco	-12311
SHRe	-12312
SITE	-12313
SNPR	-12314
YPTO	-12315
edEn	-12316
enco	-12317
herT	-12318
here	-12319
ipeC	-12320
itCo	-12321
mary	-12322
pAdd	-12323
rinc	-12324
swer	-12325
tRef	-12326
yHel	-12327
ypes	-12328
▁GEN	-12329
▁myC	-12330
▁typ	-12331
ACKLO	-12332
FreeL	-12333
LdapC	-12334
NLINK	-12335
Refle	-12336
Unuse	-12337
ayout	-12338
butes	-12339
eterS	-12340
incip	-12341
loatN	-12342
meout	-12343
ppend	-12344
reinc	-12345
riple	-12346
winsr	-12347
yName	-12348
ypass	-12349
▁CRYP	-12350
▁LIST	-12351
▁READ	-12352
▁myUn	-12353
AAAAAA	-12354
enRand	-12355
erName	-12356
ffffff	-12357
ipherT	-12358
wBytes	-12359
aryName	-12360
decrypt	-12361
initial	-12362
itializ	-12363
ostName	-12364
putFile	-12365
quaring	-12366
quirrel	-12367
raySink	-12368
readOne	-12369
readTwo	-12370
reateCo	-12371
reation	-12372
reinter	-12373
resultS	-12374
retKeyS	-12375
ringInt	-12376
roperti	-12377
royHash	-12378
ryption	-12379
sCipher	-12380
sSocket	-12381
sStruct	-12382
seconds	-12383
sername	-12384
setRead	-12385
setsock	-12386
shValue	-12387
shedCre	-12388
slashIn	-12389
ssuming	-12390
stError	-12391
staticF	-12392
staticG	-12393
streamO	-12394
stringB	-12395
stringF	-12396
stringG	-12397
stringS	-12398
stringT	-12399
2.1	-12400
360	-12401
43;	-12402
474	-12403
56-	-12404
60*	-12405
Bef	-12406
CTE	-12407
odu	-12408
smt	-12409
▁FR	-12410
▁ab	-12411
10)*	-12412
123:	-12413
256]	-12414
HReg	-12415
SKEY	-12416
WKEY	-12417
_256	-12418
deri	-12419
dule	-12420
eXml	-12421
fter	-12422
modu	-12423
▁DEF	-12424
▁Flo	-12425
▁gra	-12426
56-1,	-12427
DOPEN	-12428
INFOH	-12429
Incor	-12430
OCESS	-12431
PipeA	-12432
absol	-12433
ality	-12434
ashCo	-12435
ateCl	-12436
chang	-12437
coder	-12438
ensit	-12439
fType	-12440
filen	-12441
xtens	-12442
▁"...	-12443
▁STAR	-12444
▁getP	-12445
▁toBe	-12446
NPRINT	-12447
Sensit	-12448
SetInf	-12449
WChars	-12450
ension	-12451
hostIn	-12452
ityImp	-12453
orithm	-12454
ostInf	-12455
second	-12456
uthent	-12457
▁filen	-12458
▁gGood	-12459
▁incor	-12460
▁inetA	-12461
▁stdTh	-12462
CipherT	-12463
ddition	-12464
egative	-12465
empFile	-12466
entType	-12467
ervInfo	-12468
gethost	-12469
ibraryA	-12470
ostInfo	-12471
stringV	-12472
structF	-12473
structS	-12474
structT	-12475
support	-12476
tAccess	-12477
tBuffer	-12478
tCreate	-12479
teArray	-12480
tiation	-12481
tribute	-12482
ttribut	-12483
twoInts	-12484
ublicSt	-12485
uctChar	-12486
uctLine	-12487
uffered	-12488
umberOf	-12489
unionSe	-12490
uration	-12491
ureRand	-12492
utePath	-12493
utwchar	-12494
vResult	-12495
vateRet	-12496
verflow	-12497
wResult	-12498
werCase	-12499
008	-12500
040	-12501
300	-12502
400	-12503
404	-12504
ExA	-12505
ExW	-12506
[40	-12507
aug	-12508
his	-12509
isA	-12510
isI	-12511
lis	-12512
nEx	-12513
nXX	-12514
wYe	-12515
▁Ex	-12516
()='	-12517
(200	-12518
*2];	-12519
0000	-12520
535)	-12521
EDOM	-12522
Mime	-12523
UPLE	-12524
atis	-12525
axIn	-12526
bmHe	-12527
cMem	-12528
cqui	-12529
ecis	-12530
etho	-12531
hMut	-12532
imeA	-12533
imeM	-12534
opEx	-12535
rUse	-12536
00));	-12537
://12	-12538
Requi	-12539
TimeA	-12540
badXX	-12541
codeB	-12542
dcode	-12543
imeIn	-12544
ision	-12545
requi	-12546
topEx	-12547
▁5000	-12548
▁cred	-12549
63600)	-12550
ASHVAL	-12551
GetDIB	-12552
Member	-12553
Multip	-12554
MutexA	-12555
dexOfS	-12556
fileXX	-12557
goodXX	-12558
imeout	-12559
isInit	-12560
multip	-12561
ntTime	-12562
royKey	-12563
▁requi	-12564
Derefer	-12565
ashCode	-12566
ateTime	-12567
ationEx	-12568
codeHex	-12569
doubleN	-12570
ecurity	-12571
ockDest	-12572
woIntsC	-12573
wordLen	-12574
xceptIO	-12575
xceptIn	-12576
yBuffer	-12577
yString	-12578
yStruct	-12579
▁Buffer	-12580
▁Calend	-12581
▁CryptD	-12582
▁DETACH	-12583
▁Execut	-12584
▁Helper	-12585
▁Inject	-12586
▁Interr	-12587
▁Linked	-12588
▁MKSTEM	-12589
▁OMITGO	-12590
▁Proper	-12591
▁Result	-12592
▁SHRegC	-12593
▁Server	-12594
▁XPathF	-12595
▁charAr	-12596
▁charSe	-12597
▁charSt	-12598
▁charTh	-12599
ULT	-12600
[14	-12601
[16	-12602
sqr	-12603
0123	-12604
123"	-12605
123-	-12606
123.	-12607
42);	-12608
FORM	-12609
IBUT	-12610
MODU	-12611
TRIB	-12612
Winl	-12613
apeU	-12614
cWin	-12615
qrst	-12616
tact	-12617
▁"']	-12618
▁102	-12619
▁10:	-12620
▁WID	-12621
▁ans	-12622
(10/2	-12623
123",	-12624
BeDec	-12625
LockA	-12626
ORMAT	-12627
Plane	-12628
URLEn	-12629
WinSt	-12630
Windo	-12631
aract	-12632
capeU	-12633
enceA	-12634
eroOr	-12635
flect	-12636
gfree	-12637
lated	-12638
maxab	-12639
opWin	-12640
quals	-12641
tials	-12642
xFact	-12643
▁"123	-12644
▁2000	-12645
▁ULON	-12646
▁coun	-12647
▁hWin	-12648
▁sqrt	-12649
▁subt	-12650
-07-13	-12651
9543);	-12652
9544);	-12653
://123	-12654
ATTRIB	-12655
active	-12656
alLock	-12657
apeXml	-12658
berosP	-12659
cquire	-12660
getLog	-12661
onated	-12662
texist	-12663
▁thing	-12664
Charact	-12665
READMOD	-12666
Require	-12667
ictable	-12668
lobalAl	-12669
loseWin	-12670
oKeyRef	-12671
require	-12672
▁classO	-12673
▁classT	-12674
▁classn	-12675
▁comput	-12676
▁contro	-12677
▁conver	-12678
▁dataAr	-12679
▁dataHa	-12680
▁dataRe	-12681
▁dataUn	-12682
▁differ	-12683
▁encode	-12684
▁finall	-12685
▁fprint	-12686
▁goodCh	-12687
▁goodIn	-12688
▁goodSt	-12689
▁hCrypt	-12690
▁hashed	-12691
▁inetAd	-12692
▁inputX	-12693
▁isInit	-12694
▁linked	-12695
▁myUser	-12696
▁namesp	-12697
▁printB	-12698
▁printD	-12699
Cli	-12700
EMT	-12701
LAG	-12702
SCO	-12703
axA	-12704
8364	-12705
ATUS	-12706
CHIN	-12707
Clon	-12708
Subt	-12709
Wide	-12710
[200	-12711
etCl	-12712
hell	-12713
last	-12714
rcCl	-12715
side	-12716
ttld	-12717
valt	-12718
vide	-12719
▁(-2	-12720
▁SHR	-12721
▁TEM	-12722
.0.1"	-12723
01234	-12724
12345	-12725
127.0	-12726
=\"10	-12727
Behav	-12728
ESSAG	-12729
ITECH	-12730
USKEY	-12731
astMo	-12732
dowSt	-12733
empor	-12734
ldbad	-12735
lient	-12736
ssert	-12737
utdow	-12738
▁Mime	-12739
▁SHRE	-12740
▁last	-12741
▁myCl	-12742
LIMITE	-12743
LockAc	-12744
NETWOR	-12745
NLIMIT	-12746
PipeCl	-12747
REENTR	-12748
Tempor	-12749
ateNam	-12750
endRed	-12751
enerat	-12752
etTemp	-12753
getRun	-12754
icient	-12755
ijklmn	-12756
ipient	-12757
ldgood	-12758
loseUS	-12759
valBad	-12760
▁SHReg	-12761
Authent	-12762
enerate	-12763
existan	-12764
ideChar	-12765
onexist	-12766
ubtract	-12767
valGood	-12768
validat	-12769
▁crypto	-12770
▁printF	-12771
▁printH	-12772
▁printL	-12773
▁printM	-12774
▁printN	-12775
▁printS	-12776
▁printU	-12777
▁proble	-12778
▁proper	-12779
▁serial	-12780
▁sprint	-12781
▁tempor	-12782
▁toBeEn	-12783
▁triple	-12784
▁voidSe	-12785
▁voidTh	-12786
▁vprint	-12787
▁wprint	-12788
▁zeroOr	-12789
"0123456	-12790
1,2,3,4,	-12791
26191850	-12792
92593505	-12793
ACleanup	-12794
Abstract	-12795
ArrayHel	-12796
BadFirst	-12797
CRYPTKEY	-12798
CharLine	-12799
7".	-12800
99*	-12801
999	-12802
PWA	-12803
UFF	-12804
[99	-12805
("<!	-12806
690"	-12807
99);	-12808
Atom	-12809
Atte	-12810
UFSI	-12811
byre	-12812
door	-12813
ious	-12814
ount	-12815
safe	-12816
strd	-12817
▁SEC	-12818
▁SEE	-12819
.123.	-12820
DEFGH	-12821
ENHAN	-12822
KSTEM	-12823
PWAIT	-12824
RegOp	-12825
STEMT	-12826
SizeI	-12827
URISy	-12828
World	-12829
dSize	-12830
dvapi	-12831
evalu	-12832
fputw	-12833
ipAdd	-12834
mpers	-12835
ogger	-12836
spici	-12837
strto	-12838
▁SEAR	-12839
▁XXXX	-12840
▁hMut	-12841
▁theD	-12842
AddBad	-12843
BadDer	-12844
ESSAGE	-12845
Extern	-12846
Impers	-12847
MutexW	-12848
OpenUS	-12849
byaddr	-12850
byname	-12851
ckSize	-12852
erator	-12853
ersion	-12854
gerous	-12855
mpSize	-12856
otenti	-12857
sclass	-12858
untRef	-12859
yHello	-12860
▁"\\\\	-12861
▁reach	-12862
OpenKey	-12863
URISynt	-12864
capeUti	-12865
eadlock	-12866
entials	-12867
perator	-12868
redenti	-12869
xpected	-12870
▁expect	-12871
ClientRe	-12872
Compress	-12873
CreateUS	-12874
CryptDec	-12875
CryptDer	-12876
CryptPro	-12877
DesktopA	-12878
Destruct	-12879
ERICSERV	-12880
FileNotF	-12881
FromPare	-12882
HABCDEFG	-12883
Hardcode	-12884
InString	-12885
Inherent	-12886
InitialD	-12887
Instanti	-12888
IntArray	-12889
Interval	-12890
KeyGener	-12891
LEncoder	-12892
LONGLONG	-12893
LibraryA	-12894
LibraryW	-12895
LongLong	-12896
MessageD	-12897
PerMeter	-12898
Prepared	-12899
*36	-12900
389	-12901
:41	-12902
EDO	-12903
HED	-12904
HND	-12905
UND	-12906
Wee	-12907
XED	-12908
div	-12909
lwa	-12910
sAs	-12911
2010	-12912
36];	-12913
5041	-12914
COMP	-12915
ForS	-12916
OLAT	-12917
Perm	-12918
Pred	-12919
Scre	-12920
WEOF	-12921
alwa	-12922
erru	-12923
fOff	-12924
pire	-12925
raph	-12926
rimm	-12927
scre	-12928
topA	-12929
topW	-12930
wait	-12931
▁REM	-12932
▁err	-12933
89");	-12934
Deskt	-12935
Trimm	-12936
deriv	-12937
enied	-12938
iComp	-12939
nXXXX	-12940
▁BUFF	-12941
▁Read	-12942
▁setD	-12943
123-->	-12944
512");	-12945
AsFile	-12946
Compre	-12947
ERNAME	-12948
Explic	-12949
MODULE	-12950
TimeAs	-12951
USKeyA	-12952
USKeyW	-12953
ailure	-12954
driver	-12955
enceAs	-12956
hutdow	-12957
ileSig	-12958
ograph	-12959
Compari	-12960
Complet	-12961
INSTANC	-12962
Shutdow	-12963
mparing	-12964
topName	-12965
urrentD	-12966
verMana	-12967
▁Driver	-12968
Privileg	-12969
ProcessA	-12970
ProcessW	-12971
Properti	-12972
RYPTPROV	-12973
ReleaseD	-12974
ReturnsF	-12975
Runnable	-12976
ServletB	-12977
StackTra	-12978
StationA	-12979
StationW	-12980
StreamRe	-12981
StringBu	-12982
StringEs	-12983
StringTo	-12984
Successf	-12985
Uncontro	-12986
Unsatisf	-12987
UserName	-12988
WSAStart	-12989
XPathCon	-12990
abcdefgh	-12991
absolute	-12992
adBuffer	-12993
adNumber	-12994
adSource	-12995
adString	-12996
aderFile	-12997
alAccess	-12998
alReturn	-12999
'><	-13000
,4,	-13001
4,5	-13002
MPN	-13003
RUN	-13004
UNT	-13005
nly	-13006
pAd	-13007
wmk	-13008
.0):	-13009
37);	-13010
><()	-13011
BTRE	-13012
CHEC	-13013
Calc	-13014
Empt	-13015
GSET	-13016
GetD	-13017
GetL	-13018
RENT	-13019
SCOP	-13020
SOUR	-13021
TRUN	-13022
[149	-13023
aust	-13024
etAd	-13025
ipAd	-13026
lane	-13027
runn	-13028
teAd	-13029
tran	-13030
▁149	-13031
▁ran	-13032
ACTOR	-13033
Curre	-13034
ITIAL	-13035
Insuf	-13036
Omiss	-13037
PAYLO	-13038
Slash	-13039
ThisI	-13040
UFFER	-13041
alcul	-13042
curre	-13043
edded	-13044
laint	-13045
netAd	-13046
perAd	-13047
slash	-13048
stomb	-13049
trust	-13050
▁RegC	-13051
▁calc	-13052
▁tmpn	-13053
ACTORY	-13054
KeyExA	-13055
LdapCt	-13056
Revert	-13057
adcast	-13058
floatN	-13059
inetAd	-13060
runcat	-13061
zeroOr	-13062
▁PAYLO	-13063
▁acqui	-13064
▁curre	-13065
Untrust	-13066
aintext	-13067
errorUn	-13068
runTest	-13069
secureD	-13070
setCata	-13071
▁SRCCOP	-13072
CryptGet	-13073
DesktopW	-13074
SocketAd	-13075
alendarN	-13076
alicious	-13077
allValue	-13078
arString	-13079
ariables	-13080
aseClass	-13081
ashValue	-13082
asswordA	-13083
asswordB	-13084
asswordC	-13085
asswordG	-13086
asswordH	-13087
asswordL	-13088
asswordM	-13089
asswordP	-13090
asswordS	-13091
asswordV	-13092
asswords	-13093
astError	-13094
atBuffer	-13095
ataInput	-13096
ateNamed	-13097
aticTrue	-13098
badClass	-13099
020	-13100
FFF	-13101
TUP	-13102
XME	-13103
efo	-13104
mkd	-13105
xFF	-13106
000)	-13107
000;	-13108
4*36	-13109
PINF	-13110
REMO	-13111
SION	-13112
appy	-13113
iPla	-13114
iedL	-13115
mitt	-13116
ropp	-13117
ssed	-13118
wcst	-13119
▁(;;	-13120
▁REC	-13121
(2000	-13122
(3000	-13123
00001	-13124
DIBit	-13125
RECUR	-13126
UPINF	-13127
asses	-13128
dress	-13129
eDate	-13130
etAdd	-13131
hDate	-13132
ibleB	-13133
mpted	-13134
pdoor	-13135
saved	-13136
teAdd	-13137
ubmit	-13138
▁REEN	-13139
▁REMO	-13140
▁TRUN	-13141
NEWKEY	-13142
atible	-13143
cident	-13144
codedP	-13145
creenC	-13146
errupt	-13147
perAdd	-13148
toBeEn	-13149
twoint	-13150
uments	-13151
▁RECUR	-13152
▁TRUNC	-13153
▁saved	-13154
(10/2);	-13155
AddGood	-13156
USEADDR	-13157
address	-13158
cWindow	-13159
dcMemDC	-13160
finaliz	-13161
helperB	-13162
helperM	-13163
reating	-13164
sTransl	-13165
▁0.0000	-13166
▁calend	-13167
Writable	-13168
berosKey	-13169
bjectBad	-13170
chResult	-13171
cidental	-13172
codeBase	-13173
connectS	-13174
correctl	-13175
cryptedP	-13176
ctObject	-13177
ctResult	-13178
ctSocket	-13179
ctStream	-13180
dPayload	-13181
dataByte	-13182
dataHash	-13183
destruct	-13184
eServlet	-13185
ecretKey	-13186
ectArray	-13187
ecutable	-13188
emProper	-13189
enRandom	-13190
enSocket	-13191
enStream	-13192
endError	-13193
enerator	-13194
entially	-13195
erBuffer	-13196
erOutput	-13197
erSocket	-13198
erberosP	-13199
163	-13200
553	-13201
Deb	-13202
IvP	-13203
KCU	-13204
biW	-13205
biX	-13206
bmS	-13207
bmW	-13208
bmf	-13209
hbm	-13210
nsl	-13211
▁qw	-13212
6360	-13213
hods	-13214
icol	-13215
inds	-13216
lise	-13217
mico	-13218
wunl	-13219
▁IvP	-13220
▁Rpc	-13221
▁bmf	-13222
▁bmi	-13223
▁hbm	-13224
▁ivP	-13225
)(250	-13226
.123:	-13227
0.123	-13228
128);	-13229
8'></	-13230
Alive	-13231
INFOW	-13232
OLATI	-13233
Relev	-13234
alted	-13235
efore	-13236
ergen	-13237
icode	-13238
▁Inet	-13239
▁PROC	-13240
▁ftMo	-13241
1,2,3,	-13242
Append	-13243
MySalt	-13244
NECTED	-13245
POSITE	-13246
Status	-13247
UPINFO	-13248
VOLATI	-13249
efault	-13250
etLast	-13251
fusion	-13252
hrough	-13253
ibleDC	-13254
kstemp	-13255
leared	-13256
GetLast	-13257
Inspect	-13258
MAPFILE	-13259
MAPINFO	-13260
PathApp	-13261
SERNAME	-13262
ScreenC	-13263
abcdefg	-13264
ergency	-13265
sToRead	-13266
▁valBad	-13267
FFFFFFFF	-13268
SLSocket	-13269
SessionI	-13270
ersonate	-13271
ervletRe	-13272
etClient	-13273
etObject	-13274
etSocket	-13275
etString	-13276
etSystem	-13277
etermine	-13278
eyBuffer	-13279
fileXXXX	-13280
flection	-13281
getCooki	-13282
getQuery	-13283
goodXXXX	-13284
haracter	-13285
hortData	-13286
hortLine	-13287
ientType	-13288
ileInput	-13289
ileSigAt	-13290
indexOfS	-13291
inkError	-13292
insecure	-13293
irectory	-13294
ithmetic	-13295
laintext	-13296
leObject	-13297
leartext	-13298
llegalAr	-13299
-9]	-13300
.23	-13301
ghi	-13302
rng	-13303
▁RP	-13304
▁Ro	-13305
▁Ye	-13306
-9]*	-13307
1918	-13308
5.23	-13309
50):	-13310
Capt	-13311
MaxA	-13312
OnEx	-13313
stuv	-13314
tual	-13315
▁{1,	-13316
135_2	-13317
135_6	-13318
168.3	-13319
BadOn	-13320
DUPLE	-13321
Delim	-13322
Dropp	-13323
Heigh	-13324
MaxIn	-13325
Virtu	-13326
Welco	-13327
aught	-13328
haust	-13329
qrstu	-13330
sTran	-13331
virtu	-13332
ySalt	-13333
ynchr	-13334
▁cann	-13335
▁clon	-13336
.123",	-13337
105.23	-13338
168.10	-13339
Comput	-13340
EMPNAM	-13341
FFFFFF	-13342
Transp	-13343
UMERIC	-13344
coding	-13345
hashed	-13346
hdcMem	-13347
onized	-13348
owGood	-13349
semico	-13350
ursion	-13351
▁badOb	-13352
.123"))	-13353
123.123	-13354
Subject	-13355
creenCa	-13356
intThir	-13357
mplicit	-13358
ptrChar	-13359
▁Revert	-13360
▁goodOb	-13361
Computer	-13362
HostName	-13363
ORMATION	-13364
ScreenCa	-13365
deleteOn	-13366
errupted	-13367
loadByte	-13368
loatLine	-13369
lobalBad	-13370
lockSize	-13371
loseDesk	-13372
loseHand	-13373
lsSocket	-13374
mentHash	-13375
messageB	-13376
mplement	-13377
ndefined	-13378
nderflow	-13379
nextByte	-13380
nopqrstu	-13381
ntThread	-13382
numberOf	-13383
oKeyCopy	-13384
okenizer	-13385
omicGood	-13386
ondition	-13387
onnected	-13388
ontainer	-13389
opqrstuv	-13390
orString	-13391
ormation	-13392
ourceLen	-13393
pAddress	-13394
pServlet	-13395
pecified	-13396
perClass	-13397
peration	-13398
prepared	-13399
655	-13400
hhh	-13401
vwx	-13402
020,	-13403
1474	-13404
1991	-13405
2030	-13406
3040	-13407
6553	-13408
BitB	-13409
ILSE	-13410
OptV	-13411
dotd	-13412
rpcd	-13413
rpcr	-13414
▁mod	-13415
▁syn	-13416
▁vol	-13417
48364	-13418
ETACH	-13419
dwBmp	-13420
esnte	-13421
ijack	-13422
ijklm	-13423
irrel	-13424
races	-13425
robot	-13426
voice	-13427
▁1337	-13428
▁enou	-13429
(15000	-13430
147483	-13431
400000	-13432
ClrUse	-13433
InMill	-13434
Insuff	-13435
OptLen	-13436
ThisIs	-13437
WINSTA	-13438
bitmap	-13439
cessed	-13440
esntex	-13441
icense	-13442
neverw	-13443
ometim	-13444
ritten	-13445
voices	-13446
wDayOf	-13447
▁15000	-13448
▁bOptV	-13449
▁dwBmp	-13450
▁indic	-13451
▁issue	-13452
5001));	-13453
IntArgs	-13454
NetUser	-13455
floatNa	-13456
moteAdd	-13457
olatile	-13458
present	-13459
ransfer	-13460
setMaxA	-13461
ssueBad	-13462
uncated	-13463
xffffff	-13464
▁BadDer	-13465
▁REENTR	-13466
10000000	-13467
PelsPerM	-13468
ThisIsMy	-13469
andnever	-13470
dcWindow	-13471
dictable	-13472
doubleNa	-13473
itialize	-13474
pression	-13475
printMem	-13476
ptString	-13477
ractTest	-13478
ransport	-13479
rantLock	-13480
raryName	-13481
readDest	-13482
readLock	-13483
reamByte	-13484
reamData	-13485
reamFile	-13486
reateDes	-13487
reateKey	-13488
reatePro	-13489
required	-13490
reversed	-13491
ringLine	-13492
ringTrue	-13493
rintData	-13494
riteFile	-13495
riteLine	-13496
roadcast	-13497
ructLine	-13498
runcated	-13499
96]	-13500
=2)	-13501
Bod	-13502
GDI	-13503
HKL	-13504
(60*	-13505
07-1	-13506
2,3,	-13507
BowB	-13508
ClrI	-13509
Pels	-13510
fini	-13511
365*5	-13512
4,5};	-13513
4096]	-13514
41:00	-13515
65536	-13516
BitBl	-13517
COLOR	-13518
ILSEQ	-13519
Recip	-13520
inite	-13521
oogle	-13522
recip	-13523
recur	-13524
▁SECR	-13525
("2010	-13526
)11991	-13527
102030	-13528
Binary	-13529
BowBad	-13530
Planes	-13531
UNCATE	-13532
elsPer	-13533
finite	-13534
getAdd	-13535
reater	-13536
▁HGDIO	-13537
▁chang	-13538
*60*24*	-13539
123-->"	-13540
365*5);	-13541
BinaryA	-13542
BowBack	-13543
BowGood	-13544
OffBits	-13545
Persist	-13546
Rectang	-13547
Version	-13548
aracter	-13549
chField	-13550
ctangle	-13551
cursion	-13552
cursive	-13553
derived	-13554
getSimp	-13555
loneNot	-13556
valtine	-13557
(100,100	-13558
30.123",	-13559
9163600)	-13560
BackGood	-13561
BitCount	-13562
Inactive	-13563
IssueBad	-13564
biClrUse	-13565
charFour	-13566
loneable	-13567
nameinfo	-13568
rotected	-13569
ryptData	-13570
ryptHash	-13571
ryptoKey	-13572
sAsBytes	-13573
sCommand	-13574
sSuccess	-13575
saDataIn	-13576
screenCa	-13577
serviceC	-13578
setMaxIn	-13579
sgBuffer	-13580
shedCred	-13581
slSocket	-13582
spicious	-13583
ssueGood	-13584
stcasesu	-13585
stringte	-13586
structCh	-13587
synchron	-13588
tMessage	-13589
teObject	-13590
teString	-13591
tiesFile	-13592
tributes	-13593
ttribute	-13594
ubstring	-13595
ultiplic	-13596
uncation	-13597
unctions	-13598
urityImp	-13599
;;)	-13600
200)	-13601
2593	-13602
9350	-13603
39.10	-13604
93505	-13605
atisf	-13606
▁7925	-13607
▁NoSu	-13608
191850	-13609
RECURS	-13610
amount	-13611
dField	-13612
entEqu	-13613
multil	-13614
nderst	-13615
bounded	-13616
iedLink	-13617
▁RECURS	-13618
utBuffer	-13619
uteQuery	-13620
validate	-13621
vateFive	-13622
vateTrue	-13623
verified	-13624
versible	-13625
wDayOfWe	-13626
woIntsSt	-13627
xFactory	-13628
yContext	-13629
yteArray	-13630
▁2147483	-13631
▁BadBase	-13632
▁CreateM	-13633
▁CreateN	-13634
▁CreateW	-13635
▁CryptEn	-13636
▁CryptRe	-13637
▁FileNot	-13638
▁HCRYPTH	-13639
▁NetUser	-13640
▁SYSTEMT	-13641
▁StringB	-13642
▁StringE	-13643
▁StringT	-13644
▁SystemT	-13645
▁TwoInts	-13646
▁ULONGLO	-13647
▁URLEnco	-13648
▁acceptS	-13649
▁arrayHe	-13650
▁attempt	-13651
▁bytesTo	-13652
▁charact	-13653
▁contain	-13654
▁convers	-13655
▁cryptog	-13656
▁current	-13657
▁dataCon	-13658
▁decoded	-13659
▁decrypt	-13660
▁desktop	-13661
▁dwBytes	-13662
▁encoded	-13663
▁errorUn	-13664
▁exceptA	-13665
▁exceptF	-13666
▁exceptI	-13667
▁exceptM	-13668
▁exceptN	-13669
▁exceptS	-13670
▁exceptT	-13671
▁exceptU	-13672
▁fileDes	-13673
▁formatt	-13674
▁gStruct	-13675
▁gethost	-13676
▁helperB	-13677
▁helperM	-13678
▁inetAdd	-13679
▁intThir	-13680
▁occurre	-13681
▁prepare	-13682
▁printHe	-13683
▁printIn	-13684
▁printSt	-13685
▁printUn	-13686
▁reinter	-13687
▁require	-13688
▁resultS	-13689
▁slashIn	-13690
▁staticF	-13691
▁staticG	-13692
▁staticR	-13693
▁staticT	-13694
▁streamB	-13695
▁streamO	-13696
▁stringB	-13697
▁stringF	-13698
▁stringG	-13699
▁stringH	-13700
▁stringS	-13701
▁stringT	-13702
▁stringV	-13703
▁structF	-13704
▁structS	-13705
▁success	-13706
▁twoInts	-13707
▁underst	-13708
▁withdra	-13709
▁writerP	-13710
("2010-07	-13711
10000000)	-13712
123456789	-13713
30.123"))	-13714
:41:00");	-13715
ARTUPINFO	-13716
ArraySink	-13717
BadBuffer	-13718
BadNumber	-13719
BadSecond	-13720
BlockSize	-13721
BufferedI	-13722
BufferedW	-13723
BytesRead	-13724
BytesWrit	-13725
CLUDEMAIN	-13726
COMPOSITE	-13727
CRYPTHASH	-13728
CRYPTPROV	-13729
CharArray	-13730
ClientLen	-13731
Construct	-13732
CreateDes	-13733
CreateKey	-13734
CreateMut	-13735
CreateNam	-13736
CreatePro	-13737
CreateWin	-13738
CryptHash	-13739
Cryptogra	-13740
Decrypted	-13741
DesCipher	-13742
DesktopEx	-13743
Encrypted	-13744
FileNameA	-13745
FileNameW	-13746
GenRandom	-13747
GlobalBad	-13748
GoodClass	-13749
HashParam	-13750
ITMAPFILE	-13751
ITMAPINFO	-13752
Important	-13753
Improperl	-13754
Initializ	-13755
InputSink	-13756
Invalidat	-13757
IssueGood	-13758
KerberosP	-13759
KeyBuffer	-13760
LinkError	-13761
OpenKeyEx	-13762
OpenUSKey	-13763
PFILETIME	-13764
Parameter	-13765
PasswordA	-13766
ProcessAs	-13767
ReleaseDC	-13768
SessionId	-13769
SizeImage	-13770
SocketAdd	-13771
StationEx	-13772
StringBad	-13773
StringLen	-13774
StructSig	-13775
Supported	-13776
TestCaseB	-13777
TestCaseC	-13778
ThirtyOne	-13779
YPelsPerM	-13780
adLibrary	-13781
aderInput	-13782
ageDigest	-13783
alReturns	-13784
alidation	-13785
allAttrib	-13786
allocated	-13787
arameterS	-13788
aseObject	-13789
asswordAr	-13790
asswordHa	-13791
asswordRe	-13792
ateClient	-13793
ateFormat	-13794
ateSocket	-13795
ationName	-13796
ativePath	-13797
ayloadLen	-13798
bjectGood	-13799
bleNumber	-13800
bpassword	-13801
busername	-13802
cImperson	-13803
calendarN	-13804
capeUtils	-13805
chronized	-13806
construct	-13807
container	-13808
cryptData	-13809
dPassword	-13810
deHexChar	-13811
ectStream	-13812
ecureRand	-13813
edSession	-13814
entEquals	-13815
entenceAs	-13816
erialized	-13817
ermission	-13818
ersonated	-13819
erviceLen	-13820
eryString	-13821
etAddress	-13822
etDesktop	-13823
etUserSet	-13824
existantt	-13825
forcement	-13826
galAccess	-13827
getAttrib	-13828
getInstan	-13829
getOutput	-13830
getProper	-13831
getRemote	-13832
getTimeIn	-13833
hDateTime	-13834
hasMoreTo	-13835
ializable	-13836
ignedLine	-13837
imitation	-13838
ingBuffer	-13839
initArray	-13840
initializ	-13841
intsclass	-13842
ionNumber	-13843
ionStruct	-13844
ipulation	-13845
isRequest	-13846
isSuccess	-13847
itForSing	-13848
itialized	-13849
ivedClass	-13850
jectArray	-13851
llegalArg	-13852
lobalFree	-13853
lobalGood	-13854
lobalLock	-13855
lobalTrue	-13856
loseUSKey	-13857
meMessage	-13858
messageBo	-13859
newDirect	-13860
newInstan	-13861
ockCreate	-13862
oidSecond	-13863
ongNumber	-13864
onnectNam	-13865
oodBuffer	-13866
oodSource	-13867
ookieSink	-13868
opqrstuvw	-13869
orization	-13870
ortBuffer	-13871
oubleLine	-13872
passwordA	-13873
passwordL	-13874
passwordM	-13875
passwordS	-13876
passwordV	-13877
plication	-13878
presented	-13879
putBuffer	-13880
putStream	-13881
quiredLen	-13882
reContext	-13883
reamInput	-13884
reateFile	-13885
reateHash	-13886
reateTemp	-13887
ringInput	-13888
riverMana	-13889
roperties	-13890
rorString	-13891
sedString	-13892
serviceCl	-13893
setAttrib	-13894
setExecut	-13895
slsSocket	-13896
stringInt	-13897
stringSub	-13898
stringTri	-13899
structSig	-13900
tModified	-13901
tempClass	-13902
texistand	-13903
ttributes	-13904
uccessful	-13905
ufficient	-13906
ultInstan	-13907
umeration	-13908
ureRandom	-13909
utputFile	-13910
▁	-13911
e	-13912
t	-13913
a	-13914
r	-13915
i	-13916
n	-13917
o	-13918
d	-13919
s	-13920
c	-13921
(	-13922
)	-13923
l	-13924
;	-13925
_	-13926
f	-13927
p	-13928
u	-13929
g	-13930
I	-13931
.	-13932
=	-13933
L	-13934
{	-13935
}	-13936
h	-13937
m	-13938
"	-13939
S	-13940
O	-13941
E	-13942
v	-13943
w	-13944
C	-13945
N	-13946
,	-13947
0	-13948
A	-13949
B	-13950
b	-13951
T	-13952
1	-13953
R	-13954
2	-13955
#	-13956
x	-13957
G	-13958
F	-13959
y	-13960
k	-13961
W	-13962
D	-13963
*	-13964
U	-13965
M	-13966
[	-13967
]	-13968
P	-13969
'	-13970
3	-13971
5	-13972
-	-13973
H	-13974
V	-13975
\	-13976
!	-13977
K	-13978
4	-13979
+	-13980
<	-13981
6	-13982
j	-13983
q	-13984
>	-13985
z	-13986
9	-13987
/	-13988
&	-13989
8	-13990
7	-13991
:	-13992
X	-13993
Y	-13994
|	-13995
Q	-13996
